node {
  name: "x"
  op: "Placeholder"
  attr {
    key: "dtype"
    value {
      type: DT_FLOAT
    }
  }
  attr {
    key: "shape"
    value {
      shape {
        dim {
          size: 4000
        }
        dim {
          size: 24
        }
      }
    }
  }
}
node {
  name: "decoder/conv2d_transpose/Shape"
  op: "Const"
  attr {
    key: "dtype"
    value {
      type: DT_INT32
    }
  }
  attr {
    key: "value"
    value {
      tensor {
        dtype: DT_INT32
        tensor_shape {
          dim {
            size: 4
          }
        }
        tensor_content: "\240\017\000\000\004\000\000\000\004\000\000\000\010\000\000\000"
      }
    }
  }
}
node {
  name: "decoder/conv2d_transpose/strided_slice/stack"
  op: "Const"
  attr {
    key: "dtype"
    value {
      type: DT_INT32
    }
  }
  attr {
    key: "value"
    value {
      tensor {
        dtype: DT_INT32
        tensor_shape {
          dim {
            size: 1
          }
        }
      }
    }
  }
}
node {
  name: "decoder/conv2d_transpose/strided_slice/stack_1"
  op: "Const"
  attr {
    key: "dtype"
    value {
      type: DT_INT32
    }
  }
  attr {
    key: "value"
    value {
      tensor {
        dtype: DT_INT32
        tensor_shape {
          dim {
            size: 1
          }
        }
        int_val: 1
      }
    }
  }
}
node {
  name: "decoder/conv2d_transpose/strided_slice/stack_2"
  op: "Const"
  attr {
    key: "dtype"
    value {
      type: DT_INT32
    }
  }
  attr {
    key: "value"
    value {
      tensor {
        dtype: DT_INT32
        tensor_shape {
          dim {
            size: 1
          }
        }
        int_val: 1
      }
    }
  }
}
node {
  name: "decoder/conv2d_transpose/stack/1"
  op: "Const"
  attr {
    key: "dtype"
    value {
      type: DT_INT32
    }
  }
  attr {
    key: "value"
    value {
      tensor {
        dtype: DT_INT32
        tensor_shape {
        }
        int_val: 9
      }
    }
  }
}
node {
  name: "decoder/conv2d_transpose/stack/2"
  op: "Const"
  attr {
    key: "dtype"
    value {
      type: DT_INT32
    }
  }
  attr {
    key: "value"
    value {
      tensor {
        dtype: DT_INT32
        tensor_shape {
        }
        int_val: 9
      }
    }
  }
}
node {
  name: "decoder/conv2d_transpose/stack/3"
  op: "Const"
  attr {
    key: "dtype"
    value {
      type: DT_INT32
    }
  }
  attr {
    key: "value"
    value {
      tensor {
        dtype: DT_INT32
        tensor_shape {
        }
        int_val: 1
      }
    }
  }
}
node {
  name: "decoder/conv2d_transpose/conv2d_transpose/ReadVariableOp/resource"
  op: "Const"
  attr {
    key: "dtype"
    value {
      type: DT_FLOAT
    }
  }
  attr {
    key: "value"
    value {
      tensor {
        dtype: DT_FLOAT
        tensor_shape {
          dim {
            size: 3
          }
          dim {
            size: 3
          }
          dim {
            size: 1
          }
          dim {
            size: 8
          }
        }
        tensor_content: "IT\361\276\214\014\311>\252C%> <\215=p\034 \276<,V\275\274Q\230\276 \2317\275\246\344\017\277\266/\000?\232c\225\276\242\314\211\2764\264\000>\203\235\337\276\263j\205>]1\305>(\\5\276\276Ow\276V$\371\276pOO>\204\224\020\275\315\374\310\276L\334\007\275\355\366\227\276\305\216\223<`\356\021\275\361\016\201\276gY\t?\225\241\023>\363\375\026=IV\231>\307\230E\276\021\221\013\277%]\233\276\002\346\226\276d\231\247>\366\306\341>R\003\307\276\037\343\271>\370%/\275@\273\376\276\017!(\276\213\0132\276\360\314\337\274c\365q\276\017\326J>\236\014\034=\212\252\023?\2306C>\203\201\204\276\202\265\300\276ZW\216\276\306y\236>\037J\177>\330\000G>S5W\276\207\364\252\276\205\366\246\275\355\'\252\276\332\223\204>\373\303\017\277\366X\342\276\013Z\035\276\233\2269\275\n5\221>\266\005n\276,\304->\256V\020=\024\236\236=\'\377\356\275\221\337\377\276\330\276\235<"
      }
    }
  }
}
node {
  name: "decoder/dense/MatMul/ReadVariableOp/resource"
  op: "Const"
  attr {
    key: "dtype"
    value {
      type: DT_FLOAT
    }
  }
  attr {
    key: "value"
    value {
      tensor {
        dtype: DT_FLOAT
        tensor_shape {
          dim {
            size: 24
          }
          dim {
            size: 24
          }
        }
        tensor_content: "\271z\264>\'l\364\276asC>l<\361>\032o\010\276<W\022=\266{\t\274\327.^\276e\006;\277\032\273\376=\240\007\354\276\234q\260=\"\277\371=~\016\030\276\014H\322>l-\014\276<M\346=\352\273\205\276\313k\212=\367\245\371>P\002\r\275\371|\016\277\375\352\243<\\\033e\275\346\213i>\261,\026\2772~\363\276\010\354\371\276\201\305\201\274\370\272\241\276bSE>N\350\201\274C\016\301>\002\361J\274 ?g>\366~\207=\230\022>\275\245\226\306>6\367\025\276\236\244\266\276n4\211\276p\347\025= ]\224><\022\020\276\326\326\327=\2531\275\276 W\342>\2629\235>\002\3323\274\264\371\362>\252\3362\276X\277\314\276\206\310\235>\213\251m\276\024^\224\276\204Y\240=\010\314\027\277\253\266*\275\246\374\013?\211x\021?\237\000\277\276\325\350\342=\'\276\020\276\340\330T>\0275>\276\000l3\276\267r\377\274\0271\274>4\251&?x\177\215=\206\250\303\276\000F\023\277w\271\201\2764\266\303;\336\360\226\276\\\324\337\276\003R\327>hUy\275L\353%\276\335T*\277\324\007\234\2752\311\003?\367V\334>>\222\002?`Mp\276A\0303\277@\352Y\275`|Q>\017P\266>\237#*?y\022\036\273y8\235>\356F\354=\244R0\277%<\323<e\304\331<\273\001\235>YY\275\275r\020\324=*\026\002?\000\2264\276\253t\302\276\251p\277>f\333\356\276\022\312|\276\213\271\315>\313\017\257\276\002a\000\276:s\021\276\360\330X=\362\356\264\274\374\033T<+\251\334>F\020\320\276\377\364\351\274T@\253;\251\026&\2752\250;\276\375\022\252\276b<\032>\205t\264>\222\324|\275\036\207\254\276\260\262J?\260\202\034\276\255\001\262>d\240\212\276vBY\276\244\220\376>\204\025w\274s\225i>\220\272\201\276\225\372\243\275Yd\363>\306#\">El8\276\216\025F\276\366\235$<\360\357\366\276\265u\337>\227\310\301>\205F\276>\252\020\035\276\031\267\240\275\257b\377>\223\224\032\275^\226\024?\377\315\033\277\354\261p>c\204\261\276\031o\364>\366\226\031<\354,L\277L\271\242>\030i\030?\225]\201=\250\276\t=[\332~=\263\263\030?\253\317\334\274\020\340\347\276JS\203\276g\325X\276\247\033[\276N\211\263\276\320\311`=\034\334*\276\250\261\024\276\317{$>?\325s\276H\013U>\037 \376\276\232w\025\276\325\344\037?=Y9\277\221\261\034\277TZ\316\275\344\2345\276\267\320o>=\227\373>?/\214\276\314\315\327=\270\201\210\276\241\321\232>H\374\361\275\274^\206=\233\230\352<\364\272\372\276\017\025\032\277uS\204>\003b\317\2762\313\322>T&\036\276j\370l\276\362\352\353>\270+\267>K\204\304>\375\350\030\277\2176\300\276Lk\345\276\270\265\276=@\347)\275\227\352\357\276\251\336G\277\270t}=\306h\322\272\236\271<\276\344\211\n?\274U\303\276Q\261\203>\251\"\206>\315\240\236\276\334`N\275E\023\014?[\220\206>\020{\261=r;\352\275\203pT\277od5\276\027\235\244\276I\226\024\277\201\013\374\276\316Ib\274k\377\204>5<\241\275\3555\005\277\024\023/\276\330\252\'>/\353\210>\344\366a\276.\022&\277\010\022\016?\304\326\353\275\241\220\026? \227\002\277)\001\007?\334\211\t?H\207\013>*\243\217\276\t\325\010>\204\\;\277H\214\205\276:\205f\276\177\024\242>\006\326\333>\257g0\275tS\275=\374\264.>%T\326>\266\346\355>0\241S>\363\033\235>\225\030U>\362\267A\274\340\322\307\276\305\016\355>\223Id\276O(\007\277\354\027\237\276\375J\030\277R\253\235\276\006\300\'\274\262\032[\2741\263\304>\250\371w\275f_\017\277\350\247\361\274>\240\'?\000\245\023>T\345\361=\333\333\270\276/\256\200>;\315\210\276\323\021\226>Pu\377\276\352\361\n>V\372(\276i:\322\275ov\266>Z=\010?[\201\201<\010\323Z\276O\213\220\276c\302\023>\314\367\261\275\212\275p\276qE\303<\372\002\216\275q\245\314>\260\342\010\277\357d\216\276\257s\333>nE\002\276\247\343\005?\034\240\312>\210\007u\276 \325w\276\226KF>\222=\273>YY\307\276\267\343\223\276 \262\177\275\036J\234\276>\0342?\237\020\277\276\250\236Y=a/\305>\250M==\266\325\244\2764\371y=\235\344\211\276-1\033\277*\203\246\276n\223\305\276\034#\024?\274\227n?\237\245\213\274\345T\237>DN\033\276i\330\344>\227\366\016\277\212\005\341\276\r\345\315>\020\003\033?\355\340\022?5\375\215\276\262\304\036\277/\336\005\277e\355\347>\006\245\030\276h[\255=\315\235\300>,\006\266=\363\216/>\030g\264\275\036C>\276\016.\272\276\312\013 \277\370\256!\274\375\314.?\207S\034\277\205\361\320\276\3245\305=\'!\354\276\2142\300>^@\t\276\376BN\276\250dt\276\357ni?\374\253\237\274\344\345\332=\262\215\356\276\r\\\237>\277\016\251=F\205c\276\304\231\001\277\\\246\242\275\361\0176>PZ\236>2\003\r\277\004G*\277vv^=\017\340\245<s^\331>\251\035\313\276$\r\306\275\220\210\314\275\201\335\263>\204\315;?\255\367\035\277$\262\237<DN5\276)\200\335\276\300\027_=\355\023\320>\276\306|>\320w\202=\225\"\207\275D\223\360=-\005\233\276NL\272\276^\217\337\276x\246\263\276\312\022\227\276r\2607<\271\240\321\274\340\n\254\275\313\232\227\276\346\367\202\275\333\300\274\274\030\357\033\275\300\347a=Eo\245\274\302l\260<\364X\202=\343\331\007=t9\244;\360\t(\275$\210\246=:\265\232=\266\243\020>\230\241t\274\260\232\225=T\000X=\263\356a\273\304\204\257=\272kY\272X\236e=\362\201u<\002\016\265<\340^\360\273-\261!?L\356]<\352R\343<4\246\220\273\220\231\004=\200\242-\275P%C\274\010\204\t=\233a\032\275D\rg\274 h_=\263\003s=\204\207\010=h\325\317=N\252\005<\210\206P=\210\350\235\275L\211\332<\030\021\247=\334;\354\273\3006\202<T(\203=<\034B=M\206\264<\303\367\242>(\2213\275\210U0\275\324*\370\273\3650\374\274(b\264;L\353F\274\204\347e\2758\337\217=\214e-9\260\315\256=\020\"\303\275\365j\335=j\334\313=_\321\304<\010\344O\275\014\314\303\273\307\030\007\276\324\250\201\275\376\325\344=\350\255\007\275\361\340\242\275\020\035\346\275\212\306\007\275\205\352\252\276\014?\032>\010<A=r\363\n>\330\017|=\300;F<\230\326\003\276\004\360\242\2754>Q\276\260\013\242\27574\254<\344\022\261=\211\217\020>\366*\035=\034~\355=H\313\267=T\252\344\276\005J\006\276\363a\021>]\360p:D\rE\275\204\320\334\275\372\257\002\276+\002\366<p\362\304=\007\260%>\321~\256=\'\2619>(e\213\275\376YY=\365\303\333\275\004\344\352\275\237\300C\276\324\361n\275\344\236K\275\312\355\006\274\377P\207=x)s\276\354M\213=\036\370\220\275\336\324\315\276\337<^\275\374x\237\274L\300\204\275\264/}\275\027\226\306\274i\231\241=\371\237\240>\375\303T\277\345\302\241>\022\377K>\r\001\260>\366\266\210\275\350\366\234=\333\346\026\276\370j\257\275\245\0036\276\337\330\207\275\245CZ>F\006\310\275\300Y{>>\232I\276Aj\230>j\022\364\275\330\313s=\035\326\316\274\212>\017\276\273\2718=,\327!<P\246N=\307\363>=\263$\002=\237\031o\277\263\010\026=c\323G=\224J\362;%\304\331=/}\221\274\240\376(<\003w\347=oD\313<@\362\027\273\340\023\027>\236\254\037>\264\275G>\205.\247>>\020\031>\314\207\">\241H\005\276\271\344\211=jP4>\t\257\222=\206\275\332=5R\306=\027\204\340<\177\267\016>o\210]\277X2\315=\241\220f>)\3123>\030\317\323=\020:\222\275\\L\037\274`\332\306>\220e\265=+,\316<q\275\321=\257N\271>\316\304\240>\310\267\216>!\016\300>\272\240U>U/\316\275\032\374\220>\206\346\003>\3304V\275\371\377\345>"
      }
    }
  }
}
node {
  name: "decoder/dense/BiasAdd/ReadVariableOp/resource"
  op: "Const"
  attr {
    key: "dtype"
    value {
      type: DT_FLOAT
    }
  }
  attr {
    key: "value"
    value {
      tensor {
        dtype: DT_FLOAT
        tensor_shape {
          dim {
            size: 24
          }
        }
        tensor_content: "\024\227\377;&\240\t=b\336\202>\341j\031\277\321\215\027>\337_\007>CK\352=\337_\007>\203I.\276\335^:\276\270\342\207>\211\315L\276:\352\225=\233\025\214=N\025\014=v#\333=\367\231\231=6\030\025=\243\255\372=\233\003\347\274\377\2068>\3254\000>\033\326\347=\225C\013="
      }
    }
  }
}
node {
  name: "decoder/dense_1/MatMul/ReadVariableOp/resource"
  op: "Const"
  attr {
    key: "dtype"
    value {
      type: DT_FLOAT
    }
  }
  attr {
    key: "value"
    value {
      tensor {
        dtype: DT_FLOAT
        tensor_shape {
          dim {
            size: 24
          }
          dim {
            size: 64
          }
        }
        tensor_content: "H\327z=%\332\201>Q\007\205>\346A4\276l\024W>H_\360=GA}=\341#\206\275\333\001\001>NQ\227>\030\003\310>\214\274%\275VQ\226\275\022FC\275\252\334d\274\216-\034>lc\257=\263\361.>\366\276\353\275\316\262_\276\036<\356\2742.R\274\027\223;=\271\243\210=\0142\277\275\314#d\275`5\342=\254\327\331\275\004\307\374<\206\254\325=\313\212\221\276\377\014\246=\000\361O=D\220\224\274[\340\241\2763\350Z\275\202\270q>\214{\212\275d\364\303=\036\210\275\275\220+\256\273\322\246\261\276AVS\276\3713\300>\306\267\237>\274\3133>\261\247\327=\352\224\034>\220=\027>De\">\304pr>\342\303r\276\303\243\323=\262\022\303>\027\230\233=\251\252\362\274\262\320)\276\245\252\346>\221\273\221\275\377\342^\276\333j8=\224\356K><l\226>\212\253I\276\243\251\236>@\tR>\276\331j>K*\023>\200\205i\276>1%>\230\2545=\022\372d\2760v\225>t\317\335\276^\276$>!5,>\263\275\006?\357UL>\034\304\036>\326\323\215>x\006\033\276\202\002A\275\211\347\215\276\322\257N>\214\237M\276\340\263\213>LT`\275\366\323s>\005\301\242\276\305\037\000>(\366#>b\324\177>\206\353\214>\020\317\332;d)\246=\327\034\247\276\013Y\023\276m\025\225>\335\352\317=X\254\020\275\235Q\264=\201\215\260\275_e\302=\325\246\207=S\272\031>X\207\245\275\214\240\034>\271AF\276\354\3623>V\001\236<\314\324\020\276\267YI\273\201\216\247\275\226\220>>\230\245<>h\3150>I\240\200\276B\214\\\275\2611\004?2\333\023>\203\335\026\2761\257(>0\017\375\275\230o\275>\200\000\022\276\234\342\216\276\0242\275\275\352\245D>8\"\006\276\320\346\244\275\204\310l\275\232%\242\276\023\004\266>\353{|=\312\352\016\276\254\335\221>8}\247\273\022\276\334\275\010u\276\275\304`\277=\225PR><\307\236=\316I\341\275\357\314\261\276OsT\276 \343\215\275F\026\227>:\223\353=X\246\234\275\335\017\257\275J\307+>x\026==\024\n\237\275R\214/>\226\330|=\220\216R\276^K\014\273\344\230Z>\022}\034\276\375\027\203>\0007\010\276\014\277\310\274\240@\336\275(\326I\276O3\266>\014\356t\275\031\0050>\321\177\005>\034q:\276\2001~>\310\351\362\275\272\267\333\275\266\235\002>*{\262\275\320/v=\021K/>\353i\266>\276F\360=n\352\r>D\255\301\275\366g\201>\355n\347\275@\211Q>FxZ\276\356\254!\276\000\002\254\276\360\\\222>\225O\270\276\315\220\221\274\366\340f\276l\240\341<\267e\024=\261\325\033?\235\332\363\276\235pN?8M>>\236_+\2762\014\003\277$Q\346=\244\235@\277Bb\177>\000p2<e\316\344\276}\346-?d\273\374\276\325}??\321\356\371\276u\202W?\327\265\302>x\323\010=\300\027\025\277\210\315\234\2759\257\274>\316\236B\276\360\337\204\276\236\237\373>\330\367.?\374\206h\275\261\201G\277\256\252S>t\350\001\277\210\251\276=4\302\000\277\002\266H\276_)\333>\002\314\344\276\346J\n?\307\306\365\276O}0?\222]#\277\r\2529?\333\326\361>\024\337|\275\201\353\312>\254L\372\276\252\246\372\275/\210\260\276\005\321\353>\354\325O>@e@?/A\317>~\352P?\035\204.?\316\273#?aR\326\276\032ft>jW\200\276\353\'\010\277p\360<=\034\251\034>%\203\264>\003\323\261>\366;p>\300>O\275\362G\005\277z\",\277[\301E\276\207\305)>a:B\276\207\270\032=\272>\247\276\253\366\343\276\305o\274>\322x\323\275\"_^\274\026\210J\276y\362\016>\010\2551=(\371\001=0\366\213\275/\250\253>H\334\205>\330\237v<(\301\221=<\301\331=\357\275\207>\360\315\032>\014\032I\275\030\270\013=G!I\273j\373\205>\376\313\205\275Dd.\276\200\337\005=\n\030&>dK\034\276(\273Q=\276\321\002\276\3446\211=\215\2638\276V\237\220\276H\360Q\275\357\344\343=r\252Y>M\321\t\276\272\0306\276\235g\203\276\273\024\215>Q\341\000\276\352\nY>\343\030\361<\204qT\275F5u>AQw\276hr\242=z\315\177>\362\332Q> \271`<\300\351\001\276\241x`\276\031\005\215\276<B\334\274\024z\314=\216`\253>\002\344\303=\300\356<>\246\327\346\275 03>\265\346\213=T\257\204>\024JC\274\332\301r>9N\374<\037;\314\275\024\007\251\273\304\374\005?\341IF\276\001\331\250>A\000i>DR\351\275\360\276\264>\211p}\276\344\010\200\276$\261\010>\367&\224\276\242\rK>\024\263\312=HZS>a\021\225\276^\251\267\275\316+5>\226L}=\021\250\241>L|\000\275\226\362\313<L\362j>\263\'\272>\364Is\276\014\300\006\275\270}\353>\035\316\027\275\177\243\021\276\355F\212\275\260\006\215=3\342\016=&\037<>:\301Q\276\000B\334=n\030p>\250\256\016<\255k*>\344\363\361=p\310\217\276F\345\327>\315\255\230\276RT\334<0\014d=\024\264[>\314\002\355\275\254\371I\274@\311m=\360G\373=\334\223\354;\276\246\261<\2606!\276\350\200\'\275\223`\333<\300\001f>5Ai\276\314H->\344\203\317=\3725\262\275\230\014g\2764\212\306\275\n?\255<\0260n>\250/a>?\310k\276\224\025\317\274 E\322\274\244\330\274\273\362\331\032>\315#3\276\265\'\232=\003\252\267\276l\217\035>\274R\035\276^`\031>\034\026\322=P\251&>H\266\236=MQ\232\274ni\254>c\371\223\276W\261\341:\304^\267=\241!B>\30417=\026\237\014=\377w/\276@\250\251\276\245\360\323>\261\236\202\276n\tS\276\350@\">\020\352\360\275PRS\275\373~\234>\321\035\236>\264\216\312\275\366\200\030>_\023\364\274\201\004\315\276\310\255\014>]\202\027\276kX\256>\350\210.>\354\224\021\276\037\363;\276,\231s>B\2161>/\001\006>d\nK=\271\365S\276\226\371c>\316\024\237\275U\343\306\276@\204\356=8\217\334\276G\260\240>\304\231\035\275\030\204k\276$\214\206\275Z8e<\352ce>\210\306\001?\210?\217>}M\002\277\210T>=\004\0243\273\020B\252=\212\255H=\224\351\311\276PAo=\225\227\240\274p\356\215\275\3008\262\276\270\252\013\2760UA\276BTe>\224\0366\276\314\013\321=\272\t\202\275\222\201\351\276\217\004\257>\342\374V\276\330\362\244\275\253\277?\276\230\253~>O\312\245>\200\351\250\275\t\214\234>\325?n\273\335\302\246>0\377q>\2348\023\275\021\223\267>O\034\n?\177#\002>|\211\331\273\030\2277>\032\376,=\032\211\366\275f\272\003>\226\375.>O\016\347<[\311\367>\265\226\251>\252\326\367=\004\2365\275p\001\274=\274\335z\275~.\021=\264\370#\276\306\305\014<\245\333\275\274\344\032D>\320\005\207\276\"\374\027>|A\327\274\316\334\022\276r\031|\2762\234}=\311i\014=\021\001^\276n@\210>2\367\223>Bu&\276\004!\217\275\203\201\226>h\030.\276\226q\225\276G4\213>\345\207]\276\320b\025\275^\212\263\274\307\322r\276\266\314\217>\323E3=t\233\327>h\270\324=\304;\235\276\275\273\030\276y\004\357\275,\277\316=\221\203\022?!\030\235\274p;\">\361\340*>\211J\334\275TQ$>\000\241\320>\000\344\232>\363S\004?6\017\205\275\030\020\211\276N\036\'>\263\210@\276D\332^>\367W@\276\204\226\016\27680\036=,\315u>\226x>\276\370\336\251=\207\314\010\276\220r\202=\201!~>;\334\t?\264ap\275\030\003\311>\356\225\020\2763\203P\276\330\223\277=\242K+>\354\206\253\274\312\223I>Y\300*?\335\305\234>\235\271\243\276\007]M>\3458\336\275\202\266\315>#\002\250\276\023\350\220>\250\256\271\275\007\226k>e\277\257\275 \230\017\276i\217\270>\261\317@\276\344\266*>\263%\333=\024\026\264=\347\"\t\276\200\010\310\275\020_\273\2764\336\264\276\\\252\232\274\354\350x\275\376#*\276\\\017\252;\367\201\330>\244\335_>6\204\236>F\033\336>[\367$\276^\r\377\275Y\360\177\276\375\362J>\346\016\016\276e\'\256>\342A\r\276\224\301\336\273\343\036\311\276u\223\251=a_\253=\303\007|\276\267\275\304>\352\374\020\276N\237\211>\251\021\276\276S\005\006?*\n\343<\014p\230>\020rx\276\267<\004\277\362\204g\276;q\374<n\rC\276\346\315@\273O\365\264\275\023\355 >\336\204\242>\370F6\276\21000\275Y~\025\276\235\252X>\364\222\036\276,\026^\275\352\264\004>L\230\024>\350V\247>l\227\267=\243\036!\276\006\206=>\270\370J=\302O{>\367\007\213\276\317\206\207>\267\263\376=\000\314\243=t\373\r\276\020\310o>X\260)=\377hc>\264k\204>7\253\004\277.\240\375>\374\037\033>g\367U>\266\270:=\374\315\216\276\222\375}\276\300\350\236\276\t\232\207<\006!\217\276*\244\260\275-\334}\276\336\202O\276F8\341<G\357\247>\006F\016\2739\216m>\005\230\206>Y\3506>\3662&>\316\026\014\276K\251\230\276\252IC>o\234r\276w\350\365\275\343g%>\333\315E\276P\\\302;\314<\334\274%\367\210\275\263\352\030>h\307z=\377\314\001>.\035\264\276z\032\334<\301\326\320>=\006\235>\000\030\202>\361\0036=\376\"#>4Z\313=\310]\310\275\351q\245\276\264\310\330\276\022\246\353\275e\231\221\276\331\353\224<\037\037G\276\213\275~>\312\201\222\276,\255\321=\352X\234>\307\t\232>\024\320\300=V\327\205\274\302\245\275=\357w\250\274\001\205\235\274uv\'\276\202f\351\275\232\361<>\344\327\270=\307\321\216>z\020\024\276\263\216\022>\032^(>\223\314p>=\327\206\276?c+>\333$M\275D\371\022\275\213A\376\275\343\244\211\275\333K\252=-\004\274>(A\013\276O\236\236\276\362\353\262=\273\224\210>\245\\\231>\342\220\355>T\'\272\275\007\032/\275p\355\214;\244jC>\177\374\014\275\254k\211=M%\225>#\024w\275\367\223i>:\312\345>\032\257&>\243\363\322=\221\275\230=:P\253>`\253\\>M{\251=\237\345~=|\310\023\2773\300\177>:\032`>C;\216>\364\242\377\276\320GH=\242]\033>-Q\311=\264\006i\273\340\352\252>\2034\354=\nS%\276\313\217\226>C.\224\276\335\262V>`\246\177\276\000YL>\365\355\203>^7\362>8h\230=T\002\254\276J\307\007>P\330z\274\035\364r>H.~=\031\2658\275)\353\r>\0232\215>\216K#>U\341\255\276H/C\276\357R\357\276j4\357\275<M\362\273\270\230\331=@\235m>t\207\342<C\017&\276\016}\207>$\n==\005\365\332=$\324u>>\221o\274A\224\202\276\026\007\253<\3167\301\275\231\243\252\276\321a\252>\337\224\311=\221\320\272\275\"\327\274=\270\315m=\016\204O\276T~\304\275\034[d\274\037|\035=\002\325\022>\333\233\211\276V\370\022>n\243[>\336\370&\276\334\n\326>\322\305\251=\345\210\214\276\212\330\t<Jz:>\206\nf\274\260=w>(y\254=\221\222\201\276\261J\211\275L\035\237\275Y.\216>\372|f>x\236\301\276\037d\002\275w\001\206=\345\324\000>\373\035\207>\230\016\355=.iE>\226a\223\276\202\276(>\353\037\207\275\216\366\272\275Z\252\004\277\022S\333=v\207\r\276\363\001M\276\200\226\264>H\300\"\275i\255a\276\017`\n>\260\255;\275\267\365Z\276rb2\275y\250\033\276\334\200\003\276kE\007>\320\355h>\235\242>\276\234\221\240=8\030\033\275\360Z\302<\034\306j>\340\332!=<\2268>\240\246j<N\014\326\275b\3637=h\320\370;\364\370\261\275K\022g\276L\261\016\276Tm\334=s\270\274\274x\367G>bl\217\276(\223K\276\300\334\201=6\3463\276z)\016>\316H\201>=B\201\276\357\024=>\256>\004\276\365O#>F\211u>\252M\201>\203\034\273>\005\336\221=\360\254+\275\273{\260>XA\221<L\265\237=-\215\274<l\036(>\264\376g\275\336f\035\274\362\225@>\222B\206>\036\323\245=\343hq>\246G(\276\2625d>\200\'-\275D\001\306=\255\0008\276[\225\265>\260\\\322\275}\r\256=\221\375\210\274,\277\362\275\332\341\235=\252\035J>\2125L=4\325\004>2@\265>\250Y\370=\257x\202>\270*U\275>\231\240>\303\374\270\275\344\304+>\254\377z<\262\226\207>\203.\215\276\250y\321\273\022\237|=\355\360\265>\266W\037>\310\213G\275\321\022s\276\\\\\301=\260O?\276\3345A>\244\313@>(\303\316\275\000\253\005\276L\267\320\275<\235\014>\265\017\033\276\025\363\234>^\345\271\274B;!>h4\322=\363D{>x\004$>\016f\274>LG\007<s\252g\276\020\345\261\274\312\326\004\276\030\227\"\274\323\002W\275n\2768>\300N\330=\014o\310\274\270\2056\2769\017\214\275;\304\232=\360\210\245;\350t|\275\244\247q=\345k\212=V\344\030>d\037\035>\211.\372>\312\211\027=.\344->8\027j>\311\024\004\275\030\371p=\013\372\t\275\022\357\213\275\365\245\220=\264\242\013\2742}c>\226\307:>,\262\253=\010\234\322<\357_z>/\"P\276~\247]\276\206A\326\275*\261\204\276\202\356\274<X/\273\275|3\246>..\023>S\212\035\275J\271\002>\2006\r=\004\236n>\340\267J\275Fi0>\330\326o\276\330a3\276\317\356}\273\034`V>1\253\010\276\336=\202>\200#M>\344:\303\275?\241\213\276\257\373\265\274& 7=/\030@\275\3144\236=\243\376\004\276\027\250%\276\002>\027>kx\007>\227\013U\276\360N\315=\277\245\215>\333\341\017\276\025=&\276\227\260\344\275`\360\221=\262KH>h\325{>b\300L>0l\271\275@\325\206\275lb\n\276\360\242{=\010\261G\276A\263@\276m \214\276\240\336.>0\0273>\233\034*\273\376a\013\276\234k\201>jnf=\353H\007\276P\252\275=\210\0350\276\250\363X\276\311\020\301\275h8?\275q\233W\276\004\037\032\275\357\316\247>\014\030.\275\222\224\221\276<\325W>\030:\312\275\200\354\365\275\032d\035\276\325\202C\276?;\025\276\235\232\247=\254\341\327=\260~\005\276\242\320\002>r\246\016>\340\204>>\200\332B=\360\224\020\275 2\226=\270\300D>\200C\333\275\000\032\346=\006S1\274\317g3=D\377\236> \371\330\275\254\347b>\002\317.>/\022\205>\306\207]>TA\037\275\366\017K\276\024\254\207=\306\013\330\2756\200i>\202\n\202\276\350\252\277\275~\302n<d\243\237\275\374\352\216\276\035r\214>?a\245\276\234\275\313\275\356\336\220<\274{\316=@[-=2\343\\\273\010\254%>\272\337\002>0\306\214\275T\233\234\273\252\316[>p\373\322\275\000\317\235=\374L\346=79)\276\274\352\220>:\223\205\275\306se\276\374\343\302=L5\262\273f\375\023>z\3327=\270rK=S\037\221>\200q\325=+xu\276[\231\225=\276&F>\366\032;>\312b\327\275\020\237\203=\014T\335\275>\313\n>\246\177\363<l\322`\275*\002f\276\004\210\376\275\306\314\323\274\022\031\034>l$\235\275\372\342w>\316\334\004>Z\3630\276\373&\214>\"\260r>\340\356\206\276\020\273\273\275\361{\234\276\200T{==G\223>;\334\033=\370\033s\276\316\347k<?\255\202\275\r\340\006;\314\0260> \320\215\276k\265\201>\363B\231\276\334\233\337=\\\177\200\274J\202c>%\026\233\276J\017\350\275\240\316\212\276\234\356\n\276\330\225\025>\r\np\276$aW>\332\321\266>\216\307M\276\276\032\246\276\333\322b\276\033\033\320<\363\367^\276\036\252\006\276\034\353_\276}x\357\275Lr_>\345\273T\276\302\243^<\274\177R>U\"\264>X\007\246=\026\373D>\250\325\355\275\023L\222\276\014\272]\275\036\377\313<\260c\247>\323W2\276>EE>%\375\020>\314\224\375=\177w\024\273\251\313\203> \306\232\276\t\325\202>\303\227\006\276\\\230\021>\262\366\313\275\344\027\231\275\350Y/\275\tL\203\276\234w\255\275}r\300>\317\373\204>B9e\276\324\177\206\275\261\302P\276.u\220>+\273d;\035\220\201>_\341\244\275p-(\276t\327\245\2758g\347=n\250G>\360qm\276$q<\276\340\363\016\275\315\014\211>\2562\271\275l\352<>\022\200\206>Rv\320\275n>\213>\304\371\321=\004R\236=H\333\220=,!\033\276\240*\314\275\030\034=\275{\033\000\276\023v\037>\315\323\215>\254\364\352=zUg\276<8\315=I\222G\276\326\033R>a\211\227\276\017^\243>WYY\2764\260<\276\016x%>\217\3634\275r \224<\024\303\321=<\271c>\035\215\203\276 \005\224\276j\373\271\276\306|4\274\030\305\251<\247\336\353\274/\216g\276\3076\235>c\335t\276\304%\227>\023#\202\276\243\220F>\227\t\214\276\336\222\363\275\036VF>A,\311<\324\002%>\262\344\200>,F\263<\200\312\361\275=$\235\276\253d\365\275\010\203\'\275\355\013\227\276\021\334s\276\307\002~>\243\225\264\276\332\345\212\275+sJ\276\302a\271>}o\206>\236\2452\276\346\224\n?\330\337\020=\000\245\212=4\236\320\275r\030\363\275p&G\276\271\347\352>\334N\257\276xz\304\276O\203\277\274C?z\276[\253\234\276\0264\014>\006\025\200=\324\036\240>\027\247a>\240Z\204>\030f:\276\245,\364<xq\035=\213\214\237>D\333\235\273\']\233\276\025\215g\276H\322c\274*\247Y;\223\304\r\277j2[;\367h\232>`\215\t\276#\232\260=\333gE>\214\306E>\000\367\250>\204*\255>\320\212]<\001\342\312>0\215>>\\\232\331\276ZH\">#f\205\275\004\273\364\275\300\314\235>\240\310\016\275\016\t\014\275\006-\006>;\354\233\274\236\214B\275\207.@=,\334\313;\304\346\367\275\372=\312\274ATw>\204\320\303\275\035\004\205\276$-\336<!\214\231>\020\2565\275z\234\207\276\370\377b>\216H\017=c\337j=Y\377\201>\236\312n\275\240g)>\243Gb\276(Wh\275d8\230;0\271\332\275\3706\\=<M\241=\213\242#=\034\220\274\276zf\022\276\226\270\004>\217\312\216\275\363T\230>\304\231\224=\254f\240=\323\264\224>L\251\273=,\177\017>)-u\276\374\"U>\275\241\211<%[\023\276T\274,\276&\315\364\274\032w\031\276$\324\202\273\214\301W>\214\255\007\274\374@\233=T!i=D\030\360=x\300\301=\004\347\265\273\272\260m=\230\266L>%\256+=?\177\n>\274\021\257\275\034\316\205<\250U\261=\346\236E>\354\304\316=9\262d\276\340\357\324\276\203\3136>\0203\205=$\001\234=\345k\034\276\204\025\323=\246\250\301\275\332\350Q>\303\202/\275dM*>p\273A\276\300\301\305\2763\263\247>8N\005\276\tW\213>\264&\235=<3t>\317\367\322\276\211vi\276\370\010\032>8`G>\006\367D>(\233\320=F\300\253\275.\306\017\2741?\r>\346D\344\275lPI<\331LQ\275\355E\226=P+z\275\324\262\342\274\026\256%>\276i\002\274\302bS\276\246\235H>\200\357\357\273\020\260\001=0j\016>\240\321\025\275\264?\266=\370\2043=\024\322\207=\343\264\257=6\010\311=\336\365\026>\214\353\304=\224\200\374\275\3266?;h\203\255;q\206\252\274<\357\217\275\026\352\231\275B\2459\276\320\005\321\275*\223\225\275`\375\362<\014.\306\276r\2126>h\342{=\303b\240>\267 \244\274\264\221\247\274\367\366\275>Y*\217\276c+\311\276\020U\234>\030\2362=\314:`\274\002S\032<n\345\357\276\217x\222>\314\032\230\276V82>\00271>\026\370\007\276H\256i>\252\022\327\275\340\016+=\000\272\345\275\376Q\000>\354n\323=\314\367Q\27523\250\276|6\277>|\205\315=\252OI\2757\376\001\276zT:>\"!s\276\"\010^\274L\006U>\013\342\211>|&?>\"\216\242\275\214\316\242=$\177\325<\236|W>\264\343Z\276`c\222<\357\374\205>l4\303\273\274\224\310\275FTr>\260\n\005\276\237\332\264\276\336~\211>nNT>\030\346\035=\305\254\234\276\033\270|\276IOg>0;\223>\022\037d\276\263;\n\276\357\347\263<\024o}>4\370>\276\003\031\"\276\005\002\260\276\036\221\007>d\314\260>\007\221\223\276y\370\\\276\245\351\220\275!\217\032>c\327\360<x\223\274>\335\316\006\273E\356\036>\256\203\201>\340l(\2762\236a>\232\364A\276ut\214>\214\254n\275\000\345\257\275\272\336\377\275\237aq\276xj\201>\206\002\345\275^H2>\037\305\272>\016u5\276\263\350\360\274vlc>WC\304\276\022\223D\274\254\001*>\356\301\257\276\324t]\275\030\245\\\276\020\262\245\275x\037\037>\356\246\205>s\256\215>\304j\371\275\312\354\217>\n\313\231\276\312\240)>h\227G=<\332\363\273T\340;>\323\037[=\331\247#\276\t\300,\276\023\330\000=\231\324\273=\246:\244>\352OR\276\227~l\276\373\267\323<xpo>b\254&>}\202\350<\257b\235>\\\221\274=\210b#\276\263\374\t=\014bh>L9\204=\212\027>\274\357\241\221\274^\224\030\276\274\315\364<(J\341;c\322\215>\244\250v>"
      }
    }
  }
}
node {
  name: "decoder/dense_1/BiasAdd/ReadVariableOp/resource"
  op: "Const"
  attr {
    key: "dtype"
    value {
      type: DT_FLOAT
    }
  }
  attr {
    key: "value"
    value {
      tensor {
        dtype: DT_FLOAT
        tensor_shape {
          dim {
            size: 64
          }
        }
        tensor_content: "\"\200\267\272>\0135=\326ZS\275n\316\010=\327\243\001>\376\317U\275\007\247\350\274^\373K=\006\036\'=\363\362\260=\005\214[\275\211C\213\274o\302\206\275\017\316\252=\273\314\314<&EX\275^\3041\275sE\330=\307h\221=\007/\335<f\212\216<j\033\236\275\333,\324=\233\025\214=>yi=\350\355k\274\030\267Q\272\r\332,\275+r\212=\376\372\355\2754P|<\336Ms=/\276\301=\t{%\276>\235\000=\207\366\227\275}\353b\275\316g3=\317\222\313\275t\322\336<UV\216=\317$\227=6\275c=L\361t\275\017\316\252\2753\n\371=\255\374\207\274ft\265\275\236\377\020\275.\\\017=G\204\236=%\200\267\274&|r=R)K<@\334\350\275\036\300l=\346\233D=\007\333\212\275;\352\225=\367n\201\274u\322\336<t\022\203;\217\262\235=q\342\307<"
      }
    }
  }
}
node {
  name: "decoder/dense_2/MatMul/ReadVariableOp/resource"
  op: "Const"
  attr {
    key: "dtype"
    value {
      type: DT_FLOAT
    }
  }
  attr {
    key: "value"
    value {
      tensor {
        dtype: DT_FLOAT
        tensor_shape {
          dim {
            size: 64
          }
          dim {
            size: 128
          }
        }
        tensor_content: "\014\327\022\276\207\177\013\276\243s\355\274\355rv>kB\032?\003!\204>K\246\356\276\366\034\360\276\017\347<\2771?*>\\b\315\274^\242\017>\211E >6\257O\275\203\327\242=\216\306\352\276t\026\210\273\361\030+=R}\302\275\207J)>\303\274\250<;\205\000>.i\347=\314\323\353\273x\027\304\274\032\353\034\277\020A\206=\234\246\255\275J\302=>\307c\010\277\306\373\307\275\330Z\205\274:\024\'<\212\210\346\274\276!\322=\322\343\222=q\235\372\276\000\230-9\303<N\275O\211\341\276\342\347\357\274\004\232\254>.{\343\275\204\331\032\277\275\244^>\347\364\230>\226\275\214>\214\314\354=\230\302_\272b\220x\276\354U\030\277\023\375\347\276\232\305\017\276\355\322=\277O\364\'?\367\224\235<\024\031\334:\336>.<\251\203<=X%~\274*\352\330=\036\354\303=Q\242\036>\303\202|>\262\212\333\275>j\223\275\373\303\264\275z\366\t\277\026&\300=\227m\314=`\213\362=\311\006\010>\001\354\007\276\246\3572\276\t\036O=\260\0168?\264\347\315<\202m\240=\266\304\235<\250\375\370\275X\240z=\347\375\r>9*\004>\262R\216=\360\230\204\274(\001(=\353\307\'\276\262[q\275\300\302\322\273\214=!\276b5_\275\331c\037>\036|\234\275<\364\276\275\214\323 \276\240\2727\275x}\324;\255#\034>h\325n>f>\317=\"E\227\275 39\275\035X\246\276 \200\354\275\252\222\370=\264\203\023=\221e\307\275+D\357\276\343^1>\350rl=\346\244\320\275R\260\265\275~\331\256\275\242H\013\276\360\307\216\274\300G\215;\254\371m=\324\271{=5l\001\276\024\305r=\236\232\300=\230E\'\275\212\352\235=Hl\001\275\020\2402\276\370\254\242\274\201\243-\276\200Ms;/|\271<\216;?\2750\212\022<DO\031=\347($\277\021\037\305\275=\2651\277\346\357\376\276\262\364\032\277\276\013\211>&\272\212<\214\024\377\275\017\2721>\364T\016=0^m\275y\230(\276\306\214\225=\334H\"\275\362\357\363=\300B\261\275\221\323\212>\0220\326=\262\357):V\213\246\274\276\372,\275#\205\024\277\\\215\037<o@#\2776~\266=\234P?\277\352P\214=\252\300\263=\226\000\231=\372\364\322\275b\025\312=q\215\003>\267\262\031\277|G}\275\201\202\025>:\341*\277\356\262H\274\274\314\"<n:\210=x\227\034\277\212\305\372\275\232\316\317=\237\337\003\276\345\264\264=\367\271\230\274\267\006P\275?~\005\277\024\322.\277\233\3754>\210\177\004\277\226&=\2775\030!\276\225\255)>\344U\211\275~\006$=\232\245\346\275\271eQ>\225\313\321=\242\277\227=\305\207^=\351;\003\276\300\246\357\273:^\002\276\371\2276\277RY\003\2745\020;=Z\203\030\276p\315\304\275X\300\304\275\315h{>\364\037\262\2753\014\351\276h-\225\275\234dC\275MNq>H\366\304\275\341\3131>H\3654\276*\343\301=v\025#\276F\316\364\275<\014\030=R\207\230=@\212\267\275\345\303\006\276.J\235={\340->\314L%=\250\201\242<\314;t=\307\261\026\276\240\030\270;/|S\2752\320\266=\273c@\276\350i\363<H\351\252\275j\204{<Na\257\275\334\277\000\275 \314Y\274m\376*\277\253\343\035>Z/4\277\340\306\\=\313\033%>\253\202=\2759\321/>8f\240\274\265\253\010>p\031\017<\244z,\276\242d\025\276Y\004\365\275\031\267\322\275\360\222\273\275\362X\352=\'/\024>>S\370= \220\352\275\246\322h\275X\343\207<9.\001>$+\346\275\247~\006>\324\303\017=2W\223=0\036\211\275\206\315\333\276\"-y\2749\325\366\276\255\032\016\277\213k\001?\270\204\373=x\271\240>\0054%\276\264\340\357=d\212\026\276\377\020\214\276\3518=\276\374!\264\275\220\300\214\276A\322\213\275\265\347A>\263\336\000\276\360\327\337<4C\370=\207\370\032\275\027\376\305<e\357\323\276\3402+\275O47\2778\300\373\273\337\367\014\277\020\312\374\274\247\266\324>\3273\035\276^4\253=\312W\233=,6\304\276p\032.?\272\021\177\275p0~\276\"T\024\277\376\034\214\274\361S,\276\262\241\263=\374\3024\277\253\267\233>\236\205\310=_\025_>\022\346\224=\020\207\250\273\250R\257=Nq\t\277#%.\277\320S\303\275\336\004\'\277\262\260A?\307@G=\336\t\246\274F\267\253\275:\033\323=\204h\260=\264\355\020\275>\365\201\272\206\346\236=j\262\226\275\303\361I\276\362\'\330\275\177B\202\2761\n\233\275\333N\244>\340r\017>\315\030\334=\377CG\276\236\264\344=Y\274\022>\302\t\220=\227\231=\277\036G\333\275\325y\001>\214\226\023\275\324d?<\n\230]\275KT\023>y\"\316\275.\356\335=J\320\316\275\234\350\021\275\366\207h\275Dy\375\275\311\334\t>\266W\367=4\201\n\275\204\254\023\276b\307\245=\322\242\205\275\347\305\347\275\200vp\273&\312_=h\224\323\2763}\343\275g\023\200\275r\225\034\276\373\316\240>\000#\303\276<_c<~\024M\275\201p1\276\3543\321\275\334~\025\277\016?\337=g\241\330=\263\020\232\274:\214\201\276\342\211\271=\310\315u\275@\241\342\275d+2\276\375\214\034\276\000\214j<\036\375\276=_\333(>Y* \276\340\330*\276\3668\241\275|Y\211=\252\253\334=\023\'\024>\347\023\021>\214\177\t\275\031\3422\276D\207\374>\220t\232>\215\365\253\276\303\3549\277\377o\233\276\345\255E\277\342Z\037\277\230\316\333\276_w\006>\256~\215\272(\236\203\276\360\232\'\275>L\026\274\257\207\t\276c?\022\276\214\322\n>S\306<\276\264\333K>\352T\375=@\215U\275O\316\263>25\211=\361\252\376=C\261\277=\2554\017>\315\311y>\204!\014\275\254jI\275\370\371\006\275L$5;\373\254k\276:\000\261\276\323\247\034\276\266\365\237<+\256d=\352\231\344\276\340\254\333;\340s\212>\307\357/?Ri\376<~\353\320=J\327\236\275\350\334\376<(\244<>,e\034>\021v\213\276=\013,=$\006\262>~\234\256\276\014y\004?=s3>\350\225;>\346D\005\277Pgs\275\007\317\010>\245u\007>\277\275\005\275a\3262>Q\271\324\274\267\r_>\273E\177=4\342\257<T7\216\275\374\263\263<\250w\217\274U\221\357>\350\370\222=6\213\037>,E\227>\314\031}=\235zb>\307s\330\275\321\347\225=\344\367\245\275g5>\277\226\236&<\243\230\307>\214\257\'\271\330Qq=D\214\035=V~\341=0_\204\275\203\257\037>\2602J<\240\036\010\275\212\305\257=\231e\n>\353a\336\275\357\231\020\276\344\245\205\275\242\314\033\276\\\245s=8o\235<\352\254\270=[\354*>\252L6>\307\253\017\275\306^\332\274\370\304\004\276\273W\247\276\033\271\226>e\332\204\276J%\257>b\037\367=l\262H\275V\263Y\275.t\013\277\260\356\222;Z\347\270=\3312\261\274\254\216$?+\000!>\372s\367=\370-\273<\300G~<?=.>@P\202;{u\013>\255\331\323\275/\3263>\324\3050\276\373\r\241\275+1,>P#\252\274]Z\005\276p\200\205\275\321\032(\276\370\212\341\275xb\202>\202\343\325\275\032\370\345\274\225\026\275\276J\251\004=N<\034\277\014\372\006?\372\023\244\275r_\300\275\345\266S\276\370\306\327\276\357E\334\275U\\\211=&\276\245\275\030~\022>\254P\227>t\004T\275\2346\214>X\253;\276<C\005\277\037\362\262>!\257 \277\t\322x\276pm\227\276\024\254\352\275\315\322\226>\211z%\276J\255\206=6\034\000\277\007\n|\273\214\222R=L\241+>Wl\215>\300\377<<7\316\264\276^\247\'?\252\271\265=\320R->\370\306E\277*\033^>\204\202\276>\017cI\2756a\367>\263\240\242\276\000/\372\276\305\337-\276\263\224\n>\0221\204\276\371\352)>)\027\272>\224\304\013\275\273\207$>\353\016\032\277\257\271B\277j7\000\276\177\347>=\370\245(\276\006\250\231=\306X\351\275{\376\315>\220+9>0\376S>[\372d>k{\033\276\200\217\352\274\276\207\272>h\317\246<\3553J\276\017\004%\276\177\253\246\276Y-\246\2761\337\334\275\355`\211\276\2129\265\275\034\311:?\346\264\340\275]w\202=x\242\\\275\375\216\n>\177I\301\275\220\305\200=\177\n1>G\310$>\2007\025\275\200\373\253\272\261\220\261\2758\244\270\274\361\304\032>~n\370=\300\257\007\274\002\325\341=(\315\030\276@\007\006\276m\251\036>?/\010\276\010\365M>\025\366\250>\325\006\023>H%$\276\031\212X\276/{C\276\240\356h\276% S>q\273\265>P\362\033\275\216k\212=\037\233.\277\323.\310<\360l\013<3\234\021\275>\316-\274^l\033\276\272\247\335\275\324\357\022=\367\260\267\275\244(>\275\001\0160\276\270\034\210\275\220\343\373\275H\235\220\275\324w\026\276\240\341\026\275sv1>X\031\320<\347\205\006>\377i\036>H\275\320<\"\235\332>\310\275\371\274_\355\">\334\352\203\276\220\207\376\276B\337Q\276\326\340 \277\240\255!\277` &\277\032\257I\276\236g4\274\036P\325=E\353\002\276\373q\250\275\355C\311\275(\305\337\274\234d\303<\344\027K=\311\230\027\276U\310L>\246\322\200=\330\n\341\275dn\254\275\365\005+>\236\3105=\264\315\007\277\377\3753>\262\216 \277U\257\231<R&\331\276t\327\301\274#/X\2764\030P\275\346\347\272=\025\256\224>\007yK\275\033\232D\277#T\004\276\030\267Y<\t\210\337\276R-\251\275J\362\301\275\273\265\357=\227\205\001\277\371Wc>\241\277m\276\257\254^=u\3445>\305fB>\331/\317>\320P\007\275\250\020=\277\206\214U>\236\232\034\277\035=\005\277D\344\223>\232\004\027\274\266,\370>xl\243>gz\357<\313-\017\276\301\207i\276\347?<\275\023\217m=U\371\254\276\371/\265\275\217\303X\275\350a.\277b\332\256=\257\017\213>\226w\244=\177\330\027\275\\k\366\276\361\366\226\276/\010Z>^\220$\277sp\220\276[\331\270\276Z\323\001\276y\353\022>\343\222%\276\275i\037>\022\246\246=\327+\023>\216\262\260=\340pL<\006\354!\2761\262\005>*\302\323\275\320;F\275\222\337\377=\005l\026>\355\223/>\375\027\034>A\307\024>$\307\001=\2612A>\320\033`\274\352\232\257=\372\211\212\275\266..>;j\003=&\204\200=\335\311\311\275X\024\264\275\371\232\005\277\260\347\010>\020\003=\277\365\202\216\275\270\254\033>$F1\276\010t\365>\0344@\275\013U\033>\371\006\021>!,1>\340=@=p\210\002<`tA\274 \275,=Q\320\036>\262T\251=\004K\203\275\001U1>pm\204=R~\006\276l\026\024=o\030\220\275\317{\020>_$c>\005\023p>*\025\377=\016\030\034\277\315\273\236\276\3227\010\277X\200\r\277g\305;\277\302#\233\275*\305Y\276\253\325\217\276\203\244\027>\006}\344\276lY\010=\014\0362<\261\374\n>\335*\206<\nNx=<J\030=b\235\373\275\375\222^>VuW\276\326\004\316>\356nD<J)\356\276\254,l=\002U3\2770\337\016<p\375\014\277@\213\314=K\223x>\210\365\326\275\270\316S\276\271\203\n\275b\357\263>k\"%\277m\260\031>\nO\275=\264\230-\277S\333Y\275\000\010\220>;\r\225\276\266\266\345\276\220\307\343=\264\013\260;\014\230\251\275\226\203\363\275\2270\202=>_\326=F>\261\276n\302\337\276z\034f\276{DD\277\272\025;\277M\'n\276\350\230\234<\234\257 \276@\210\361=\002\331\324=z\346\023=/\317\317\275\214\n\221\276o\332\260\275\2602\306=\270\310\277<D\365\006\275\341;4>\321\230\263>\364\010\350<j\271K<\271\334\035>Oh\337>\177zn>\033\327#=_\262\365\276\007K\352\276\020MF>Y@2>\326\222\330=\324u\274\275\304\347\341\275\3007Y\274\366\365\370=\366\375\327\275\3023\315=>\235\333\275\217e\035>\306\rY\275\270\"\222<V\016\245\2750~)=:\243\n\276\352\345\250=W\225\321\275a\355 >43L\276\261\362\017\276\360\366\'<\003\234\r>p\330\314>\227\273\244\275M\264\242=\362\242\313=\203\224\t>Ip\003\277XZ\246=\005\017\006\277\364\373\355\275\210\265\247\275\026\205&\276d\007\037\276T\362\335\275\235T.>\221\313\377\275;\316\354\275\033\307\017>?\301\030\276i\334&>^=\332=\312\237\312=\010\370\301\274\3660\371\275>&\004\276\036\314\324=\270\217\346<\n\005_\275\232\204\265=\027\215Z>\004\022\025=\214E6\274\204\251\000=\341y\016\277\341wY>\3551B\277\254\362\022\277\013\277\013\277\374h\333\275^K\216=d5w<\214T.\276\213\243\033>/\200\355\274\352\360\023<\256X\"\276\315\232\325=\245\362\027\276\233\226\031=B_\\>\02132>\2126\003\276\302\001\231\275\352\370\177\275\326\001,\277\010\032\277\275\0162\022\277\260\3551<?\270\334\276\272\013\201\275\312\333\361\275\334\2749\274\253\335B=\314E6=\203)G>4\261\353>Zr\301=\350\366$\2759\2101\277,\371c<\237T\242<W\232\'>\345\210\n\277\260\010m>\224Y\220;\3055\307=\244|N=X\017\177\275\364\352\r\275a\001\346\276\333\270.\276\366\314\272=\'KD\277\002\232.\277\270\312l=\026\201\366=Bbb\274\264\237>\275x\022\005\2769\227\t>\013\345`=/7\002>\317b\024\276\262\0212\276\005\3452>\324\271\250\276\000\033\034\272\202,\316=\017\312\221<\244M\311\275#;\324\276\371y\377<\314\271\305\275\252<\225=\371]\014\277B\211\032\274\237\225\354\2759\227B\276\263\322D>\364W\001\275\010\230\221\274#\361,\276L\013\n\275\312\340\323\275\301\336#>`v\t\274H\006Z\275\203\211\036>\002\346\247=N\363\266=\000`~8\311t*\276\354\262\206\275\000\272\022\276\350\364\r\275\214\030\276=7\002\231\276=\232\'>\010\305\005\275L\006\212=\274SM=\243\332/>\000\316\214\275\004=V\274\023B%\277)\373T>n\356\007\277\000\\L\274\276\240\014=\0221[\275\\\267\202>8o\034=\200\017\240\272;3\232\275\234\353\267\275\260[V=r\267\256=R3\002\276\371\306\211\275ua)\276\226\r\230\275!\203\030>~J\233\275\352\177\334=\222\267\365=X\310U\275vi\327=\306\267\256=8\271\244\275\341\235\024>\312\212h\276\026G\354\276\273$\247<iP\346\276q\310\323>2\3559\277\t\302e\276\212\354\344=w\335\254\275\272\323h<\212C\336\275\003\001\303\275\323\320q>,+\376\275{}\257\274LJq=\245Z\202\275\267\245\262=\367i*=%\004\352\270?]>>0Mx=t\215\304\275\226\276\261=0\240\237\275\357\000\020>\261\232=\277/\216<\276\367z\275\276W\247h:\327\r\243=\017\317Z\276>\344`\275\242\306\027?\364\007\030\276\224=\341\274\351/\001\277&\311\315<\373\320\300\275\325`\206\274%\0321\277\216B\347=&\t\215={7\032>\217kE;\332\317\200\275\210W\245\2756\246\361\276kf\306\275\362\254\315=x\002\377\276\016<\025\277\007\357\222=TU\r\276GS\\>\"\317\263=\037\361\014>)\237]>\202\3075\276\255\r\024>\336_\252=8y\265\273\000\214\244\272\017\013\010>\310\3477\275\326\2348=\256)k\274\300\003\360=\223n\002\276\346-\336=\002I\327\275\316\310\264=Lt\031\277\256\225\203\276N\216\274=\264\031L=\227_m>\224#(\276\371\376\006>\324Z\036\275\273d\002>Wi\010\276~\203\361=\300\314[;6\374\375=\021\0251>PY\332\274\273\371\000\276\221\010\037\276\321S*\276\343I\334\275\246r\273=\320\266\027=6\256\261=\354\"\177=\024\305k\275dLh\275\345\256\320=f\t\304\275\240\316\351\273\343\314;=Q\337\004\276\253G\022\276%\004\030\276z\\D\277\204\"\263\275|\245\347\275\301\274\355<\347\0063>\320\333\334\274\"\343\303=\336\224\t\276\340\220\237;l{q=\0360\350=\032i\305=Ff\326=x\305C\2752\240\247=\334\202\001=\260\305Y\274\237\203\t>\013\212\347\275\236\361o\275\201H#>\332E\315=[f\253\275\267\014M>\206\223\006>\004\2261\277;%\316<p\230\340\276\321V\367\276\332\202\035\277\030\360\373\275\302\256\260=\234\202\310<*\023\n\276\346\227\227<$i\265<]Xs\276\252\327\357=\375\375)>\032\243\003=\201\225\210\275\244\327\330\275P\231==t\001y\275\256N\030\276\271\017\\\276\000%\266<\024\312M\275\356n\n\276\334\323\213<\212A\333\276\322C\335<_\r7>\003\246z>\376\252\342=\314pq\275\006\360\206\275\3762\024?\370\277\210=\270o\202\274\350\352B\2775\022\001>\266y\177> -\250<\203\r@\277\312\"\232=<\344\376\275v\216\267=\304\003\033<\346\317\326:D\205\353=\010\324\340\274R5,\277&\272\372\275\371\020\347\276f*\342\276\300a\312\274\327(\232\275\305\004m\276\242s\353<?.X>\301\362\214=h\257K\273z\226\200=\214\234;=9\344\377<I2\033\276G\203w>@\242\351;\202\371\227\275\377\357\255\274\021G.\276Nt\305=C\265\316\272\013\3165\276\030g\214;\242\373#\277\264\210s=\245<\000>U\332R>oF\216>|\265\007=\312t\016\276)j\003>\346\233\326\275\272\274\014\276\326d\336=\2162\231=}4\037>\351#\260\2750\0330\274\321\245\017\276\006\253!\2766\271\334\275\220\026\276<\352\r*\276\346\347\361=g,\027\276\270\244\322=\020\326r=\034\034g<\023\205\261=k\237\226\276:\000\274\275D6P>ik\365\274c\237&\276\027\030\310<\263\036\006\277\023.K=\236\216&\276\322%\243\274r\004Y\276D2&\275\320|\377\275\235\353\035\276\026\216o\275P\211\030=\n#\316=\371\303\003>h\212\242\274\253\302\252\275\210\316j=\263\'\031\276\254\360L=\364\333|=M\335$>\\4\273\275\230DM\275(B\035\276r\245D<.\265^\274\\\341\010\276\213\0363?\331\353H\276\017rF\277\025%\366\276i\"\026\277\014\250,\275\244\337\236>d\222\220>\364d\373>\322\023h\275\026\337\272\276f\026\342=X\003\271\276\3342\006\276\262\272\r\276C\034Z\276\351\357\304>\341\251\327\276fZ\241=\215Fq\273G\t\223>\200\247\233\274\0030x\276\362\343\322\276\007\325z\273IP,?f\324\306>\224S\327\276\346K\266=v\273U<\237^\270>&!\264=j^9\277\006\201\266=l$_\276\247\362\360\276\242e\244<\024\344u\275\013J}>\311\234\036?&,\226\276V\'\250\275cH\217=\200\356H=g\003\003=b\t\334\275\257a\215\276)\032\375\276\376\323\t?\334\207\027\277bs\003\277\310\211u>\270\327M;^\033\224\276\216\220\'\274\003\024\024\275\341\2744>\016\231\030\277\216[\033\276\206z\361=Q\366\245>\330\301\230\274j\226R>\013\220,\277\230\017\270>\246i\201=\007~1\276m\t\221>\226\375~\276\263B\025>3R+>\363\3045?\")\232>T?\017\275|\275\021<l\344\335\2756\201\221=\356}\327\275\000x{\271\213p\010\276TQ3=\353u\020>;\236\010>V\031\341=\334w\237\275\210(\016\276\233J\247\275[{\r>\224\277\224\275\365d\024\276\320\005\217\274\356Sb\275FhP>\027\211%\275\227W%\276zr\370\275\324\300\370\275\200\037W\276\265\335\003\276\314\307b\276\2645/\275:L\277\275R\340^<\317h/\277\321\322\316=fxA\275\222q\262>\024\246\265>\200h\324<\201\233\033>)^\033\276<\016o=\316\311\272=\201\210\004>\277B\002\276Lg\004\276`\235\317\273\244\013\024=\240\204\\=7\243\237\275On(\276\001\357\014>r\365\300=\361\t\203\275\246\227\306=R\307w\275\266\370\356=z\000\344\275&5\010\277\216\222\246\274l\\\t\277\035o\000\277|\'\342\276\211\224\001>\364\247M=\307j\240>\261[\030\275\376\177F>_P\023\2768OE\276gf\014\276kn\r>\317X\277\2745W)>\226\004\010\276L[\273\275\246\324\337\274\256\020\376=\374\320\344\275\020\212\270<\356[\213>lL\003\277i\336\000>\200\020c\273\022\200\325\274g\265\002\276Z\220\370=&e\275\276SYx=2\217\201\276\341\233\365\276\353\346\264\275\270\235|\275\351\024C\277\200#\206\276j3;>\230\240i=\343\211\033?\267\303h=\236\030\217=\346j@\275\020?k>\206\215\235\275\323\325\330\275\344\340\013\2768\212&\277\341t\";\300M\342>r\000\311=V1\276\275H\235\334\275\226[\245\271\333D\224\275k\345\233\276\347\3379>D\025\203>\230j\r=z1Y\272<\273?\275\256\032\264=I\014\270>\301\360\033\277\311E\274\274\346>I\275\331\312t>\nD\225\275\017^)\276\203\001V>\246\243\312=0\2339\277\222V\234\274W<{>\276\003\244=P0\216\275\017\0350>\202b\342=\312*\030\276yx\337\275fD\363\2754\2626=?\3060\276RR\315=;\372!>\377T\034\276n?\204=R\031\341=\227J\221\275\245\341(>\265\334(>\236\201\230\275v\344\240>\021\024j>+\366\271\275h\312\022\276\005G\354\274\t\223\210>o\356\001>\277sb>7$K\276\r#\007\277\374>)=\2235\316\276Ay>\276\026]\257=\332\366\330=\326`\314<n\356,\276>f\357=@\211\037\275\260t+=\357\235\014\276\360\376\216=d\274\025\276\212\305\330\275\352\243\235=.\330\300=q\265\347\275\030\260$\275\002\307\265=>\370\325=!\255\034>\260\007\005<\334\336\261\275\363\355\251\276\361>\021\276\302\213\267\275\235\r\350\276 \262\205:\234\364\030\277\031\216\016\277&\346\023\277\200\237\340\2756\t\306\275\013\211\276\275K\332D>|\023\305=vI\332\275$\320j<\245%\215<\352\374\265\276\202\026\020\275\027\204\023>\323\211\006>\274\003\003\275\014\354/\274T\370\"\274x\033z\274_H\030\277\031Z\317=,\305\t\277]\3727>b\276\002\277zi\023\274\025z\224\276z\326\215=\244c\003\276\206\004\347=8\210\203>\005\255B\277\200\223!;\315\000e>\231\177 \277uO\274\275\376\247>\275G\247\341\275r\006\336\276H\272\234<\237\214\014\276\352\372\214>#S\235=\310\035\212\275\026\nR>\342\226\377\276\357\325\000\277H\337\204\275/\377\010\277\352r\016\277B\010\326=3\310\217=s\362K\276G\324\255\275\337}\372\274\210\033j\275\242\213M=\006\337\232\275\320\024`\276\344_\036\275\323@*>\372\0143\275 /\020\277n\004\356\274d\272\005>X\260\366\273\247\025\217>\262\226\220>\372\352\206\275*G\227\275\033\314-\277X\014\'=\274\202\321=\007\225a>Ui\036>0\031?<\222%\274=\301\317\255\275vJ\262\275\2701\030=\010\017j=a\002\266\275\376L\343=\214\336\346\275c\0324\276{\255\251\275?k\t>S(\024\276X\0016\275i%(><\316\027\275GB\354\272\252u1\276A\3660\276\254i\353<T\243\361\275\037P\013>\333r\004\276G\307\033>x\024\251\275\242d5\277\212\032\226\275=\342)\277\305\262<\276\364\361\255\275\341l\"\273\242\270+\276\003E\260\275\032]\253=\316\351\241\275\330\005\263\275@\272.\276D\352\032=\277\032\013>\320n\243\274m\212\017>\300\305~\274\263\257\336\275\250\230M\275e#\'\276\360\326\007\276\014\207\025\276b\033\216=r\001\336=\022.\252\275P\271H\2760\010\312\275\223^D\277\320\215\251\275#C\031\277\363O*\277v\026\031\277\325\353!>/\217\026\276#A\005=\375\016\230\274rc\377=`\252z<\357@\304\275\206k\331=\205j\003>\234b\332\275\212>s\274:\200\010\276\332g\021\275\373/\r>\330\271\'\276\270R\251\275\321\014\r\277\260\316\245\275\230V\007\277\342Z\332\275(\370\"\277\n\214\303<\214\343\222\275\201\252\014\276,\220\220\275*V\216=)\275\032>\270\325\002\277\216T$\276($g\275~\267B\277\240\n\372\274\251Z\017>{n\013\275*t\014\277\373q\215=\206~\332=\2332\037>2\275$=\030Z\216\275\037\372\014>f\024\360\2766\251#\277z\233\202\2748\263\037\277\217\311?\277?P\014\276/ \217=D}*\276 \301\314=m\261\316<r\351\364=\233\007\211>\344G\267\2751\344\370\275`m\305=\230\250\324\275;\273\302\275\006n3\277\245\276Z>\0066V\276\256\245\255=g\241\004\276\352\033\325=\004(\t\275\027\224\025>_\030\351\276b\0272\276\220\2020\276l\373I\275a\336\203\275#\351\324\275\354\301\220=Q\036.>wK\">0Q\275\275\340\023+\276n\037\242=\226\363\237=\324\236\010\275vr\372=\000&\317:_X\010\2763$\006\276\\ H=\203y\001>\264\302\n\276\253J\016=o~)>\316\204\350\275\316\314>\274\372\202\344\275s\252z>\036\230\315=z\025\245=\027\223\037>\202p\002\277R#\312=1\237\376\276|\324\374=/\2740>\261hG>\215\246(>\330\346u=\000p\237\270\265H\274\275\222\205\210\275\276@\260=p-\373\275\000\315M;\215\315\202\275p\223@\275Z/\252=@\021\236<[+1>\206R\247=h@\363<\310\276=\275H\277\215\275]u(>\234\211\320\275\306I\340=p\n\n\275\266\352\032\277\3435c\276\221b%\277\"\235\t\277\000\3448\277`\0207=8>b\2751S\n>\301\301\304\274\326\001\375\275-\347\305<\322{h><7h\276\032\034\211\276\035\364\016>\255\260\007\276\374!\200\276Ot\232>\\j\304;\211\343\202\274\276\242@\276\246\'\352\275\316t\t\276\243~7\277\003\233\224=\206\020\r\277\317]\024>\272Qp\275\031\'\335<\373\303r\275=m\022>\006\331\326\276\326\320\370\276$\'x=G\251\273\275\254\227\365\276\322\354|=\345^\t\276\337\221\265\275gF\004?hGT=\362a\242=\302o\344\275\241\256=\276\306\246\311=\331:\264=\365\242\242\276\337\007\034\277\245t,>\275\226\372\276_E=\277\030<b\272\t\024#\276\277\224$>\032\202`\276\224%:=\374CY\275QTS\276\255\252\013>\305/\202>v\324\010>5d\035>\260\206\222\273\370\247B\277\016:\373\275\n\221\334=\276\304\013\273L\325\242>v\255\326>\224O\273\275\227\301\226>\331\261\021?\245/\024>\005\237\302\274_7+>4\224\032=\376\233\373=0S\213<\252\000\247=\360\216]\275X\026\343\274\014\365q\275\320[\022<\220y\002\275WE\032>4&p\275\316m0\276%\\\001>\250\237I=\200\363\'=\004\250\r\276\340\317\334<\207\263\212\276uT5>\267\013\210>\031Z\006>&p\325=\325\343\250<\353\375$>\376\032\251>\332r\312\275\035)4>d\032\321;\'\202\000?\224!c\276S*\203\276WH\254<A\2165\276\250P\263\274K\341\031\276 \024]<\366W\323=o\355\343\275\354\365[=b\362\326=B\016V\275p\315\022=\007\2002>\372\334\353\275\245j\010\276\327\243\351\275\212`\271=bg\221\275A\246\313\275\270\027\205>\242\\\025>\212\006\302>9\346\027\276y8$\2775-\266\275>m\033\277\366\036\317>ij\366\276!\351\246\276T\'\000;\005UB>\017\365\203\275\256\350d>TK\201\276,\317\261\273\230\022\031>\213\001\325>z\r\235=\354\327\236\275\210O\005=\207W\023\275\307\300\266\275\020\2248=5\033\350=jN\010\276\312\270@>0\214\340\276\260c{<\022\214\024\277\n\254\032\276B\207\315\275\224)$\275\370}\253>!\306@\276\225\000\370\276\344u\026\277T\341\037=0-\214\276\310\373\363\276H\367C\275@\252g\276\215\002[>\334\2043?\267!\223>\257k?>8&\265>%_\010>\363ub>\304\206W\275\310C\327\276\316<\337\276\356\350\317>9\3068\277lu\330\276r\3264>\3679\245>\345\273\324>F\224\036=A\225O>\311\235\230\276G\ri>\017\303\032\2758\277{\2752 \302\274\216&\037\276\213\332\027>\323\341=\277*U\231\276\276\305W\276\220\221k>X\366\"<r\2623=\356\370\326=8\242\"\276l\3329?\203mV\275%]\201=&\275\277=]d\200=\371\337\001>\025\253\010>\360\360\351\275x\214\002=@\002=\274tNr\275g\346\007>.\005\326=)q\312\275h\031\013\275x\177\301\274\244\210(\276\337\2313\2766\227\t\276\204/&\275u\0002\276\003\276\206\276\247 \323>\323\324t=\306\032.\276Pg\202>\006\335\r\275\343\277$>f@\234>G\210\013\275F\014v\275NV\351=\004\013 ?\3064\264\276\277F\001\276\245\345\366\276\236\212\202>\252\225\364\275<\0262\276?5\n\276}]\030>\204\2640\276\340<t<\033\360\005\276\206\253\315=\352\357\337=J\366\337=\357\234\">\322Q\331=\217x\255\275/a\364\275H\211P=\010\347\375\274\245*\n\276y=\254=\247.W\275\222\210\013\276\021\313\322>-\301r\276]5\035\277\224\333\016\277\201\035\037\27735W=\t\322i\276>|\231=\347W7\275\273\236\204\275H\261\004=\000K\025\2773\035[\276\312\372\312\275\264\246&=\350\221\033\275\236K\254=\005\2129>4\242Y<h\212\263;c\213\335<\230\376\004\277\326L\037\276:\325\311=\310o9<\023\257@\2778vH>SbI>\274\0230\274\330>\236\275\213\227\013>\332s\232\276uf\026\277\250.\205=\326\'H\276-\002 \277\t\273\014>\236\314|\274\314\375\311\275\276;-\277\237\211Y>\344A\000=v\004\245\276\364!X=\203|i>\305\310?=?\213\000\276n>\205=\312\205\323=\302\0347\277E\364\013?\033\225\256\275\376\020\326=\224\345\275;m\035\026>\254\317w\276\"\274\203=\243\200\265<6#\227=t\276\370=E\322s>H=\264\275\227\000\027=\337\310\002\277\005i@>\323\027\"=\026\237\251\276v\233\362=\023Zv>)\202\315\275+\021\253=b E\277\332\261\241=\322\366o=y\324\205=&\217W\274\034\372C=\244\264\317\275\200+!\275\360\207B\275\014\n\006\276\000\263r\2741\267\035>\206\242\313=\302\257\322=\001\3344\276\300\013C\273\310`\220\275=\3532>\342g\342\275v\311\266=P\242:\274s\340\347=0G\302\275\314\374R\275\007\024P\275\373;a\276\350-`=~r\037\276\350\361F=\364\026\352\27563*\277x\265/=\346\365\310\276\351\331\264\275\033q\352<f\001\200=_\tP\275BU\250=\330O\215<z\207\327\275h\202\261\274 \326\207;\0211)>\2325\355\275\232Z_\275\224sz\275iw\234\275\274\332\021=\355\223\030>c\2222>T&\t=\212B\020\276\200\207t\273l\321\340\275\215\267\213>b!\343\274\356\373\260\275\346\373+?\334\206\r\276!#8\277\002\320\004?\036B%\277\242\017>\276>\301P\276\202\214\333=\327\367\311=+\0147>\023\252L>\360K\210\275*-\244=\300vw\27594\n>\3474\216\275$\261=>\245n\255\275\264S\036>~\341\215\275\350\317_=\220( \277T\022\200\275hO!\277\247D.\275\356\247\006\276\010n.\275\267\024\200\275\276Z:<l\311\241=\316\014\273\275\2149.=Y\322-\277\277\255\034\276\346\226\237=\303\2470\277\026\204\231\274\324\025\001;\334h\217\273\310\331\371>\0340w=t\337\304\275\356h\310=\320e\224;\204\005\274\275!\304\252\275\345B\316\2768X\001=\364+\250\274\244\007&\277@\354P\273\224\254\324=\316\252\031\276\275\253T\276\232\365\352=\341_\200>\377\374\021>{81>\343k\367\274\025!;;\370`\357\275&\200\020\276\r\257K\276\240\353d\274\013\323\032>\257?\030\275\310\245\356:\370i\242\275\205_E>$\270\306=\006\202\222\275n\227\360\27646\024=\347w\035\275@\024\263\273\367V\271=\367\314\037>0[9=s\311\033>\244\034#=h \024=_\356\034>\326\220\023\276i\302\234\275 5H\275\\\236\351\275M\315\032\276.\302\341=\001\206\274\275;\031\036>\320\rZ\274]\3640>\263\212^>\005\244$>\344P\377\275\032\300\277=\231\347\356\275\225\264\360=?l\014\276\270\214\035>\370\363i<\264\002\321\275\214\212\t=\235T\000\277\277F\270\275\236\223\003<;\2724>!g\001>\240r\r\275@\312\314\273\360:\177\274\300\275\213=d\013\t\276k\021\024>\257\310\032>\207\207\n>\0306G\275nY\033\276\250\035==\033\213\000>b\022\261=\360L\243\274b\205\014\276\206\365\374=`\345\274;)\235\204\276\353Es\276(i\277\275\376\316\025\277=\216\024>\263\274\342\276\373\r$\2779\313\036\277x\224\205\276E%\005>g\031&>H\323\001\276\320d\201\271\336\347U\276\372\021\307\274E\371\217\274UF\207>a\342\034>\372\367\252=\306N\231<1\234z\276^\363Z\274\005\331h>>\353\225=kw\341\276;m\025\276m\365\033\276\237\242\r=\337\270\032\277\"\004\255\275\210\335/=y\247j>\254\235\335>x\031\334\274\354H[>\356E\350>\246\270\311\275\271+a>\'\246(\277\026m\257=\335n\247\274uYp>O\210\014\277\"M\305\276\303\025\342\274\226T\305\2748\202\225\275ZE\227=~\202\027=`\366\336;s\241\032\276\256\364\332=4\275@\277\327R3\277\206KN<\344\ni=\036\375\364=z\254#<\231)\033\276e\2409>)iE>\242\245\367=}\021\317=/\300\013>\202\243\330=\361\221\334>W\255\003>\r3\211\276r\377{\276\261\306\'\2767P\n\275B\316v\276\221n5>\277N-\276(\232\013\277rJ\314=}\016\331\275\242\314{<\204\333l< x\005\27482\236\274bE\330=\004v\021=\300\241\010\275\340\370\300\274\226\273\342=\010\337[=\0009\242<\327J3\276f\251&\276\032\313s\275\306\255\332=0^\240<\372\241\206=x9\365\274+\016/>\316\312\321\275\302u\275\274\275\325\016>\325T\036>\033\240\001\275\211J\001>\215\260\202>N\232\216=\032J\336\276\022\331\311=w\364\n?\224\3451\275^\263\263=\264\350_=/\375&>\034\311L=\270x\037\275Hj\032=\313-\026\276\026\223r\275\000\376\362\273M\301%>`\350\221<P\262\362\275\323\230\005>7\327&\276\200\202\200<\216\013\353=3\307\256\275K\273\034\276\314\243]\275oV\254<\352\270\320\274\033\3357\276\334~\324\276:N@?\016\245\262\275+\204\035\277\343 \033\277\214\321\347\276Nt\032>\253Nt=C\2711>\020\264z<\235\252\216=oA\007\276S+\001>\324~v=\215ak\276M\312V>\332]\017\274E\376\212<e~\247>?-\233\275\200\031\231:\324\344U=Qq\027\277\tj\266=\3457\364\276\243\344\266=\330L\006\2760.o\276\232_\243\276\205&\216>3P[>\220\035\323\275\366\226\004=\353\030\006\277V\327\240\275\262\273\377\275\220\254\020\277v\240\275>\215\221~>\223\233r\275\266\202,\277\330\306\200\276z\010\331=U\235\001>\"\264\r=N\350\003\276\034\"r\2762\276\264\276g6\023>\334\330\366\275zR\036?\200e\n\2730\203\376\275Z\035l\276\347\030C>\223\366\224=9\362+\276\337\247\355\274\210Ra=T^\264\275\337(\013>\276\032y>\000\013L=%rO>D\260\365\275;\331\010\276`\204\017\276\353H\">K\024Y\2750Qf=\354`[=\336\330\362\275\374\013;\277\243\355\300<\302X\302=\270\031\244\275|\202M\276\370\263\322<\303\310/\276h?V=@\272\007=\254+\031=\333\263\253\275 \265\233\274\202\336*\276\360\255\237\274\254\376$=(\305\266<\314\265I\275|$^\275\303\340\002\276\034\321\037=\312\257\343=\302`~\275\275\216\370\275\\\274\322\275\014\250\377=\377\026\177\276\274\251\316\275\210\2576\275\006\306\300\275\026\277\273\276A\251\225\275\246L\262=y\t6\277\313|d>\230\254\375;8V\316\273\024\337!=\332o\273=\327\272&>\330A\210=r\313\364=\204W\021\275\364\260\010=\345\346\021><\3437\275X\327\235\274\236\210\225\275un\241\275\225\243/\276\003\263\254\275\370%\315<\232C\336=e\207\n>\253\023U>\340n\244\274\004\237\352;>\\3\276\355\203:\277\250`i=\266u\t\277rn\024\277\3069\337\276\310\312\031\275,\211z\274\310\000\002<\214\n\005=\200\2231=l\324\204\275\333\t\303\274\312\203\005\2759\014\302=\326s\223=\257a\347\2748l\235\275\344\022W=\362\346\t\276BR\230=\255\272->\351O>\277\177x\005>s\243\334\276>`\273=Q\t(\2772\233\363=\214)P\275\216\025H=@\375\000\275\341X\314\275e\211&\276\276\031-\277\367\263\037>\211\323\216\275\2326#\277o\352\202=\326}r\274\252\244\022<\257\2601\277\207\205(\276uJ\306:\004\226\334\275\352\021\234=t\300==\216\232\021\275\274>N\275\364\304\002\277D\3117=\311\325\345\276\234A \277\336\035g\275\300bL\275\370 .\276\274\212\252\275U\024<\273\300.;\275\034\227 \276\302\355\373=3$M\275\r\227\r\276c\200\037>=\250\023>\251\265/\277 \377e\276\344\016\334<^\006W\275>\010\311\275\267F.\276\237\372\203\272*b\177<\237\221>\277a\224a>\243\315/;\375\014U>P\237\027\275\247\352\010\276\000\253\217\274\326u\016\276\200\034\257\273\3419!\276)\252\372\275\325\270.>\2747\t=\336\320\352=\034\306\325\275\322\221$\276J\025v\275,\2560\276\033\013\n>\0036\321\275\022\223\354=\204\303\'=\252}\342\275\266\307-\276\024\004\267\275\353\007\223=V\032\245\275M\005m>\303\304\221=Wr\235\274\033\241\346\276\312l\010\276\233\3612\277w\261\257=\225\320\007>\325\201g><Zt>\030Y\221<\32173>D\271#\275\354\2542\275Q~\215\275\237\032#>\351\036\026>\000\313\276\273\360\270|<\250\260\"\276\217n\232\275\232K\366=\232\005\013\276.\255\315\275\354\252\213\275\203@\r\276N\021\361\275j\202p>D\335i=U\222N>\002&C?\257\3079>i\275%\277\335\253\006\277\010\215\340>\230aB\275<Qm=Fb\322=\010\246X\276\220D&\275\375G-\276y\312\207>\245n\355<\"\212\210>\221\257\010>h\205\324\275o\224\032\276U\330\005>\366\316h\276&\023\205>\324\213C\276\354\331M\275\374w\033\275\301A7\277\007\222\232\275=\363\366\276\372$><\274V\241\276\245\301_>h\370\367=\256\307\212\274SI\232\276\320\273\343>\245\035\014>\357La\276\322\214\354\276.f|\276\255\327\212\275$\376\237=\373\267\t?\375a\001>`]\257\275\335=\212>\215$\"\276\345\211\227\275\314\022\342\275\204\372\031\277\037a0\277\367\244h>\351\217\022\277\237\034\340\276G1\225>.u\006>JI\231=B\2426\2756\272\222\274\367\231`\276\004*F\274\332\236.\276\217\221\237\275\270\320\311=\310\006\007=2cM=\004.R\275H\246b\275h\372\345<\365\373\276=\374yh;\310\264\320=\253\3048\276\311TD\276\376\242\024?\307\335u\275o\322(>\326\331\031\275\310\274K=>}\374=Yf\002>\330\251\346\275\333\326\016>\314\305#\276\322\352\272\275\243^\037>\361\315\344\275V\244\272=p \371\274\374\0324=@1\276\273:\327\272=x\216\032=\026\031\240=\200]\305\272^tr=\246\177\367=\323\243M>\376?\032\275\252\351\365=Pm\347\275\207\334\020;\250Z\373=1\334\">\200\237\267<\336C\313=\242\021\331\276\002\313\232=;\\->U\211\374\274\334\216\n>\3576\202\275\300/\216<\022@\334=K\013(>\301K%>\013\004\026>\372\337(\276p\237P\274s;\300\275O\010\001>=\231\276\275\006.\261=4\313 \275\246\243\302=|\251\265\275n\034\200=C\024=>G\234\225>\336a\367=6M\236=\303`\343\276(\216\256\276$!A\277\034\205+?b\263 ?\312\032\321=\2223\231=`UL\276>\034v\2755\233/>\024\375\217>\340\364\251<\243\332\\>B\356i>f\010;\276\205\364\004\276\200\210\035\276\307\026\336>\214\021J\274\230\364l\275\034X\025\276H\037\363<\030\031\023\276\304v\357\276\242\214\n>\275\374@\277\334\201\241\274\353v\221\275[\\r\275\300\007B\275!v\351\276c\330p>d\334=?\010\206\320\275\014\272\231>\347?\003\277\034\203y=%\262\260\274%\034!\276\033\345C\277\017f\304\275\343qv>\374\354%=\rT1>Ezd=DJ\345\273C\001\256\276\253\356\036\276\037QA\275\017\000\001?^\376>\277H\3721<\346\211\267=-\234\007;:W\242=\336r\322>\020\361\002\275\273\250\213>\007\026\035>b\353-\276\022V\317\276-\036.\276\316\377\325\275z\347\264=e\370*>\tr\021>h\332\244>\255\332\205\276B\023e<\217\305\357\275\004#\034\275\370\247C?\202\327Z\2766\306\036\276z\004\020\2767\327\206\275D`\004\275\r\022\251\275\004\356\377\275\251\206\021\276\347t\007>\374\357\003\276p;\024\274\344\312\323\2752\357\006\276UQ\016>\'\365\005\276\304Y%\276Hj\035\275f\266\225=U\261\023>\216/\321=$o\\=\321\274\020\276:`\260\274\306\321y>PJ8>/\312!\276o\321\243>\236\226\241\276\213\226.\276\257\270\220\275\236\356\364=\215i\027?\"^Y>\021?q>\270\301\017=\tn\324\276p\234\257\274@\353\245;1S\035>\266HX\275X^\347\274\2008\251;\320R\213\274k\233*>\323\333.>\306G\223\275q\350\006>\322\265\'\276\2116\265\275X\211~=\340(\r=\250P+=*\033\275\274\232(|\274\235pr:\241\234\262=\234~7\277\022\254h\275\034\252\034\277?\236!\277\2316F\277\366\347\234=\031\217O>\320\341\022\276R\255\252\275\t33>\274\'5\273}\215X>T\001I=\264vj\276\364\2235\273\362\230\236=\306\255\250\275\205\367\313\275\350\307\337;s1\246=\312\312\242=\340\032\016\277\316\331\315=\315\2405\277\344|D\276\206;\036\277\340\371\375=\272\310\023\275\352M\n\276\024\0064\275\023\245\025\275On\004\276\352v\035?\234f~=|\355&=t\225*\277F\2364\274B\274\316=,\2136\27695A\277\272\273\034\276\310V\020\276a\036\200\275\324\223{\275\024JE=\014\267\267\275\017\014\315\276\003 \005\277\267\234\035>D2>\277\014P\037\277\217G\204>\2231\t\276\336\373\022=q\023\013>\232\263\214=z/&\275\260y=\276|\211\021\275z\230X;\350\357\035=m\004+\276,z\331=\\\r$\276\256@\341<\360\n\326\273\3378\306<\001\200.=w]\036>\326\355%\276+[\335<}f:\277Hy\204=\r\346\234\275\237-\336=\364\372\315\275\225P\344\275\236\"\341\275 \r\022\274\220\220o=\210\323\310<\340\034\241\273\227\241+>\006\211\032\276?\274\006>\262{\317\275\222\002\366=\255\242\037>\250\3247\275\000\004W\274tR\346\275\243\363,>\262\206\036:\241\215\n\276*O\226\275\370\376\243=\004~%=\n\260\375=\014\007+=\354\016s\275\216\276\271<\224\242\034\277\212\273\275\275\206\210\335\276\324\322\313\274\2046\373\275\211\014=>=\375\013\275@IC\273\304\"L\275g\225\353\275-1*>x?\201\274{J\004>\2432\034>\200\016\275:\337\221\331\2752\323\031\276\000\210\254<\371\217\232\275\020\342C\275\241|\000>\026[\247=\306\272\205=\304\316T\276\322c\t\275\374(\265\275S+\256\2758\004\022\277~\326%\276\222o\003\277\035\322\352\276\353\343\005\277Ju\003=\243@\004\276P\336\210\275\350\233\321=\325\275\321\275\264\373\030>\372\022\344\275\342P>\276wk\234>\010\233\224\274q\303b>%E>>\353\335\000>\266\337\264<\255\206\'>\220\025\230=\351\306\024\277j\016\305=\027E\352\276\234\351\000\275\264[\023\277\352\307\016\275\357u3=vP;\274>\307\254\275\201\007->,\351H<\327\243\'\277\362\300\317=\324\213\220;\016\2733\277\277u\213>N\311\245=6\t\241>X\t\027\277`\264\306\275\332\257\210>\355\014\014>~\222\257=2\320\277\275\264\224h=\nj\030\277\243\244\001\277\327\n\320\274\260\3157\277O`B\277\356u\246\276w\327H;\033\313.>q\212\216<\000@\201\276\225i\021=\327\206\021\275\3066\345=x3i=\207\210\210>\260\233:\275\237\026\245\274\340\344(\277\tt\022>{\234\216\276\357\356\211\276\2136\377\275\017\202\020\276Z\351\212>\262\265\254<\251\236\333\276\260\346n\27556G\276\344\233!\275\273\330\022>\\\363\020\276}\2610>\375\340\026>\224\256\026\275\264\347\032=\010\346\214\274B\035\243=s\222\017>p\342\265\274\227M\034>\252$\374\275\'\312\022>\000\244\337;\340R\372<m0\267\275\350C\224<\222\273\242<\314/w=\352\357;=\3166\324=H\313\262=\001\034\273<U\026\007>\334\206\210<\357\233g>+\247;\277\243\344.>\237\322\023\277\216Y\253=.\215\226=\355*\036>\246J\317=\230\037\371\275h\021\254<\264\367d=\306\\\367=jg\240=\317F\341\275\316\337\321=\222\371\312=\256I\342=\304\266(\276\330e\031\275Rb\266=6:\314=\247\227/>\250\202k=0-\244<\026\227\366=\024(\342=\314v9<\364\201\n\276A\242\275>\207T\335<i[\022\277\214GC\2773\010\371\276\221\250G>\314N\007\276\344\301\001\2752\034\233\275\244\034\321\275A\254\252\274\206\227r\276\274b\212\276\nA\312\275\210\030\002\275\"\266\'<\261\216\025\276\2742\275=\237,2\275\242\034\330=\234\001\302\275\030\263\245\275\0209h\275<h#\277\356\242\345=z)D\277r\336H\275\245%\240>\2759\274\275\227?\005\276\270\177\251>\305\273\243=\226\302=\277\355\220\210\275\001\222\230>\243%\014\277\325=8\276\247Br>\327\030\332<&s\004\2775T\226=\227\306\215>\217\324e>\257\326G\276\330Z\317<\003\277\177>\357\274\000\277s\343?\277j\262\223=J\010\351\276\240\376\375>\244\332\221=fAh\274B\016\">n\222\223\275\031\355\">Hn\030=G+\316\275\251[\000\276\324\232\362=6\210b=\354\256#=`\233\013>\001\337\006>n\262\314=\330I\303=z\007\267<x.\221\276\'p\'>]\236W\276\207\017\376=\236U\032\277|\306\377\2755G\004>,W[=AP\022>\266s\000\276\3358->\245\232\003>\316\241z\275N\324\347=\262F\005\276\300Rh\274\016\211\246=p\215!\274X\253\263\274\247\372\222\275\216d\335=\250#\204\275`\033v<\276\371\357=\272\335\367\275\276\235\250=q\213\t\276\360\263#>\257\304\177\273D!\002=\257\004{>h\027\240\276\363\350\016\275\226\226\210\275>\324\370\275\026\306\377=\0079\366\276\370\027N>\006\343\023\2757\033\035>qS\200\276\000\230\0259\021j\007>Q&\007>\377c2>\224\243]=\364\346t=\270\317\201\274\330\035w=t2\342\275\360\265\007\274\306R\330=\004M\377\275Pr7\274^k\240=\363\326\036\276\244\014\001=\360z\314=N\"\037\276\213\300\274>\341\370\367\275S\353\337\2767\214\277<\225\257D\277\265\2703\277\247\220(\277m\320\030>\001yT\276>*\356<\020\210\250\275vt\216=\223\371#>;\303(=\272jT\274\357;G\273\n8\245<\3570?>vC\332=W\355\372<\366\031\311=\343\2138\275\226\265U\2752I\021\277\270*\254\275\345\022=\277\226p\021\275#\362)\277\250e\212<\311\227\362<-W\002>Im\366\275w|\366:\275.\\=JE\330\276qL\315\275\370\212\244\275\035\017\342\276j\271\257=LU%\2755\331\006>V\274\344\276\\k\361;\350\021\255\273\215\307B\276\3561\203>P\207\227<@fv\2769\367\317\276\342\201:\277\021$\231=\271H\030\277\374U\014\277\362x@=\013\312\033>\030l\301=\304\362|=\325\352k>\277z\n>\340\273\240\276\177\315:>\360Y\316\275|B\212\275\000\244\377\271\323Ov>\344\3549\277\214\312\251\273\234 \005=\362\214\321=?@\023>\005\031)\276d\365\213\275\271\274\305=\2240\371\276\245\346\006\276\254;\232\275\"M\336<M\343%>\214_\036\2765\013$>FD\257=l\354\032=\373#)>\240\320\312\274\336\003\230=\017\363\036>\256\235\275=\010\027H=9\371\010>@\261?\275ho/\275\220\362G\274\223\376#>P\233\204\275\305\007?>\273Ne\276\350\246H\275=\341 >\320*\262<\241\205F\275;\2260\276\377^\031>\245\354\217\276\306i\013\277\3644\312\275\274\t*\277e\262\020>\204\364-=\353\026\020>\363\204\312=P\017k\275+\257!>\246\020\335=\267\350\221\275\300d\010=\272\362\017\276\215Y\010>\200\317@;\214\356I=\260|\205<\017&\020>s\"\031>)/+>\375*+>\224hP=\306t\344=\252\t\253\275\336z\313\275\264\223\n>6\312\362=\201K\334>\021\323\263=H\004=\277\334\2670?\343\236?\277\003]\246\275\345%\251>\362A\250=\307k.\276\262g\334=\n\335\310\275$\035\'\276\230h\376=\200s#\276\033\354\327>\371p\255\275`l\250\275\243\321\211>N<w\276V{\237\276\310\324+\277\202\356\325=&\265\231=\375N\005\277\340\3752<So,\277\277\376\023;S`Q>\354\226b=\031\366U\275\243&Y>\021o@\276\'\342\014?\2026\225=\232!\211\276\344-\365\276B\033\256=\324\334\004?\305\356\'\2764f=?\026|Z\276a\274f\276\312&\203=\036\215\010=\204\022c<\356P\220\276\334w\034\277\234G:\277\375\260\223<Z\317$\277il=\277h\223\013\275{\316G=8\202\267>r\204\037\275\027\t\205\274?\242|;\216\n\316>\361\313\217\274\r\346;>\221Ot>\330\220$=V8\273\275\370\337B\275\276\265\260=<\216\322>\304\373\265>\030\034\210>\370h3>\253{G=\267\333%\276`\000\364>\246\010\270\275\376I\030\276\211\212\316>\027N\240\276\010\306l\275\321\0244>\356H\007\276tuY\275[j,>\360Ql\275\020\226\022\275\222c\322=\177\277\006\276X\230\253\275{3\235\275L\000\341\275\240!\344<\326\006\256=\200\n\220\273\336\335\215\275\264\273\023=!H\016\277\035o\254<l\177\345;K\203\213=\027Cx=[4\021=oNJ\276\007\003,\276@\320\212=\277\365D>\3043;\277\350\023\035\275\356\211 \274u\2050\276\304\310\366\2747\027$>\220@\301<z\212\234=\2608s\275\030\177\257\274\314ln\275\023\r\010>\361}/\276\367\206\220\275H \357\274bH\306=\376B\330=\221\313\342\275N;\372=\260\241E\274(@\027\275@\027\002>W\351\020>D\025m=\334\375u=\023\342\025\277G\262q>\273^\032\277s~\341\276\256\250)\277\311\033\r\276M\333\031>\370c\334\275\010\235)\276\264\204\201=\222\323\253<\210e\031\276\253\274\016>\204\256+\276\214:\216=|m[=\321-\226\276\327\212\"\276\204\245\017=\312\374\352\274\364\233\344\2744H\034\277\320\371O=\013\316\371\276\367\205\005>\250\t\016\277HiE=\336\260\372=\271\335=>63F\276>S\352\275\007\210\240\276\r\250\013\277G\372\321\275\037M;\276L\230\r\277>\213;\276\336\024b<`\361|\2761(5\277/0\010>\370\356\235=\243\2641>\003$\220<.g\316=1X\316\274$\271\246\276\nL#\277Aq2>ZG4\277S\257\004\277<B\231\274\366]8\275[c\014\276e_+>a\377\013>l\367\200=DS}\275\230?\314\275\227\201\036\276\316H\305\274\t*\367\275\320(,>\034\231\335\276\320\023@\275t\275N=`&>=\272h\265<\371s\031>vd\333=M~%>\227\267$\277\3321\333\275\264\303\251\275(\270\002\275\330\032$\276\353\233\322\275\2226\211=,\377\030\275vW\321=(\261\264<\236J\224=\366;(\276\215\342\023>p\003\366<\237p\025\276\233\0172>U\222\006>\270z\200\275bb\352=\364\272\016\275\226\366\244=dO\312\275C~\367<\3003\220\275\204\305\365\275\352\211\247=\370\343\274;\224\377\014=3\341a\275\036\326B\276\342,7\277P\'z=\256\2255\277Nk\240\275\270\273\355:\240NO\275\nc\233=\362h\367=\350\331\"\275\266\025\345=N\250\267=P\372\322<]\3152>D\250\031\275\300\246H=\236d+\276pt-\276[A\200\2759\351\'>+S\022>\316,\246=x\321\r=\350\362\373<\001h\321<\005\010\003>\357\372k\275\232A\365\275\025\030\013?\372,\023\274!U\004\277\361\363\r\277\025\177)?\023\245\002\276[\200\265>\271\024\265>mI\027>\213\307\315>8\252^=\331-_\276\n\320\243\275%\035\315\274d\323\200\274\265Uv>\275\"O>\030\020\363=\026P\263=\032\263s\275j\020N>\310\251\022=524\276\246{\333\276v9\001\276\207H<\277\230c\224>\222J{>,F?>\322,\372=\"g#>Y\206\306=\240\362\314\276?\325\030\276\320\342\336>\227+\021\277\373\227\217>\271\265\372:\013\r\326\275t]\006\277\322?\345\275/a>\276\024\361\201\275q\016\230\276\207=}>\016\\[>\003\323\310\276\376\265,\276\316\220G>\001}\006\277\026\221\024\277\254Z\262\273\3719\003>\253Hs\276\232\264%>\370\376j\275\037\201D\276!\005\233\276\3710\017\276\324\n\234\2762\217L\275_\306\216\2750\321\024?\254Ad=\325+5\276\026\002\236\276e\212\363\276v=\255\2753\371\252=\326\216u<-\266\031>\272\030.\277\361/\337=)\007\212\274AB\262=\217\277\307>\2054\n\276\366\216\214=\276\357\247=L\274V=h\256\010\276X\371\006\275Vo\362=\026\251\234\275\232q\213\275\033\337\303\275\"\003\271=\321^\030\276\225$\036>f\347\327=\260\037A\274\035\325\036>b\t\303\275\007\021\023\273\"r\235=Vv?\276\241\202@\276\220(\016\274\220\370\032\276\027\313s=/\303V>\243\n\013>c\330\034=>Q3\2775.\036>A\366\230>\224im=t`\225\276\002\200\326=b\232\247=\251\036\000>\247\277\260\275\020\331I<\215\202\006>\200\310\355\275\272\t\212=W\234\013>\036\233q\275C\361\024\276\204\241\013\276%\241\242\275\332,\224=\202\005\016\276\243 \002>\270\234\013\276\243\323\021>\372\240\257=6N\036=S\274\021\277H\341\225<\234\000\372\276n^(\277r\350%\277\300I\222\276\324fj\275\366W\251\275\246aM\276\244\352A\275\255\260Z\2751\377\246>V\304\227=\232\013\340=VH\310=9\030\013>Y\005\317>\334\307[=o\357K>\336Z\330=\371\264;=\361\247)\277@\260\213=\366/1\277\026c\203\275\217v\005\277\341\262Y>\245\203&>\200o\312\274|\217D=t!|=^\006-\276d\000\020\277(\t3\276\207\261>\275\362\356\024\277\2664\334=T\361\262\275\320\352\325=Z\3372\277\310\333\206\274\2056\241\276\242\257\013=\\\005\311\275\022\350=\276\320\275l=\2212\032\2776%\005\277,\210\001\275Yn\r\277Q\3359\277\264A\032\275\220\340,=\242\362f\275\374\\\332\275{\'K>,Y\244\275\327\016\014\276\216\204R\274=i\255<&:P>\000\357K;w\366\004>\373\020F\277%\242\231=|!^=\360}\315\275i\025\001>/\331\016>\2643A\276}\204n\276iG\r\277b\0328<\n1\263=|zq\275*Y-<\310\210(=\340\353\331\275\202.\220\275B\205\266=\021\246\001\276`\226\020<\310\273R\2757\032#>\\/Q=\331\316\024>\346\302\321=5\275\200\275<5\316\275i*\027>\261_0>vx\227=\367B\341\272\317F:>\302\033\206\275\212\246\344<\264Tn\276\300\026W<%\310\237\275\202\264h>\3073g>\272*\340\276\026\026\025=\347\211\001\277\272\020\370\275\237\266\217=]\\\002>\007\264p>\017\375\010>\242\242\276=D\375T\275 \375\034\275\233\345%>\241\213\">\310<\320\274-\200\037>@\\\200\273%\017\352\275N\312\270\275\232\326\014\276\020\r=<\271D*>\226\361\337\275\031\030\204\275\214\031I\276\202\356\235>\025//>\344`\005\275-\215\003\277\016/\317\275\267H0?\3002v<A\214\031?\343S\026\276\305=\215\274\353p\032>P\323s\275\304\252\324\275x@\245=\026\024\214\274\264\300\245\275\236\306\020\276\032\023\021\275\224\214\221\273\230\250\302=\027%#\2758\361\032\276\306\004\356=\254l&=g\337\002>:\306\257\274\250\340\007\275\270f/=\216y\240=\370_>\275z@\202\274\331\223L\276\335\\\025>\373\267\355=\003:\306\275\271\316&?\207\217\024>S\0173\276\311=\375\276\370 \204\275\366\206\224=\201l\267\275:\002\374\276\031J\243\275\226\264\273=|Fp\274\022w\020\2748}L\273Z\032\314\27583-\275\263g\036\276\334k\006=d\230\t?\310\323H\275D\202\302\275*\366$\275\245\354\023>\363_E>\376\177\335=\340\247\277\275\222\225\345\275B!\320\274t\207\030\275i\034\023\2758\3327\275\221\010\217\275\000\203E\273\310\261\031\276|\001\213\276\335\3371\276o2G\276\307@%\275\314,\264=\257#\023\276\247\214\352\276\273\022*>\007\237\277=\354P\274\275\026k\262=\323B\206\275X\0011=\310\377\326<e\337*>\222\0310\2766\334\234=\314\023 =\251+\007>\332\256\207\275\035\t\r\276\230m\346<tb\022=\212O\263=)?\024>M\377\033>\254\304=\275u\372\n>\3668\321=\323Sl\276C\025\211\276\322\335\366<\002w^\274,\247[\276S\274\374\275(\357\354=\366:\367\275\270>f\274I\2522?\034m\016\276k)N\276t\350\335\275j:\372=\240 \313\273X[\264<\254\022x\275\250\206\016\276\366\265\006\276\340\225S=\346\361\254\275\302\273\327=8\301\233\2753\360\347\275\2542\005\275\361)\005>\004\237\026=\263\367\031>\340\3705<\370O\257<\257\034&\275\0171\006=~\310\310<\376*\307=\266\305\026\277\324\2577=\305;\032\2771g<\2771UC\277\372\330\301=\325X\246\275q\2456>\312\033\314=#(C>c\037N>\360-\221\276\212\245\276=6\263\207>\020\026\035=\010\312\354\272\205\271\344\275\200\261\361\275a\215\204\275Z\344\366\275\020\010\274\273h\001\000\276\262\354\316=w\"0\277\262#[\275?\300\027\277\322\355\316=\345!\\>\302\003\340\275\217\272\205\275\243\024\023>\206W0\275*>\374\276\177\2614>\237\223\275\275\001\0138\277\214p\265\274\247\332\216>}h\020\276L\333\020\277\205\306r=9\221\020>\245\246\201=\374\222d\275T\317\331\275\236|\222=Y\331\253\276\337\361,\277+\016\034\276\217\217\t\277z\2347\277.\243\235=\354\237<\274\324\'\253\275\230\372\033\273~\262]\276i&i>L)B=\264i}=%\250X>\262E\217\275\006\336(\276\273\227C\276G\306\022\277\317E\303<\256}q\276`i-=\002\357\320=\251\326\222\275N\037\025>\017\242U=?eF\277|0U=\032wN>~\342\341=\202\205\324=h\376\200\274\000\272\317;^\225\r\276q\241\026>(\214\323<`\363\002\274\234+i\275\n\240&\2760\215\316<\230\t\014\276d\324t=\030\013\240\274\260~~<\0009P:\276\n\253=O\217\304\275\325\221\214<\337\202\221=\234\334\334=\302\356\266=N\276\325=\373\217\367<\"\321\227\275\247\323\265\275\222\315d\274^\342A\277\350\352W\275\351\232\316\276\362\320)\274\242\213\225=^\313\242\275\243\315E>\230Z(\275Vv\357=\327\301!>\245\331\036>\340U\352\275\206\n\301=\300\221\327\275\200\234\246:\234\366t=\302\"p\275\362q\330\275\3245=\275u\2651>\230\336\034\276\000+\021\276\333V\002\276&s\330\276\251{\265\275\372\355\317=\211\376!\276\360\230\005?\347\326[\276\312R+\277z\225\377\276T\2464\277r\017\375>>G\n>V\201\334=\334\233\003\276\')\233>H\276|\275\035\236\031\276L\"r>\362\216\017\276`\255X\275\371\325\231\275&\304\372\275@,\207=N\320\322=\334d\006\276\245F\350\274\020\177\201=\031S\356=\340\330\262\275\245^\351:\272#\371\275\213\373\332\275\270_\203\276\2325\244\275\006\341\266\276\326J\240>\355\360f\276\023y\"\277ju\004\276\3233C=~\232\357\276\355\304y>\254\221f>\014\273\336\275|\324\370>\226.\365\274\344\261\215\275\027\257)>\301\215\027>\332\033G<\316N\246\274\311\223\327\276\005\360\006\277\207\n|;\214\007\005\277q]\333\276P\360\221\275\360\254\003\275,FO\276)d\210=\233\302\226\276\362i\212\275*\317\251=\341\210\335<4%\034\275\342\222E\2760\255\361\274\036\234 ?g(+\276i4\313\274w<k>,\350\275\273\001R\266\276\310KD>\201\322\037?*\216\341=\336\314\333>\035\367M\276\340\226\355=\003\r\034=\264\022\277\276_\025\212\275\202!\342=\366\371\326=^7\204=\366%\230=C\350\240\275\367%\343\275@\014#\275\032\212\366=x\232\303\274r}\364=6c\341=6!\265\275\324\276R\275F\371\344=\000Hs9_W\"\276\342:_>\276\310\027\276\211\017Q\276\371Wk>S\337\002\276\025\325\214\276\326P\340=\010\036\314>8\032h=Z\267\303=\337\314;\277\273\344\207>\310T7\276\247\350\262\276R\365A=0xh=wI*>\200&&=Z\234\272=\360-x\275\3505\360\274\315\212\232\275`\334Q\275\200\310i=\024^\242\275\364>+\276\346\271\276=\340\366\177=\200\314\214<N@\275\275\014\232\304\275{:G\276\2207M\275MBk=pF\374\275\002N\022\277\177\013l\275\265\344\017\277\002\314:\277\332\331\035\277\024K\017=-\026\240\275\307\353\253\275\025\361B>K\337R=\004\217\373\2758\242M\275\372\"Z;i-\362<+T\300\275\206\266\233\275 \256\355\2754\250^\275;\354z:\266\305\276=\205\317\025\276\331\252\344\276\310]\033=\031\224\004\276\'\325Q>a)\024\277\005\264\027\276\266K\325\275\260yn\275@\276O\276\225F\2379\332\232m=3]\347>\030\226e=3\334\261=<}\353\276\'\320\272<\2435\306\275\341\202\222=P-\006\277F\224\005>$\307\273\275:1y<j`\334\274\202w\225=u\r\246=,\355\235\276n\014\276=x\035\373\275\022\226/\277\211\361/\277\264H\024\275r\220\344=\0023\222>\031\251\007>\n\271\343=D\377R=T\004\321=\334\026\302=\222QX>\177\204U=N1\321\275\2533\313\276\010\363\337\276\264\361\t=1$\037\276\331\265\226\274@\244\347\275\236\361\273=xq\247;*:g\276\245\261<\277\013\215B\276\256\247\201\276\316\353.=\210\274\200\275&w,\276\323L\031\276q\303\026>8\026\352\2759j\227\275\0240\350\275\370\237\n\275L:\177\275[K%\276\300\236\311\275!\221\334\275\360\2018\275I\230\010\2760!:\2755{,>F\256\210\275\225@\375\275\014\324\010\275\'\356\227=\016\304t=\001q\200\275\377Q\023>Y\203@>G\275\220\275\204\306\204=\226/\t\277j\017G\275\270\036=\277\230\343\371\271\243\0249>BM\343\275\3618\027\2760\366\007\275<\322\t=\331\3002>\303X\026\2762`\352\2755\212\n>\330Z\317\2742\255$\276\212\325\265=\343\337\017\276\2401\300<\027\265#>Q\271\017>\013\2574><\323\346\275\356\371z\275\364\250]\276\272\332\230<Z\240\213>\010\016\217\274\200\203\026?Z\300\225=\254 \374\276\221\230\351\276\342o<?\246\331\202\276o[\241=\240\033g\276`Q\311\276\177\254F>\233G\247\276\2271\211\276}\202A\276\324\032\277>\356g\017\276\016iK>\256J\232=\374\036\213\273f\237\340=\250\t\220\275J1\374\275,x\'\277\374\221\003=\214?T=q\217\215>\231\177\n\277T\315]>_\351\217>\337\205\346\276h\2417\276@\301\025>\021\365\300\275\242?\352\276<3\246\275&\007 >\260\\B\277z\312B>\021)\242=v\032\242=\310\034,\277\"W\223=R\251\353=\3478\217=\363i\210\276\336\250\262=\326\332\323>}\n\221\276\237\312\000\276\274U\246<2\366\033\277\325\177)?\312K\364=\334\227\006>~O\335\275v\340K>|\315\202\276\027\330i\275-\177G\276v@e\276\257\353)>\326\353\222>\331\335\266\275\227G\337=\306\226s\275\031hz\276\t\234\326=q\3761>\211n\005>\270$\275>\255\247\232\276\020\252\364<\252\372\n\277<\374\257\2761S<>\2250\343>\310\252c\276\220\014\001\275\332^\034\276\212&\331=\367_\030\276\364\364\325\275\322\233\234=\312PZ\2754\241\031\276\346\311\312=\327\260\013>X\214\323<6\216\334\275@u\363\275\240\240\256\274\027\251\250\275\262r\341=\326\315K<\236\206\261\274#\343^>\227Q\257>\225\026\203=\342z7>\014|*\276\273\314\237\275\314eR>\266\004\310=\225\253\366=\301/?\277(\337\200>0Y\376=6Q\274\275]\256\374\275ac\003>\246\320o\275p\006\247\275l\261\301\275U\2552>\347~\001>B\243\300=`9\250\274\274t4\276\373:\031>^C\245\275\355\320\026\276\223\377\261\275\035[%\276X\257(\276\323\251\325\275\271\335\362<\360\216.<\224<k=\362\261\232=\350\376)\277\344\225l\276O\3309\277$t;\277/\313\343\276\026\345\202>6\252\274=w\211N>Mzc>6\336\202\276\013\273e>cp!\276\252\327\376\275y*\257\275\n#\340=\234\030\365=\256O\036\276,F\020\275\0141\220=[\006B>\266\001\361=\317:\n\277Ds\r=\325\211\002>\232B\025\275\370\326\375\276(s\314=\362\316\232\275\034\241\343\275\331\205\037>\360\202R=\036\327\005>\231,E\277\323\303\036\276\276&\222=K\210$\277 \032\205:\017\351f>\216D\363\274\016\3250\277\2623\n\276\356\247U\276\320\262\341\275\274\035>=\000\024:\275>\261\034>qi\271\276\260\022\204=(\366-\275DH\003\277\344\345A?\254\252h=7\344\002\276\244\336\004=\006\222\205\27508\027\276\344\212q\274\256\t^>\226\252\n\276f*\237\2755,\222<;\037\205\275\245{\202>\350\215\351\276\325\222\t>\010\247\027\275\264x\027\275\262\023\353=v\234\332=hdP<\256\320 \274g\020\360\276\354\\\007\276\305\267X>\266\227\355=:\324\351=\216\265\333=LYS\275M\363\225\275\330\177\010=V\336\224=Vc\274=\304\013\021=\313\376\376\275\177\246\220\275\255x4\276,=\253\275\210\253\237<\200\206\370\272r0\316=\037\355-\276h4\010=\300\224\\\275\342I#\274L\275Y>sy\031\276P\353\225\274\177\307\311=-(9\2763\202\004>\367\222<>\342\244\021\277\251\266\346\275\266\326\007\277\333\245E=\235m\023\276\272b:<v\302I>\304\231\021=(\303\214=\355\\\032\276d\340\022\276\370\213\037\276\250\364\342\274\212\203\375=\366\220\265=\00041\275\271\017\">\310\225C=x\217\207\274`\237e\274\207L\212\275pA\024\274\370\016\227<]k\212=\020\377{>|\217\303\275p\333N\273\253{\022\277\370\247z<\264\014\336\276\377\037/\2774r\004\277Q\267\264\275$\235A=4\t8\275\242O\322=>D\310\275\022\017\243=~\271U=@@x=\264\312\254<\205\0103>\004\2249\276HY\n=\212g\276=\n@\312=\0356\003;\207\336\201\2758\232/\277E\314\">\302@-\277\232\031\265\274\214\204\037\277\300CL\275\332\361\366=v\310\323<1\272/\276G\324\032\276\325$\271\275I\373\373\276X\367\036\276\226nS\276\262\226\370\276\232\r\3769&\036\377=J\355\314\275\360>+\277\244K\300\275\234\013\275\275&>\317\275\267ZK\273n\004\307=\022\031\310\275\256$\372\276\264X\034\277\322\213\325=\347\3575\277Y\\$\277\317\364/\2769q\030\275\360\240\217\274\n=~=\216h\335=n)\370\275o\263\002\276\365\220I\276\013)8=L\346\002>\332\245\251=\013\317$=\326x\372\276\304\200\302\275\374\205\024=sw\367<b[\347=\326\320\220<{\334\010>P\332\031;\376\210\005\277@ T<\360\016\337\275j\315\013\275\247\036\034><R/\275\204\007\326\275\300G\205<\337r\002>\344e\027=K\004\216\275\351\013\306\275\000HW;\300\210\013<\241\006\027>\213M\033>7\320\030>\372\232n\275\000\307\010\275e\200\017>>\302\366\275\213\202&>\033\026\216=\214\006\312=\230}4=\304OZ=vI\263\275\202r\263=\302\325\237=\376^\215=\366j\036\277\352\010\336<\003W\005\277\005\013=>\246\261\016\276\020\273\310=)-l>\216&p\275m\205,>\214\331c\275\244\342\014=)\335\010>\235\275\036>~\005\267=\346[}\275\300f1\273\330\310V=(H\365\274BW\032\276\244*\000\275}F\032\276\016B\232=0T\213=\233Y\315\275\026\270\371=!\034\242<\353\036\376=\213g%?\366\326J\2760\325\004\277\036/E\277\246\r\000?\274MY>zm\253=\272a\027>\374\325\354\275\316\266\206\276\301\333\327>\376\370M\276\314\204\275>\254w\001?\223[$>\320\365q\276J\233\315=\352{\377\275\206\374\367\275\227\217m=\024\034\332>\205_\020\276n5\024=\330\025\035\277P\373\306\276\325c%\2773\346\004\276t, \277\031I\016>[\203\210>\017\240\206\276\177\3673>A\203,\277l\364s\275Kf\205>\211\"\"\277\010@\250>V\312\"\275\267W\243\275\030\305\017?:X+=D\366\220\276\372\355\310\275f\257\263\276\250GY<\026\363\266>\036\350\220>\341\274\334\276\020\267\020>\323\227\023\277\362\230\n\277\352t\276=\270\274\223\276l\216\027=J\232\370=(\252\313\275CMD=\020}*\275\366\332\220\275\254l\252;\262\370\366\275\\\233P\2755f\374>\200R\263\275\355\303!\277_\323\361=\362NW\2764\251\310>\242\234\310\275j\240\364<\021\375\203\276\r\260\352>\367\336\260\276\3029\370\275V\0266\276\263\267Y\275\020\230S\274i\3433\2767\\)>\030\202*\275\326p\300\275pK}\274\3064\271=\262\234\370=J\236\322=\032\363\241=^G\265=#\227\033\276\010\031\377\274K@4>\232W\304=\"\033\030\276\330\357\322<\374\247\t\276\247\374N\276\270|\246;\334{\267\276{\'\314>\263\373\253\275\306\337y>7 \332<\206\027\307=G\306u\276J\356\032\277\331\366\213\275\320?}\275\272{\356=7\345\345>\246c\210=\372\203\323=6\316\364=+\211\"\276\360\233\024=\230Q\200=\240\256\301\273\323\2620\276\360R\224\274j\177\217=\260\310\232<\250\222\270<T\311/\275J\353\237=F\323\037\276\242\264\351=\272&\252\275\034]C=\351\317P>8\346\213=\203\225\346\276\377z&>\r\211\005\277\312\301>\277B\277\036\277\277\346\355\274\244X\n>\375\360\037\276\224\225#\276\332N%=%`\213\276\327X\016=Sd\374\274|\034\312<\354\026\246\274\314\343\257=,d$\275N\275\251\275\225:\021>\264\307\317\274\332^\377=\243{?\277V\210\315\275\374%\313\276*\322N=\255\376!\277\331V\036>pa\325=S\223\013>\240\030\016>\037\315\024>\334\006\316\2759\304,\277\'S\017\276\016P\341<\031w6\277\204\203D=\262\361\027\276r\277\002>\262\371\373\276\034\\|\275\252\331\370=\214b\212=\241\233\203=\354\241&=\3045\244=x&\003\277\027Z1\277?\3308>\177Y1\277\362T-\2776\270\257\275W%Z>W\301K>$\254\342\275\\\315\215=\242+\'={\323\216\276\006t\316=&\372\277=\270P\324\275\352\013\037\276\n6\202=0\0212\275~Y\337\275\'\016?=TM\t\276\t\016\323<f\026\270=\212\025\334\274\316\023,\276\220\235.\277i9\220>\306\"\351\272\231\001B>+[\376\274`\343\212<;\300\024>\366\361\255=\025\340.>\002\353\275=X;\r\275Q\r\376\275f\212\n\276`\r\235<\225\030\221\275\000\302>< Q\216\275D\210K=Pl\247\274\313\245\005\276U\210\025>\001\371\256<\017.(\276\245\347\356<\303R\t\275\341A\205\274\004\037\230\275\243\202#\276(\014\037=]ys\272\357\343\010\277\341\310\002\276\030\321\017\277w\213D=\272O\220=u\010\315<\256\331\317=\0079\033>\350C\035\276A\354\330\275\210\305\353\275\020\370\214<0\372\016\275 N\317\273\223\335\026\276\247H&>>e\241=\200\302:\274\303\276\001>\363\251\013>\271W3>\336\\\221=\260\225\356\274\004=\332=\247Na>m/\233>U\215\030\276\274\372\314>\345\263\370\275\177+\010?\363\334\013?\037\374B?8\277\031=\360P\003>\270X\314=W\031\331>\222`F>\243\225\267>\031r->\234f\016>,/\302=|\266\206>P\376:=\216&\034>*\333%\276\340\027N=\346\310\222=\226g0\276\250\351M\275\355\217\275\275@\2137<\327\365\017\276\200\213o<*5\351<\375\276\222\275\260\225f\275\214Z\303>\230\211r\276w\017\260\276\277\272?\277\264J\017=\0141=\275\313iD\277\335\330\314=V\023\\\276\272MM\276\266\367\033?\300\016\t?t\332\020\275\r\300\260>\"\366B\275=KS>\022\200\021\276]\2273\276LU(\277\2562\246\275\323\021\">pv\\\274\027\246\221\275\367\336\227=8\2234=\337Q\204>M\331\335\276\322]\374\275p\325#>\220[\314<\376\372\005>v\266\263\275\240*\371\273<;\013?\3646\027\275 8\r>\245\033\212\275E(\310>3J\346\276-\'\220>L\363Z>\252\374\031\276\016\031\367>\031Y\223\276\320U\023>\000\340\231\276\300\276*\275FM\217\275|\350c=@\211\036<\364\022\200=\236\227 \276\260<\320<\212\266\210=\210@\315\275\370E]=\330\366\360\274\264j\032\276\345\211%>0\3711\2752\230\200\275\314w\201\275\324\203\276\275\204*\036>\240\331\'=4\025\005\276\310\347a=O\360\366\276y\250\301\275\274A\227\273\373\350\000>\206\331A\274\005@\031\276,\234\016>\\\251\314>\000\361\362= 4&\274^#a>0\316\036\275L\276\272\275Z\377\347=@\355v;`\372\017=\215\253\017\276\300K\334<\3427\337=\236\327\235\275\010\274\034\276l\351\n=\320\026R\275\340\207\027\275\340\341%\275\315c\017\276\216h\214= \010\357\274\022\324\240\275\347\240\243\275\207\307\321\276\201\005\013>#H\030\277\334$i=\201\266/\277\007\321 \277W,\000\277\366\362\227=p\202\230\273\213)B=\270\363\n\276Q+k\276\313\230\264<\315f\313>\200x\313=\177\261 \275\240r0\275XIb:81\252=qX\304=\023\257$=\273I]>\242\316\254=\314D\331\276Z\374G=F\255\377\276d\r\016\276\030\200!\2777\002\252\275\344\314\017\276l\336)\275\226\340]=`\365\324\275v\342\302=\243N\021\277\324\365\224=\036*\373<\304\3441\277\305\343\025>\177\tq\276\003W\320\275x3\376\276T~\212\274\270\203@\276\245}%\276\201\203y\275\362\372\350=\234\006\241\275\246\214\345\276\205\244\'\277T\271T\276\\\271\t\277\332\355:\277\245\336\233\275\037\243\037>v\365\232=c\365K=\262.\000<\005+\206\2753\250x=\314\363?=\243\264\247\276j\237\303\276\221k\333\275\256w\205<k\202.>\347\3512\276B\305\022\276<\213\213\276*\220H\276kc\024>\\\222\033=\336U\255=\2515\364\276+\004\264\275\236(\232\275D6\356\275:\002\260=\342\243\243=\324B\005\276\337\235\020>\363r\312\275\241\004\003>\347\371\005>A\377\025>\210FE=\257`\356\275`\336\235;\005\001\374\275H\273\001\276\351P\035>h^\256\274:\035\303=d\026\003\276\313X\221=\265]\235<O\222;>\377\344\'>$\324|=\274\221\\>\337\327D>\031\177\036>\366\322\265\275\004\360\034\277i}\013>\007\300\346\276+hA>+\302=>\236\227\301=[5D\276\334\r4=8\361\334\274\220\300r=z\240\303=@Y3\273\314\037.\275\211I!>\343 \014>\270\261\360\274\303&#>G\253\031>Rg\330\275&\335\241=t\006\213=\317S\361\275h\243`\275\343\275\250<\360\200\252=\204a\324<?\332E\273}\2552\277n%\370=\274E8\2770\2326\277\n\026<?\016\347\241\276P\372D>\263]\005>\253\203\235>\330`\360;\374<\r=\365\305\264\276\370\225A>\353\265\265\276\274t\203\275G\352\030\276U\272\363>\244.M>\372\253v\275`\204\263\275\246-\262\275\353\005)\276\217_3\276\206\347\356=\366\212\260=\2517F\277\274\030\315\275\263\037\305\275W\255\201\276\226%\233>~`V\276\361V\266>(\3076\277\230\342\226<$Bm\275r\223\026\277\304\2540>\276\220\357\275\230\212\351=\230\275%\277\255\246h>5\004U>\'\\\313\275S\027F\276\251Q\230\275d!T\274\300Z-<S\330\031\277\001\337\207\274\201&\027\277\207\000\002\277\366\2633\276\254#\241<\034\034\212\275t\225F\275\227#\374\275\376\356\027>\242\002\270\275$\370\244\274#\201\021=\343\323\017\276p\216\007\276\244\2713=\326\252\260\275:U\311\276\302\263\034\276\276\255\032\276_\243\245\276\201p\211>\266&\364\276\204\322m=dz\376\276@\263\273\276\0032\032\276\233\016\"=\252\014\317\275P\343\311<\341m&>\364\364\n\275z#\251=\031\361\024>\210\202\271< \247\217<\017\242\">L\037\030\276\020\243\013\276\240\034-\276\000\352C<]\034\025>\225z\253\275\367{.>\032R\314=\226\241\360=\3554\344=\007\370n=\227,\000\276\264U:\275\266i\243<\205\226\201\275YM<\276\2140/\276v\217\020\276&S\324=\\i\362\276\234\3059\275}\233\004>\240\326\024<\314\351\375=\342r\334=\260\357V=\033u\320\275q\357\">J%\344=9Y\024\276 \333\021\275;.\033>L\276a=\220\300P=\202\010\323=\036\252\230=\264\251\323\275\344N\217=\230^\377<\033\215\023>1\314\221\275J\340\371\275\344Z\004=tl\031\275v\337\024\277\351\276s>\353K,\276\365\363\362>\305\304\025?K\316\034>GD\253>V\367\217=Rr\344=\352\205\214\275Dyr=\024\3222\275\367\375\'>\231\352h>2tK\276\226\007\357=:W\306=BCi\276\274\305W>\026 \226>E\232.>D$\202=P-/>Ij\333\276t\033<= 4\372<R\033\263=\342\\?\276\3460\001>\006h\033\276?\262\273=\356\257)\277pA\'\276\3002/\274\357{\004\276\023\240\013\277?G\264=\340\216\216\276\227\367\217>q\376\006\277\360H\r\276\024\316\364>\355\226\201>\312\355\225>_1\361\274rq#\276wW\246\276}\375(>\316W\261\275\252\010\370\276=\227\270\275\306\206\302=;\304i=\254`\334\275\350\300.>S\316\241< \322^=\357\256\032\2757i->\220\222\226>\"[\246\275\323\225\346\275?\333\035=\201\3423\276!\002\215\276m\323\024>\362\305k\274\347C\240\2760\020\277\275i\023\021>Q\256\002>\241\317=\277\035\326\247=H?}=\315\347\230>8\352\033\276\177M\023\276@\364<=\205\007\201\275\010\264\377\275h\004\375<8\230@\275\374\357&\275\"\306\273\2758p\225=\2643*\275\370\205`=P\221\265\274\333\356\001>\304=\237\2756\010\246\275F\363\244=\236Z\322\275\206\222\371\274\010\356\014=V\373\205=/\300B>\370\352n\275\024\363\"=\270\277^\276\212\377\367=\272K\240\275/\247S=Uc\022\277\026\301\230\275u\342S>\\v\030\276 >T\276\361\224\253\275P\241\201\274\316:#\276\256\337\247=\026\343\200=\t:\232\275\265B\r>\370\224\220\274n\016\271=\331\241\274\275\005o\301\275.o\205\275V\235\253=\272\346\372=n,\266\275\314\205\007\276\034\037\032\276\020\272\216>9\344\230>x\246(\276\235\255!\277u\367\022?}\357\356\276_\224\020\277\020\311,\277=\277*>\311^ >\357\010\214\275\300\233\t\2750\233;\276\232\270\270=V\336j\276\300mG\276\353\272\216\276\315\010\010>\257\203Q>\247\"G=\220\201\215=o\340?>\333\350\317\274-\243\377\274\270\242)\277\035\241+>o\\8\277\231a\030\276\364\372@\277\354\343_=\240\225\307\276\370\343\n>\333@\254>\377\247\230=n\306\002\274\320\276\024\277\353\032\216\275>cn\276\342\360\375\276\005\"\270\270\330<\206=c\314\341\274\303\231\003\277\024\362\252\274\211=\351=\302,\203>\257_\200>U\211]>\014\271\217>;#\327\276\201\307$\277j1\263\275t\346\'\277\241c\032\277\337`<>e\231\255=\026\n\0239\001\246=>\316\037\342\275w9\010\276\277\271->6N\242=3\265N>\"h@>H\371\356<\302\001\304>d\364\017\277R\275$>H\030\321=<\242\001\275\3676Q>[\314\247\2760\361\273=\243^C\276G\207\351\276\255\207\343=[\363\343<\241\305F>\005\212\021=\230\005/=\200v\214=\004C9=x4\315<\035Z$>O\'\224\275\347\366\021>\246\214\036\276\200\272\232\272Cz\360\275P\022k<\334=v=S\322\270\275xO\016\276F\334\274=\300:e;w\030\277\275]\345%=H\017\363<\304\265Y<\313;5>n\331Q\276\2151\272>\2604\207>z/\023\276\3070<\277\'\370\352\275%\3410\277\014d(=\262\210\235=\315I\206=\0079\255\276\364\372>\275#\2671>P\354^\274_`\n>]\227 >\330\204\351<.b\250={\363\340\275h\306e=\274S\005\275i\307\300\275\203(\032>\000\340\223;\365\033\010\276|KR\2750aw=\001=\001>z\330]:\034\352h=M\205\240<\365\275\004\277\200[\231\272\353\203B\277\007\255\354\276\213\367!\277v0\324=\210\3071=\310\2070=\004\3262<\272\332\036\276b\330\257\274\303\310\344\275%l\205\2753\370V>:\372\376=\320\024\206\275?\320\340<\n\362\351=A\226\001\276\014\022\374\275\336\274\207=NQ4\277b\321\002\275Y%-\277\037\354[\276CB\002\277\322\361\246\275\236\224\001\275\276,\006\276\374\177j\274\222EZ\276\217\217p>QD*\277\330F\364\2742\327k=\000\2214\277\323\255\275<\245}\023>zp\345=\254A\r\277\254\032=\274\177\316w\276\324T\013<:f\201=?\3111\276e\341<>\313\277\037\277\236\245\005\277\260\235|=\0211\366\276\266{\024\277\345\324\301=&r\331=,\3277\2753\340\023=\363\240\323\275\200\302\366\275\3566(>\367a\r>\362\014\003>\340\271\372\275\374\356\005\275\211\227\303\276\020\376;\277<*&>$\363\002>uH\223\274\332\373\302=*V\231=N\037\t\276 )V\2754\3126\277h\376\207\275\224\202!=,\026\247\275 \314]\275\334eL\275Z\341\305\275\17791>\234\277\202=\000\251\002:\205\246\003\276yk0>\255r\006\276\223\225\t\276\324\034r=$`\030\276T\251\t\276\331#\030>\240#\270<\355\251\240\275\000?\205<\217\357\215\272*\203\304=\307\3141=*\365\303=\034L\3519\260\347\273=t\202\305\274fd[\274>\273\216\275s\252C\277\020\n\"\275\250k5\277\366d&\274\023\215\260:>\024\240\275Q\014\026>\267m*>\255\002,\276\234^\273\275x\255\327<\240H\356\273\240rY=4y(\276\001\230\207\275\000V\221\271\257\247\024>\000\025\026=\361\370#>\313\327\361\275\250\224\007\276\024\254\201\275zh\000\276\'\200\326=\271\363\306\276}/.>\374\257#\275\n0\006?\206^\177\274\201\354\r\277\227\205\337\276\206V\372\276\254\340\256\275qP\254>D\023\255<\177%\t\275\'\t#=Z3\200\276V\370M\276\177$9\276\305\352\211=x\025\310;9\305[>\315\370{\276\021\360\017>@\332\347=\214Z\234=;\'M\276#\275\000\277\004|V=\207\361%> \314\265\276\242!\013\277\326\'\306=\327\233`>\002\333i>\342T\332\275\214\373\"\274S\276\033\277X34?\300\275\353\275\227\302\203\276\313\r\034\2770\235m>\300\253\237\276\\G\251=\221\177\t\277\222a\262\275f\313v\276\205@\232\274\203\353\340\275\214\364\201\275\214\331m<1\021\325\276\201\306\355\276K\030\225\275\321:\372\276\365?\t?M\327\343=p\201\364=1\251\036\276\322\026\002\276\230<\017\275\372\227L\275=\366\212\276\237\'*>\0138/\275\344\245/\275{\340\302\275\037\261\377<\304\310\200=\363r~=\302\231T\276\371\313F\276v\306X\2769\347\253>\033T\235\276\032\205\300=\327g\361\276\305\024C>T\371\337=^O\327=i2\376<$S\034\276<\007\032=D \006\276\224\315\346\275 \254n\275`#O\274\036\212\314\275f\005\345=\236M\264=o\335*>\036\347\364=7\372\310\275\n\265\207\275\014!\035=(}W=(\250*\275\314\274\023>;\233\004\277\262tc>\204{\202=\3545\177\275\372(\260<\032\364F\275\360\310\225>\213\261,>\367\205\005>$B2;\323u\365\276t\277\210=\006>)\275 ~\305=\251\211\255=\014\254O\275]}\264\275\2421\260=@\263(;\320K\340\274\276\233\340=|\246\216=\023\332/\276\330N\301\275\264E \276R\221\242=\200\337M;\340A0<,~\213=\304q\r\276\230H\256\274EYY\276z\007\032=`\\\007\275\237\005\t>\350\324\026\277\371t\223\276b\206\025\277\364\350 \277qD\026\277\000C\205=\240u\251<h\363p\274\252h\217\274\256\022\242\275\220\263}\275\330\3059\276\300\224\037=9\242\037;,\004\361\275S\262\245\274A0\013>\334\317\021<RS\331=H\235\r\276\347W\357<Fp\r\277q\316\226<0A\r\276\330\340O\275\347\r<\277-/!\275rD\263<2\'\236=\212\315\251<\022\345\301=}\031\215=\362\342\r?\274\326\r\275\216\302\014\273\306e4\277\357>\267\274]Go;\242\010\370=\373|\352\276U\324\203=\204^P<gk\330=\272s\346=i\035\016>\274\317\276\273\322\341\016\277\211\246\010>\356;\327=\tm\006\277\n\240\035\277\367Jp>\247&L=\357n\037>:\000_\274\214\366s\275p\313\374<\245Q\034>\272\203\275<\302\252\260=\344s\322\275Y&3>\257\271\'\276h\356\017\275\273\231\013>\304\023\322;2\304\376\274\202\337\253\276k\374\211\274(\265\032>\234M\265<\314\316\014\277)\312\377<G\nt>\250\325\357=\354\224\362\275\200*e;\372[\005\276u\215\010\276\214\267\325\275\250}\364\274\320\334;<UZ \276;\016\021\276cu)>\003\363)>\362h\370=\\\263\230\275\372\237\365=\000]\350\274\220\271\021\274\\\\/\275\316c\322\275\341\224I\276\216\342\211=\375\202\022>|}\237\275=\237\365\274ba\272=\372k\300==\016\374\274w\315\016\277\306\222\315=\256\0370\277\n\226\t\274\200\177(\276\362\374\035\276\302\211<\276\360\0217\275H\321\242\274\222N0\276\340\364\224\275<\3441\275\344\010\016\276\243S\271\275\317\267\363\275{\n\247\275\2645@=\326\320\231=\030\264\233\275P\252\374\274\000\033g=\030y\273\274zq\036\276\034!\254\275\315C\357<\032\032\013\276\275b\304\274\2751\352\276\315)\037>\364\272:\277,