node {
  name: "x"
  op: "Placeholder"
  attr {
    key: "dtype"
    value {
      type: DT_FLOAT
    }
  }
  attr {
    key: "shape"
    value {
      shape {
        dim {
          size: 1
        }
        dim {
          size: 24
        }
      }
    }
  }
}
node {
  name: "decoder/conv2d_transpose_3/Shape"
  op: "Const"
  attr {
    key: "dtype"
    value {
      type: DT_INT32
    }
  }
  attr {
    key: "value"
    value {
      tensor {
        dtype: DT_INT32
        tensor_shape {
          dim {
            size: 4
          }
        }
        tensor_content: "\001\000\000\000\004\000\000\000\004\000\000\000\010\000\000\000"
      }
    }
  }
}
node {
  name: "decoder/conv2d_transpose_3/strided_slice/stack"
  op: "Const"
  attr {
    key: "dtype"
    value {
      type: DT_INT32
    }
  }
  attr {
    key: "value"
    value {
      tensor {
        dtype: DT_INT32
        tensor_shape {
          dim {
            size: 1
          }
        }
      }
    }
  }
}
node {
  name: "decoder/conv2d_transpose_3/strided_slice/stack_1"
  op: "Const"
  attr {
    key: "dtype"
    value {
      type: DT_INT32
    }
  }
  attr {
    key: "value"
    value {
      tensor {
        dtype: DT_INT32
        tensor_shape {
          dim {
            size: 1
          }
        }
        int_val: 1
      }
    }
  }
}
node {
  name: "decoder/conv2d_transpose_3/strided_slice/stack_2"
  op: "Const"
  attr {
    key: "dtype"
    value {
      type: DT_INT32
    }
  }
  attr {
    key: "value"
    value {
      tensor {
        dtype: DT_INT32
        tensor_shape {
          dim {
            size: 1
          }
        }
        int_val: 1
      }
    }
  }
}
node {
  name: "decoder/conv2d_transpose_3/stack/1"
  op: "Const"
  attr {
    key: "dtype"
    value {
      type: DT_INT32
    }
  }
  attr {
    key: "value"
    value {
      tensor {
        dtype: DT_INT32
        tensor_shape {
        }
        int_val: 9
      }
    }
  }
}
node {
  name: "decoder/conv2d_transpose_3/stack/2"
  op: "Const"
  attr {
    key: "dtype"
    value {
      type: DT_INT32
    }
  }
  attr {
    key: "value"
    value {
      tensor {
        dtype: DT_INT32
        tensor_shape {
        }
        int_val: 9
      }
    }
  }
}
node {
  name: "decoder/conv2d_transpose_3/stack/3"
  op: "Const"
  attr {
    key: "dtype"
    value {
      type: DT_INT32
    }
  }
  attr {
    key: "value"
    value {
      tensor {
        dtype: DT_INT32
        tensor_shape {
        }
        int_val: 1
      }
    }
  }
}
node {
  name: "decoder/conv2d_transpose_3/conv2d_transpose/ReadVariableOp/resource"
  op: "Const"
  attr {
    key: "dtype"
    value {
      type: DT_FLOAT
    }
  }
  attr {
    key: "value"
    value {
      tensor {
        dtype: DT_FLOAT
        tensor_shape {
          dim {
            size: 3
          }
          dim {
            size: 3
          }
          dim {
            size: 1
          }
          dim {
            size: 8
          }
        }
        tensor_content: "R\267\220>|^@>\326\302z\275\nD\304>Z\325o\276\301\227\202\276\"\310\252\276\274P;>H\340\337=\233\341\341\276\303\307\205\276k\036\327\276\332h\251\276\363B\266\276\311\211\262\275\241\216\267>t&R>@=.>\244%\027\2751\354S\276\256\260\027>\354DB\274\226\ts>p(Q\275\274 \217>\325\265\234>\347d\302\276\257F\245>\267f\275\275\236R\224\276\215\344\344\276\204\213\373\275\261\006!>\364\332~>\324\240A> =\271\276\031\231E\276\274\375\263\276\n\204\001\276\316\240|\275\254\261M>su\'>,\026\360=\214\350i>\300J\232\272\214\232\370\275@\235+\275\214\371\036>\026\252:\274\345\224\317\275\032\337\257\275\227\246\314\274\370\323\234\276\031\026\203\276\031\326\023\276\307\276_=]]\201\276\272\217\262>N}v\276T\255\237>\\\305\346\2759\274\n\276\232\225\232\2750v\267>p/\212\274\226\255\223> \032\237\276\214\336\024=\240\222\352=\376V\363\275\363K\215\274v\241\365\275"
      }
    }
  }
}
node {
  name: "decoder/dense_9/MatMul/ReadVariableOp/resource"
  op: "Const"
  attr {
    key: "dtype"
    value {
      type: DT_FLOAT
    }
  }
  attr {
    key: "value"
    value {
      tensor {
        dtype: DT_FLOAT
        tensor_shape {
          dim {
            size: 24
          }
          dim {
            size: 24
          }
        }
        tensor_content: "\027\367\245\276\270\370\034\273\252\210K\2750#j\276>)/>\354[[>km\244>\243[p\275\304\250\220\275\201O\026\277\242\272\213\276DG\035?\204\334\n\276\372\271\026\276\231\001\251\276V\276@\273l\370\237\276\010\373\027\276\304a[\276\273\330G\275\r\351\300>[:\357>\326M\226=\n\017\201\275\3530\247\276\236)8\276\254j\267=\201m\203>\031\206=\277\275\251\326>t\316\365=\n\303\307\276aX-\276Sh\316<\327\016\276<\303\216\017?\345F\022?\201j\273>\000\177{>\014\371\337\275\352\356g\276\030P\250=5\316\330>\026\200\216\276\340\327\243\276z\351\325\276%\331D\276\"u\227\276D3\022\276{\233]\276E\351\202\275b\254->\033\034\000\277\310\016b=\347l\245\276\007O\372\276t\"`>\014\2221\277T\366B=\356\216\216>\257\326\014>*\323\010?\003t{\275\002\327\023\277\306\3267\276z\237\231\276T\316e\276\016\224\215\275\036\006\237\276\371\364D>\016\346\226\276\025\344\221\276=\207\352>\030\026&\277Z\373\363\276Mp\221\275\270\227/=A\320\315>7\331\301\276d\026a>\224c\316\275K\305\230<5\311\217\276\357\254\220\276ek\245=\362\206o>b\034\266\276\020\342\315>\235)\255>>\334\234=s\372^\276OE\236>&J\020?\022JJ\276\226\316\017>u\372\254=g\373\232=\222k^\275\341J\222=\315s0>y\266\260>^\275\365>\013\270\301>\270\010\263=\3545\337\275\342\303k<\364v\">Xm\277>\223\271P\275`2/?\374\371\300\276J\275\002\276\374H\017>W\266\346\276\2613\003\277\214\232]>\202^)\276t;@\274\240Lm>\370\227\010>\323\204\345\276@\2057>\277\013\373>\235<?>E\241\213\275\273\356*\275\346v\356<\217\267I>\022\316\025?\203*\212\276\2164\252>\306\240\316>\202R\027?\205\022P>b\242\007\277^\267\004>\241\230\212>do\260\275\311\215\374\274@\273\277\276{\"Z\275\214\326!\276\304\245)>S\236\204>\2171\315\276\017\347\245>\026q\200>\031eo>\225D\202>\261^4?\314\305\213\276\266\231\032<\213r\272\274\360!\243\275$\025@=n\211\330>\276\2150\274CR\220>[\270\027=z\341\271\276\214\3202\2764\261n>x\273Z\276\321\335\206\276\206\342\244=OD\007\275H\247r>\002\347\316<\300\255r>\311\361\207\2767z[>\'\260\264\276l\245\017\276\333\351\022?\362\311\232\276\310\275\266\275N\n\016\277\274h\324\274~N\267\276\226\221.?|\032\000\277\326D\254\275,\346\327\275Xe\260=\376\244:>\250\307Z=\0169\016>(\264\212\276\034\315\000\276\242p\202\276\245\232\324\274|\024W>,\317\231\276Mk\305\276\244E\266=\t\203\253>i$\007\276\343r\027=\333\241\337>2\370P>\277|\005? \236\177>\245(\265=\013d\255\275\355\265\201\276\227\362\242\276\327z\317=\251<7>{\n\243\276\224\314\215\276\222\2466>\241\301\271>\020\007\316\276\317\341\016\276\373 \333\276S\004\037\276q\234#?\t\336\210\276H\023;\276x%\377\274\216\363F>\215\025[>\272\250\006?\224\305<>\206\037\276\276q\233p\276@k\216\276\307\267{=\010)\353>\t\342\251>a\227V>\035[\240\274\373\254\245\276\331\207\312>}u\345\276\265\277\013\277$\346\004\277\334\232S>\320\363\310\276\337a\215>\036\216\270>|\370\214>\325\265\235=\343\"\r\277\217\302\325>\331\273\343<\240\006\027>\350\201\332=\342\241\203\276cN\035?\310\016M;\367Bc\275\r\347\236=(\237\025<\270\364a>\254\221\204\273\256Q6>@\362\'\276\243\3110;\310\323\335\275\354\261\220\276\021\327\316>\265\376G\272\215O\232<\201\221@\277\2201\255>\200\223\325\276\232V\006\276~d\326>[`\271\276r\337\214>\'k\017?\317~&\277i_q>]\2241?Z\026;\277\r^\307\276\305\'\230=\000\341p\275\213\307\n\277\016\0319> \364\366=b\266\212>\276\031\'\276\350\353\216\276Bd\251\276R:\202\275d6\251\275A\021\342\275 \265\242>\276\353\253\275\3408\205\275KF\005\277F\301\010>60n>_K9?\rf\233\275\250\372:>E\312\243\275\332V\017\276\357\353\375\276f\257\010?E\367\004;\005>\344\276\340>\336=\242\021\356> \336\345\276\037^\334>\307\235\005?bf\004>\221\364\311>\334\371]\276S\251\233>~\004\006\276\243\200\217>\250m\014?\016p\212\276\2164\341\274\335s\327\275\034\223\r\276\216\322\251<\242q\220>\2577\317>\251\352\031\276(\217\326=\346\271\346>Y\346\371:\246&n\276\200\360\025;\350\205}<X5\032=\035^\362>\242Xt\276\320\345h=\352\251A\276\354\215\375\276Y\360]>\377\225D=JW\007\277\300?c>\3318x\275\023y\020\275\342;\207\276v\340\222\274@\'?>\340\363\231>\314\267\315\276\321\377C\276\311 \372>\203[\342\2766\301\260>$\315\275\276\010\223\232\276\317\322\034\276\321%\205\276\272\305f>\253\207~\275`\272\230\273@\177\331\275\200\037\340=|\320f\276\244\213\367>\3312\250>\300\344\257=\263nk\276\247\007\034\276\267\016j\276%\377x>W\215\262>\324\271\336=r\013o\275\177TC=\022\211\217>\370^T\275U\033\305\276\237\031\033?\007\212\200>\273\336\036>h\311\306>\333>\223>\024\2005\276p0\221\276;\234\343>\201\315\373\276d^)\276\222\275\244\274\313w\216<\254\307\261=\241,\013>\362%D\274\"\352(8J*><hL\254;\\\377\360=\273\005\002=\351.\006\276\364\234\016\275\276\266\361<\033y\211\275\361\024\227<\300 7=|Ld\275Ls\354;\372\361q\274\213\n\002>8>\315=$\316\326=\272\312\252\275\010\220\334\276\331\304\336\274\372\304\037<L?/\275W\025\362<\004L\177=+\351\317<\3721\006\274\350\326\253=\255y7>`\326M=s\177\035\277D\377\232\275\000`\376\275\014\034\203=jM\351\274\213\273\214\276\373\3229\275\353\021\215\275\371\275\243\274\2109\n=\231b]\276&u\307\275\2678\340<G\036\366\276P\351v=\224\221\361\273\334\307Q\276j\251\212\275g>\276\274f\3151\275\366*\000\274\006\030\337\275\n)7\276($\310\275=\375_\276\270\216\254=8\3276\275k\025\017>\020\347\034\275\346\266d>|m\363=1s\204\275\000\254\317;>\376a<\236\365A\276\347CA\276\303j\002>\350\275\367\275\"\344\250\275Lq\262;\240L\235:UU\264\276\262\030\222\276%\026\014\275\350\256z\275\234\253x>\033\004\217\276\010\250\230=\224\013}\276\244\315\271=x\346\263\275,\223\243\276\362\023<>p\034\250<\232\234\021\276Pi\315=\323.\022\276\342\356\034\276jP\005>V\000\344\275\324\307\370\275\260\276\242=L\216Z<4\327y\275\325\022\311:\216\"y\276\254\354\222\274xuH\2752UA\275\336O`>\200\010U>\350k\"\276\013.\252>\253\310X>\264-\035=\261#\221\276\2168P>\270I\263\275\214\025\250=\202\357\216>\315\376\206\275\204\210\027\276:\3667>\357jz\276\016\004\r>H\374\r\277Z\335\335\275\360!|\275\310F\275=\231\026v>4\250\256\2744>\177\276\354\n-\275\326; >\000\316\244\274l\003\365\275\245\305)\277\364\277\036> SH\275L\310\203=\342\377d>\320\342\206=/\002\026;K)W>#\310\232\276\202H\375\275\343\235\310>|\231\034=\277\302e\276\026.\013\277\270F\240;\n\216.>lv\333=\340\000\372\275yj\037\273N\237C>\214\266\232<\366\253><\364\257\324\275\300,1>m\206#\277\246\0041>\335Yg>V\213\362\275\230\256\322\274\303Y\252\276\203\356\241=\364YQ>Q\335\237>\220\253\343\273\230P\017>\024\376$>0\367E>U\303\302\276\3422?>\020O-=\27464>\257\326\315>r\267\274\275\225\t\230>,z\013\276\345\201\204\275:\251\227>\252\221\010\276\017\343\226\276\030*\345\275\364\355\024>\267\310\224>:\021+>\204\372\340=P\266\307=\034\276\346\275#@\234>^\274S\276!jG>q\326O\276q\302\254>"
      }
    }
  }
}
node {
  name: "decoder/dense_9/BiasAdd/ReadVariableOp/resource"
  op: "Const"
  attr {
    key: "dtype"
    value {
      type: DT_FLOAT
    }
  }
  attr {
    key: "value"
    value {
      tensor {
        dtype: DT_FLOAT
        tensor_shape {
          dim {
            size: 24
          }
        }
        tensor_content: "B\226\314\276&EX=\366n\001=\365\3345=z\302u\274.\207\247=\220\273\026<\003\375\207=>\310\230\275q+\007>\002?\306\274\'\211\314\276\375*\007\275\266\330p=+\350\331\274@Y\206\274\000\000\000\000s\016\276=\002\327#<\337e\210=JI\035<\246\233D\273\242{r\274\005\267\321:"
      }
    }
  }
}
node {
  name: "decoder/dense_10/MatMul/ReadVariableOp/resource"
  op: "Const"
  attr {
    key: "dtype"
    value {
      type: DT_FLOAT
    }
  }
  attr {
    key: "value"
    value {
      tensor {
        dtype: DT_FLOAT
        tensor_shape {
          dim {
            size: 24
          }
          dim {
            size: 64
          }
        }
        tensor_content: "\213I\224>\353\323\204>\216\257G\276v\240\270\275\223\021*>\232\2679>d\005\213\275(ej=FL\355> \362\252\276\250\304\302>\231\323 ?\017U\374\276\332r,>\307\026\024?\003\213%?\003\226,>\317\323\221>=\200C\276$-\275\275\230~\202\2748Q\243=\330\254\273\275\375\037\370>V\035V>\004\317\013>\263\217\201\276\376|\275>&\237\027?\252\312C\276\301\261G>\021\263\205>*V\025\277`\302\341\276\200_\037\274\350\0176\276FEZ\276PKI\274\363@K>\032\226\316>\356\251\013?\265n\204>P\340\377\276Lr\312\275wj\256>\250\262-\276\252\030~\276\266\242\275\275\262\250\202>\2651\320>\244\343\200\276Y\363c>\220Z\247=\204\235F\276\\\373\037>h\343:>\t\312\'\277\205\355\325\276\241\0378>4\217\374>\207_v\276\370\325A>\351\252\342>\330\"\270\276\360\273\313\275\254\242T>\332\201\361\274`\212->\310\352\202>\363\277\200=\n\006\260<.\021\274\275\365\220\300>*\022&>\031,\305>^\207l\276\257Z*\276\261C\215>\2275u\276\322d\227\276\020\017\302\273s\345\253:2\226R\276@13\276\\B\270=\214\1773>x\375\031\275\225\265\177\276\270,\241<\241\241\350\276\320r\315=6\210\033>-\363\\\276~sD>\264\000\233=\355\006\314=\274\004\267\275\220>h>b\355m\276Rp\004\276+\276\302\274\022\203\256>\205\366M>\370\250$>\345\016\226>\264\216\013=\010\310\241>\323\030\030\276(\021Q\275\334q9\275\340\0205\2755~\204<E\346\203=A\212_>$4C\275\n\204!\276\271H\021?&\303\036\276(\0045>wz\257\276S\314!\276\326\002]>p\350\331;\250%U>\020\352\271\275\270\343\017\276\002\204k\275C\220\213>\372\301\360\275\014>\010\275\375f\206\274%\302\203>\366J6>qf\273\275\373{\226=\000\020\257:\026(\014\276IN\210=q\313<>\321\257\335=\35653>\364C\363; \370\306\2768d+<;\035\211\276P\360\365=L\017A>D}9\275\022c\016\276\257\204\211\276\207^\302\275+\2005\2760\221\311=\000F\204\274\251\203n\276\254\342\355=0\266I=q\320p\276@N\230=\325\247\231\276\230\373\223=\234\022`>\231W\026\277\002d\366\275\344\222\025=\345\374!\276\026\311J>\200$\231:\260Py>\333\262K\276:\035\032>\n\325\256=\277v\323\274E\0361\276\330\020\340\275\364\234k\275\033VM\276\300{\247\276}\374\344\276P\026\301\273\325\r\347=\240\212-=\250\321v>8\250\360\275\262\365\215\275\024p1\275\032\263\205>\212\255@\276\340\2638=\004_\007<rj1>\277\202V\276\3249(\276\226c\017>\334\214\314\275\022Z\004\2762\347C<\221\315\377\274\270Y)\2768\213!>gca\276\307\333\240=\354\260\t\276pz\251:\237\255\230>x\236H\275\311\217\321>Z\374\006\275\020\350\203=\330\225t=Pg\334\275<\241\226>]\035\230> @M\276\250\247?\276DLb\276\376\017 >\277_\361>\213\253q=R\335\n>\240\242;\276\276}\243\275H\245r\276Z\006\014>\310M\362\275\023R*\276\266\241\201>f\332\233\275\235\310\n\276\202\272\031\276\334\014\"\2760\221\342\275\304\204\317\274\330\311A=V\375*>*\267K\274\027\346\2549\277\277C\276^\245\022>\222\027\275>\272\257\013>\202\342\t\276\225\203\236\276|&\276;;\216\023>\364\225o=\3505\000\2764\017\351\275D\212\023>bQ\372\275H\211\225=,\207@\276E\005\006\276\3378)\276\232\353C>\200\330j>\346\377\363=t;V\276N\247\331=\327Z*>\326\221i>\365\304\217=\233s\307\275\367G\203>\033%\001>%W\'\276\265\351\255>\327#\"\276\321o\247<$\010R>\"\252T\274\340\3051>@@v>,\214S>\021*\347=R\232l\274G\270\241\276\'\014\021\276\361\213\004\276W\371\017\276\"\3311=\211\252\222\275\2528r\274\030\'\030=\0364\326=`\307O\276\027\240\214=\200\350\362\274~\025\003>\262\024/\276\004g\235\276\030\366\327=<\374&>\213\230G=J\362\212>\035\215\355<w\022\201>\323\345\304\275?\217\201=B:\235\275(\372[\275\001\301\340=\365G\211\276\3058\312\276l\347\323=j\202h\276\260\020\355\275\375\345\007\276o\"\271\2759\340B\276\266\374\240>\357\237\250>p\242T\275\\~}\274\374\217&>f%[\276\030\010\346=\253\245\320=\272\236\234>\373\332\275>\223\322l\276\320\326P\276|p\240>\272)\'=#tb\276P-\215>!\264\204\276\340\366P=G\331a=\2778\316>\323\230l=U\3223>\344\237-=\262\311\203=\020\364\265\276\265b\365\274\023\304\021\275\237C>>\364l\232>\375\316\002>!`\244>\322\271\240\275<\360T\275L\223\214=\320\367g\275 \205j\274\370y:\275x\300]\276\204\303\310\274\022\300\022\276\301\r\005\276\253\354c\276\335\036\014\276\374\333\210\276tu\026\276\257L\303=\336C\332\276\336\3678\276\275\327\n\276`\224\233>7;\002=\252B\363\275\220\247\017?PH^=P\254>\275\2467\304>\275\021\231=\252\255\324\276/\371\246>\315\237\232>\3426\004>Q\017\377=NQ\231\276+H8>\200\264r\275\371gV\276\016\036s;]\005\310\276\204\023\330=\275x\243\2760\277\013=\352\237\"\276\216c\237\274*\372\367<^t\224\2748\330*\275T\223\r\276\217]\262>+\245\210\276<\216\366\274\334b\237\275\213\220\032\277\324\021\360=-\227(\276\2244\006\276 \034l\275B\251B=\2525}>6\211\311\276x\006\244=\226&\341\274V@\206\276h;y=\353\214X>\374\214\201=\034\026\331;s\031\300\275\240$\377=\003\267\216\275\316\220\003>\023\212S=\037\020?>\243\222j\276E\014s\276ug\202\276\214\271\217\276\350\037\233;\313\222\027\276\356\351\217\276Vn\330\272v\361x>\373:\256\276\353|\203\276&\336R\276{\026\255>\024\314-=\210H\221<\250\210^\275O+\225=\250C\261=\020\025\203>\373%^\276\354\014\310=+\316\200>\205mm\276\264\246L> \347\255=h\177n\276H:{>f\017e<\032y\244\275|f\016>\222\032\177>\260:\033>@~\352\273\360\254\177>\345\226\247>\241\001/\276\352\344\227>\250\274U\275.\214\241\276\014\343U\274@\351\227=\302\315v>|SD>\307\210\307\276\365\322\211>\020\024i\276j\254$>\371\341\245>\302\315%>\335\0320\276Z\265\355>\366D4<\337:\256>:E\333=\024\354\324\276x\214z=E\037\260>\307\372\231\276\370\371;\276\326\311\031\276sh\263>@>\306\275\215@\303\275\357\226\023:i:\220>\177o\026\276b\374V>\354R-\276)S7\276~\372\347\274\265\225I\276|\322\016?\243\\\232\2743ra\276\360\301\233> \004\207:\370\256\301=V\330\201\275\263\034\362\275\301\370e>\320\372[\275?\251\r\276\250S\222=\022\243a\276\242\022\017>\250\376\025\275\000ZE=t#\312={\354\365\274\263\264+\276\000:\240\275\013\200s\276\270j\366\274\233<\216>\236\310Q\276s9\202>\000\206s\273\035\251\232>JS\244\275\213\223T=QY;>\202\277Y>\200\023\250\276\215\214\306<\377\330\245\274\234Ad\274\252\364\301\274\317\252\003\276L(.>\361:\256>\000 8>[\002\227\275LS\005?<\235K\275\252\355\210\276\350<\341\275>\262\305=[xY\276\207\002\217>\340\361\272;\311\014\317\275\024\316\367=\210\'O\276q\355\211>i\n\252\275\244\374\321>G\017O>w\310\223\276\002\200\376\275\262\223\377\275*\246\367\275\274\234\r>x\315<\276\250\004\026\275\252\215z>Z\325\276\275\022=\000<\240*Z>d\032&>\306~\\>J\017\267\275\006\341N\276Oz\215>x\353Y\275\363UR=\216\236\347> \200\232=~\275\320\276\362q\220\2757X\306\276\222A\n\276\312\301\247<\343oZ=\036\202\025\276\326\254\257\275l\242\370;\264TA\276\023\343\021\275\007\005\213\274V|\030>\345\010\204>\202\036\317\275\204\331<\275$Y\343=L\253\371=\025D\334\270\334Y\350\2751\205R>\235\364:>:\322r>\376cZ\276o\217\256\276\033\r\263=\314\335x>7\336\255>`\333\035>\204\003\243=v\332x>\006\336f>\244\316\004>*\224\273\274\036i;>\030p\212\275\365\253 >\372P_=t\372\267=f\346\312\275\014\354\355=%\353d\276]KR\276\366|$\276\375\235\216>\310\330*\276c\351\264\275\377\004^>\213I\210>\351\035\274<\007\335M\276\252&(\276\010\251\343\275*\221B\2750\350\246\276$\242\305<.\361\266\275\3460\345>\304\226\271=(i{>\2748\200<l\007\237>\377\021[>\r\240&>\256\244T\276\336g\303<\316\263%>tU\030\276\342\\\206\276\307b%=\300v\325=\202\357\202\2758@P>\264\240\364\275\257~u>\250\331\245\275[ \267\276\214Uu\276\204\255\224\275!\274\002>|\001}>\246>\n=\025Nw>\211\247c\276\224s\372\275\333\367\334\274\254\027 \276\367\246\'\2761\301\244\276\212i\020>L7\320\275W\244\007\276\016\0261\275\207\271\031\276\337\244\265>\377z\257>\360\241\316;6\r\276\276\321\242\037\276T\276\\\274\245P?\276@Z\r=\312\207\226\276,\234$\2761\362\220\276\366\202\r>\000\323\332\275p\337\336>\324\202s\275H\r\236<\227\257\226\276\352N\241=[\316T>\354\202\363\275!\002V\276\027\336\373\276\n\200\017>D[\010\276y\240\036;X\370\262=\300\246\331=\337\344\205\276N\203\366\275\350\373\023\275@\205F>I\236\022\276\246|a>\222\245\351\274\253\212\347=T`6<QFc>1\210\327\276\000\261\027\276\205:\305=D^\332=o(&\276p\370m\2754\352n>\324u\261=\302v\270\274\2247\346\275@CB\276K/\224=\374\263\021\275O\224\221>\356\350`>r\302\026?\024\232\353\276~\345\005>\240\000\026=\364_\277= g\236=.zY\276\361F\246>x\300\r\2762M\000?\267\315%?XD\232\276\"R\031>\0029+>\372\376\307\276\237\233\201>5q\"?R\\;\276L\366\235=T\013\260\276\030\013\322\275\254\016\212=\030\254;\276|\037\256\276\037\346\000\276\274\027*\276V\031\340>)\377\216>hH\014>\312\344\340>\217\352\260\276\315&6\276\326\371\"?\033bU\276\340\224y\274\325\0233\276\240\036\207\275\327S\007\2760\313\365<a\206\341>\376\303U\276\305\314\"\276Pj8\275\355\235g\276\332\257\276>I#V>m\020d\276\363O\010\276$\371\033\277X5#\276\034\273\360\276\260\321\344=\006\334=\276\"o\314>l\032\033\275vH\336\276N\264\354>X\256\206\275h\306\n?\370I\373\274\200\3359=(\255\312=\t\035\013\277\032J+\276\250\330\n\276X\360\313\274h9?>\241q<\276\253\233\326\276\004\365\332\276)\n\266\276\343>L\276j8\247>\230\344x=%\\<;8\217L<\323^\301:I\365\021\276\206!\340\275\207J\221>j\345\310\275E\226\243\276\034\007\255\275\322\303\233\275\343\231E\276v\274\271\276\274G\020\276p\003C=\\M_>\345\352\224>\020wv=\310P\344\275\331\341\010\276_\254\001\276\206he>\236\231\341\274\352\2569\276\323>\020\277\007[9\276\204=\n\275 \337\207=\021\354I>\3301\033>\344w\222>\3547e\276\220w/=\250\tl\2752:q>\330,\370=RvP>\026\305\206>\034x2>\233\310\260\276\004?\024\277\004jX=f\333\222<\242\345\235\275z\300,>a-\202>u\316o>yL\333<\244\207\307\275\024\301\317\275Cza\276\240\363\316\275\354V\223=\264E\n\274\224I\303=!\355\240>\370\364\022>X\022S\275\271;@>\010~\243\276\362\363\322\275\200\355t;\036\316\316\275\3747\234;\220K<=G\331x\276W\206B=\036\356\232\276`\237\323\275~\365\253\275\273=K\275R6g=\346Ed>\3459]>\\\270,\276\231\305R\276\014Y\340\273\251\302\246\275M\353\241\276|\231\313\275\3718M>t\031\246=h\001r\275\240]A<vz\317\275Yb\200>Nu\234=\347F\337\275Zz\016?^\325\241=\022\257o>\373.U\276&\246g>\344\\\377=\242\306\236>\006\027a\276b\347\204>\223h\030\276\0041\314=\324\023\365=\032\230N>\000\256}>\361\245C\276\000\333i>\263es\276\265\021\213>\334\250\231\276\332U\212\276\210[\212\275`\201\362\275-NK\275\226L3>X\306\356=\257\367\023\273\274\345R>\310\233\237\275V4\205\276\210\236\"\276>\253\320\275\n\231\224>L\n\240\274>\005\377\275o\222\207\276P\177W\276S\354]> ;}<@\351v\276H\014,\276f\021\026>v-\000>S\\\025\277;$p\275\317\341\002\277\002\250{\270Iv\203\276\336\341\211=\235\365\265\275|oa\275P\233\234>\310{\200;@m\222\273\0341\374=\356.\016>\351\370\234>r\021U>\326\006:>l\342!>nD{\276\260\010\230\276\363\272\001\275\264\017\203\275\300\261\241=(Sg\276\350\300\022>\305%\341=\200\016t=$\351\207>\365;\t\275\nrZ\276VL\216\276\212*1\276\274z\354\273\257\231\211>\272\014\001>O)\240\276|#\014\276h\205\010?\026>R>\020\023\370\274\216\361\302\276\no\007>\240\275Q\274F\021\037>\344T\331>=\370\020\276\253\264\221>\307,\267\276(\212y>\200\032\236\274\217=Q\275l\376\205>\317\327\n\276\352\276\231\276\354U\016>R\020Z\276D{\274=\226\326s=\231\225\203>\310\031\341\273B\360\006\277M\021X\276F\265b=&|;\276p\316\221=;nI\276rG0\276A\265\233\274;\374\302\274\222\032^\274\304$\351\274\367V\236\276\214\033\251;1\017\231\276&u\034\276N\306\200\276e\377\243\276\371\030\204>\346\213%\276\327\214\244\276I7\210=j\354\212>\244\001]=\336D\236\275\217\033\266\276\330\243\006>\314\221z>\315\217\243\276\274d\236\273\025\205^\276\333x\272=`V\377\275\006\271w=\343M*\275\320\377\024\275\215\252r\276b:\261>\370lS>W3\232=H\207\000=\\\305\354\273\320\370\301\276g\372\245\276\316\271\202\276\3440\217>g(\254\276H\306R\275!\302)\275[y?\276 \310\361=L\032\345\275\345\004->\234\336\265;@\245\323<\222\343\220\275\211\006\226\275=\352\220\276\246\251\036\276\252+S>8L\007>|\365\261\275\000\220_\274R\272\177>6\373b>\000\363\267\272\310\331)=$\014i>8\362\230\275|\223\236\275\220S\356\275\000`$\274\370\005\256=\327F\204>\\Dk\27608R\276\010\013\004>\252\253H>\256\261Y\276\000z\254:S\301\202>*\367u>b\365%\276\000\245\332\273\300XE\275\330}+\275\310o2=8\211\372=R\231\006\276\364B]\276\000\006\326\2730\270\312=\274\032\034>\010\204\203\275\322\023<>\363N\037\276\334E\247\275\310\350\215=>\213?\276\326\313\332\275:\335\210\27528U>Fs\013\276\034\377\030>N\345\243\275>\244\326\275\024\340\206=\314W\231\275\030\001+>\342>\354\275\244\356\314\275\001\204]\276kl*\276@e\204=\230+\236\274\226\270\213\275X\3716\276\264\035\265=L\347\035\276\206uY>\346U\033>\234i\216=$\003\235\275\347iy>\006\363\205\275\210\261\030\274>-o>R\032\354>\210\360\014>\210dM\276H\267G>\224F\252\273>\233\357\275\224U-\274\336>\007>\323\001\242\276Tp\331={LZ=P\326\323\275J\301q<-\364\251>!U\224=\340s\357=\204\336[\276\237\355\246\275\222\2264\272\013\205O\276\342\350\344\274 \351\001<\210\361\361\2743\3308>\364\312\306\276\371\201\244\276k\373\212>\216\265e>0\035\324=\220J\307\276\251\275\345>\014k\350=\252\376\352\275\230Of\276<d@\276\364k\323\275\004\315\344=j9\235\276\354\320E\275:\322\322=\366\344\032\276\274m\307\275\272\205\242\275.\001T>\376.v>\3665\211\276.\361\t>\376\272\206>\363\310N>J\nS>q+\210=\312\233\206\276\316pe\276O\240\261>\236\3678>\240\031\317\274\245\365\262<\270\365c\275-]\241\276\241E\233\276\004\3769>\377\367\203>\347\362(\276\236^\211\274\373\000\236=\215\037\315<\206\307\000\277C\356\007\275\027ft=:,1<\371f\230>\273\317x\276x\235\254>\254&\270=\3425x>\350\317\034\2768%T=\302\220\322\275\270\357\177\275\272 \223>\224<.>f\262\273\276\241\304$\276\314\200.>\312\324\257\275h\273I=~}#>h\016(>\364@\304\276\020\030#>)\216\242\274\206\323\266\275\372\356P> \310\260\276\300\275s\276\334J\002>z\363\216>\032M\251\274\350\304_\275\210\271e>\234^\014>P\274/=\240\373\023\275\272\2042>\2008s=h(\367=0\272z=\335?\201\276\\g\203\273\324o\345\276]\227\025\276\360\210\240=\013dC\276\274\032\'\275\266?8>(n\241=\025\335\217>\254Y\336= \207\220>\250\227\371\275\334\233\245\275R\312T\276\270Fd>t\260?<|\265n\275\2460d>y\215\177\276\340\250B\275>\255\023\274\243\246Z>\224\270\213\276\020?\014>p\2401=\262\347\014>0x\016>\217:\245<\014\177\352\275&};>\nNy>O\221\224>\234A\372=\2362\277\275\216#\356\274}\354\260>\032\361U\276\003\032o\276\240\272\007>\360\036\353=8T\205\275\212(b\276\254\330p<\034\227D>\331\033\320\274-\350\265=IP\304\275r\362B\276\304\n\363\275\350\233*\275\210\242\177\275``1>\271\320$\276.\341\263\275\212\202)=L\213\226\275 \322y>\320^\370\274\324\035\227>\356\314\371\275h\337J=`\327\370=X;m=\250\307o=J\357\022\274\014e\007\277x\257`=\200TS\275\004\t\211\276\300\033\025>\366=\031\274\014\341\030>(\014l=\016\362\366\275\324\'@>\300\000\245\275Z\224\276\275,\005\231\276\210;!=g\364\026=\225\341\304>\3711\325>_\240\250\274\220\236Q\275u1\221=\200\311\247\275\270c3=E^1\276\310\201@=s\314\226=\332!W>\2409\336<\366Z\037=\310\321\200\276\254\245\242>\304\327`=k\207\337\276x\020\331\275\346\032\266\275\035\267v>i_j\276.\360y>\260J\363\274\273\333W\276\r\354s>\037\214\266\276\220\265\264=R\026[\276\300\223\306;,%n=\307\242\224>r8\232>\030\371\263>\357\233\240\276\357\244A>\254\234\t>\216\342D\276\366\355\037<\331\230X>pyi\276\252\262\216=\264}`\276\226\024_=\375\322\215=\003\037\215>\203e\243=^6\240>\320\265$\276^&\216\276\264\351\311\275\201\353\357>\267\306;\276\264\267m=\301\227\357=\372\235\272\2750Ni=p\017\031\275N\034?\276\013\325E>(\030\363\274?\351\021\276n\017r\276\360\344\032\275\337\331\207=\337\211\225\2766E\022\276\332\353\n>\002\263\215\275\370}\270\275,O\222> \256o\275\'dN=0\304\016>\366iL>\006\265G>\274?&\275Rc\204>\250\003\201<\310\307\204>4\226\203>\270\233\323\273\3002!>\263\0247\276X\014\004\275\212\345L\276J\364\202\276\341O\300>X\203G>\256\370\220=\33213>{(C>\000\314\010>\366_\307\276\246\376[>x\273\030>\200\211~=\014-@>\273\001\321\276R\345!>\372\331\326\275\260\033\307\273\274\324/<\234p\263=L\370#\275\207\255g=c\204\020\276\257q\r\2761\213\222\276\302eD>`\002\221\276\243_\223\276\300\250o>\340\255\243\275\221\305\004\277*)\013\276D\202\\<\307<\027>x\221\266\275\332\025w>R\264r>bh\250\275xN\337<p6L\275\366o\213\275S\365\213>|\334\016>\216\241 >\334\256\236>\305\301K\276\022\334\213\2744^d\275\220\237\363=.s\013>\277lG;\201-\027\2770\206\247=\350\035T\275=\331\023\276\200\376Y\276\346\202\235>\324\236\014\276\336\007j=\204]7\2758%\216\276\270\217\032>\360,\300;\0179\037\276(\215\033\276\262\224\210\276\005\007\317\276\361zS>BL\233\276$1\312\275;\316O\276\223=\017\276\270\342\004>@xW\276t!\354=s\001N\276L\251y>\00667>\344\353\034\277\360\3509\274\034\327U<\300\202G\276/IN\276\004a\255=_\240v=l\210m<(\037\203=D\006^\275\332[8>\242\224\204\276$4\321=w\322/\276\372\241\326\275$Hh>\274\366!\277\007X\221>\303>\260=\210\232z\275\200l\222\275\260\222\347\275\014\311\033\276}9\020\276\226\330$\276\330\323\037>H9\374\274\244:|\275\207\030\241\275jr]>\340\034\212>\233\266\255\276\2543\265\274\026W\032>\0323R>\203\216\013\275\366\357\321\274l\330\201\275\260\203u=\236\017\205\276q#\"\273\216\220\217<\3178\212>\'H+=\254y\246\275\377]\231\276\224\224G\275Hf[>\033Id>\036\350\232\275\2642C\275b\'\233\276Q2\301\276T\350 >\271]I=\177\327\274>r\r\255\274\032>K>\356\347~>K\275\201>jo8>\3250O\275\260O]>\034\0012>J=\313\2764\2165>\034\333\025<\357\231\214>b\354t>[\273\000=&\255\r>i\352\265\274\020\374 >\352\365)\276\236%&\276r\301q>\327\256\206\276\231\321\203\276\365\317\311=\013\010k\275\357\263l\276\354%\251\273ua\205\276\326\204\252\274U2\247\2766\302\373\275\316\250\003>\242\235g=F\227y\276dK\327\275\364v/\275\210R7\275\2357\223>|\034:\275"
      }
    }
  }
}
node {
  name: "decoder/dense_10/BiasAdd/ReadVariableOp/resource"
  op: "Const"
  attr {
    key: "dtype"
    value {
      type: DT_FLOAT
    }
  }
  attr {
    key: "value"
    value {
      tensor {
        dtype: DT_FLOAT
        tensor_shape {
          dim {
            size: 64
          }
        }
        tensor_content: "\226\350Y=\2653\"=^\3041=vfw=\000\327#<\233\025\214=\205\247h\275\\\217\276\276\036\030\225\274\226z%=\004\267\321\274*\2007<\266\241V=\032h\263\275\251\206I\276\327-\020;K+\207\275\224\253-\274\r\227\377<\251\036\226=\276&B=?\310\230\275\024y:\276K\007\360=\016\332,\275\366>\350=n\005#=\357K\310=L94<\352\2246\276\005\267\321<\021\000\021>\350\355k<h\022\003\274B\226\314\276\212B\317\275\002?\306<\037\322\000>\026\267Q\272GM\204=N\025\014=[\177\373=x\322^<G\362\322=$\267\321:\367\355\353\272,`\345\274\225C\013\275z\302u\274\006\303u\275\225\224\301\276x\302\365<\216\276\037\275\265 \260\2746\030\025\275sZ\323<jz\245<\037\220\240\274\265d\252<RI\035:\000\000\000\000l\022\203\273\333\276\237\275l\362\260\274"
      }
    }
  }
}
node {
  name: "decoder/dense_11/MatMul/ReadVariableOp/resource"
  op: "Const"
  attr {
    key: "dtype"
    value {
      type: DT_FLOAT
    }
  }
  attr {
    key: "value"
    value {
      tensor {
        dtype: DT_FLOAT
        tensor_shape {
          dim {
            size: 64
          }
          dim {
            size: 128
          }
        }
        tensor_content: "\373;\270\276G\007#=\3009\327\273\025L\227\276\025D\275>$y\225=8\"\016=\016\325\205\276\004\313\035>W=\024>\3418\211\276X\313\205=\001\207\241>\270\345L\275nE\305>%^8\276@.\202\273\200\377x;\370\226\365\276\375\004\261>F\301m\275|\361\365\276\302\"\354=&\364G>\277h\244\275\264&\214\275&\226\312=>\216\336=\367\325\030\276\222\365\237\275Rk\312\276\257\314\022>\034gb\276W\325\346\276\215\232\236\276\370\346\031=\033\r\253>\037\3001\276r\311\257=\374\266\014\277\340\225\244\276<\223\306>Y\337\340>\210b\034\276\030X\325\276\220^L\275~s\350>5\320\251>\232\n\036\274\216\013\230\271JA\236\276\257\366l\276\323h<\276\204\302\365\276\310\351\273\275\226T\n\277\263\235\276\272\315\231\025>C\335\354\275\357m\203\276\340<\014>\342\365\030\275a\2421\275+\226\213=\016N\227>\265\352\234\275o\n\240>\334\t\312\273)\227\217>\322\335\243=y\3469\276\322W#\276\367\n\250\276l\252\352>\\W\"\274:\001.\276W\231\024\275\010J\034\2760\365\002>\2625\220\276\2404\227\274\362Q\355=\202\337\003\276\244\221\017\276\333\317\205\2752\262\020\276\366\277\315=*\331\250=G\2343>8\264\337<\230\036\313\274\203d.\276\220\364\274\274\202\215\375\275U\313\022\276\255\364\214\275\325\216%\276\003\355j\275y\221\030>V(\020\275g\311\036\276!\265\332>~\255\034>DXe\276 \000Y\275\245\362\211>K\202\255>\225_\254\276\344\326\014=i\205\247\276\335?\251>?6\013\276\312e\311=\003\270\023>\377\017)>-C2>\017\336\260\275P\277S<\354\034\323\275\000\013\226<\230W\256\2748\301B\275\200\016\374:w\033 >\t/\017>R\377\233=\371D\007>\370\024\002=\335\243\216\276\242\203.>\267\376.\276\'\327\216\276\036\\\346\276$Oa>\202u\341\276\004k8\276\254\361\037\276\315\360\002\277\277\316\216\276\025-\304\276\367\313.\275f\205<>\3377\r\275\035\251s\276$\210\370\275\376\002\016\277\255\304\347>\226\t:>\346P\243=hIl\2758\216\213=\300\334\031\273\'\241\243\275\037\276\211\275\022\306\214>\372\034\250\276~\252\254>\035\306\242=!\336\r?\035t\035\276w\026|\276\221~\361>\343\300\310\276\222\301$>N\016\261\275`\274\356<{\241\232>I\tp>f<;\276Z\233\305\276\237\034{=E\255\314\276\234\315\t\277\2216\013>\357\305\240>tw\323\275\035A\231>\233\331]>e~\350\276`\026\257;\266}\353\275\245\346\013?g3\014\276\333;\251>\3048m<\3617\220>\206\3164<\220d\205\276\334D\035=\034r{\2762+\321<\260r3>\213^\352\275FL\375\275\037Bo\275\354\210\224\275\334T\360<5J\252\276\004V%>X\273w\276W}\200\276\352SO\276\326\257\321=\223$\305\276\032\373T=\336U\031\275\230\212\333\273\333l\305\275p:\006\276:3\332=\342n\327=G]\020>\200\021\221<\340O\304;>B\252=\007S\001\276\301\232\n>\250\211\027\276\"\214\027\276\364ki=\206\016\265=\211\304\216\275T\317\001\275\216-\r\276\010%\351\274\275]\367=HG\222\276>\240\330\275)\206\003\276nZ\346\276\302\217\010?\030\344\210\276\032\373\224=\027\376*\276\200\361\237;\235\275\207>_\335x\276$\r\250\274Z\n\207=\377\t\342\276\002n\257=\251\016*>(o\272\274\322\224\350\275Z\274\372=\317\244\331\275\323n\033>U\352\035\276XC\303\275\264\366j=\300\254\223;`K\320<F\277\350=\024\256E\275k\013(>\252\204\320=\323\016\376\276\367|\225>\314\330y\276t\207\257>\234\003\004\277\344Q\255\275rX\006\277%\322\3518\362\003^>\020\254L<\324q{\275,{\313\276\032\377\362=.\254\020\276\0237\215<\n\204\307>\322\036\010\277\315\367i\276\207\215\261\276TSw=\202D\372=W\332\261\276\360\003\246\274\220\206\312=\004(\336\275\034G\r>\334\033k=\026)\2419\242\332\225=\255\237\223\275\t\247\306\276\nD\305=z\230Q\274\022\\\016\277\034g\243\2760S\301=~\033\013=d#\373\276\366\365\344=\001i\247>Y.\210<\313*f\276\277\032\031\275\0325\037\276\177\303i\276\214\ni=\252:\335\275\240\325\363\275d\252\264=\214\t?>\"\227\001\277\206\001\205\276\026C\207>\326\003\023\277\324_`\276\376C\266>\337\301o>3#a=\241\347!\276\234L{\276\310\221*=\224Z3=\262d\177<\235q4\276\0142\314=\343\270\343<\237\236\330\274^\212\227\275VP\246=\n\362z>\270\017\245\274I\361\257\276\362%!\276,\352\343\276&\004\035>\370\215\236>P\374Z=V\270\037>\004\032\373\275v\211&<\326\215\356=\306\202\343=\364\334\264\275\030?-\276\230|\306<\217d\262\275=\341\223\275\270\353L=r\006\324=\267\204\007>\362\321\250\275\320\215\260<\020\241\006\274\335C\022>\243H\305\275\256\314#\276\222%\216\276k\017r>\032\223\001\277\367\330a\276\225\245\330\276\355C\366\276\354\0010>\224\014^\276?\247<>hx\200<\252\216\024\276\200T9\275\353:\010\277\311\036&>Ux\204\274\016(\250\276\305k\021\276\255\n\374\275\206\207\326=$Nt=Fr\215=\340\363L<\365_\023\276\362\243\271=\323\271\362\275\350/(\276\202{\330=Pv9<\3763\256=\010\266\005\276ro\300\275\322\340\250=5\353\214\276\374Q%\276f\"\225=\255\'\025\276\371\261\022\277wO\261=4\022\264\276\260\355L=\256f\200\276n\354\033\276/e\212\275\363\204\017\277,-&\275\314\037\205<0g0\276\357C\313\276\374-)=`\273\005\277\t\213\006\277kK\034\276\356(\213>\205\322\020\277\002\025\303\2757L~\275\300\312\204\273\232\335\300=\324a|\275\037\033\206\272\234\225\330=\352\023u\275\213\321\212\276\357-\224\276\226\nV>\3420\000\277\334\367\377\276\341\363\304\275\242x\304\275\220\242\240\276\026\002\346\274\225\300\204>\3249\327\273\366\'\250\276\321AU=\316\364\301\276\027v\351\276Y\371\270\275:\347\266\274\317\264\341=\n \034\276\032+-\276\"n\023\277\236\345\257>\2620\234\274i\300u\276#\177\024>\3318\332\276km\000>\225\253\331\272\337\035t>\317=\327\276\324U\372\273f5\277=\263\227\311\274LM\326\275%\227\002>W\016$>\360\360\237\275P\337\204\275y\365W\273a\367p\276{2_\276\206\354\221\276e\274\'\276\313N\002\277^\265{\274\270et\274|U7\276f {>\030X\346<~P\221=\360\377\205=\004\254\004\275\3004\377;8\334\267\274\264\0353\275^Z*\276j\356\201=\300>\262\275\230`\003\2768\254\300<\346\267\310=\275\216\256\275\303\340\000\276\256\225\323=d\215)=q[\311\275\332\273\243\275\263\003\333\276\247`\n?0\377\366;~\352\224\276\3459\r\277\360\237o>\270\234\371=M.\357\2742\207e\274\'&\224\276a\261\">\241\256\251\276=\332K\276\000\003\256\275%\023\343\276\235\"+>R_\341=\315\210\234\275\240\207\210;\325\271%>\320%\360\274\030\304|=`\0134\276\010\237\310\274X\017\377\275Thx=\'\3451>\340\'\031\276\240\317\330;\240\307&\274\250<\316\275F\324\020\277\304H\275\2758P\333\2769C\366\276^\014\250\276\024O\371=m\205\n\277\242~\206=\310\241m\275\264\213\322\276\305\001\356=\231\241\274\276\320\002\253=y\244.\276\n\023L>\"-\224\276\242^\351\275\255\r\303\276\025\256\224\276JV\256=\375$\010\276\251\231\177\276\376\211r\276|\004~>8k\353\275\222\363\316<\024\343\210>tIE=Z\217\315=\034\231v=u\014\276\276\357i\017\276\265:H=\203\307\221\276\363\311\364\276\031\312\211\274\303\331X>Y\354\271\276\255\302\272<\256\262\331\276Aw+>bP\256\276\307sb\276,\023X\2764\373\272\276B\200\202\276r]\366\275\177\224\r\276]xw>$\351\026\276\031hi\276\2714i\276\231\265 \275i\022\214\276\016\341\276\274\200\314\002\277\340\200\242\275`\311\220<\026\262\356\275\356&\232\276\223z\221>\030\020\023\275H\277v>\326\276\222>\342\004_\276D\000\316=TY>\276@\252\213\276\013\342\271\275\236\323\355\276dI\247\275\272\207\350\276\247\226\250\275\335j\305\276\267\347\255=\231v\324\276;\304\334=\204\357\377=\027\273\314\274\036IG\276\310\006>=\310\023\201=\000\311A\274\240\263\004=\324\317\017=f\333\344\275\2766\205=B\261\345=\232\325\262=n:\331=\372~\237=\326\253\252=:E\231=P\247\365\275>b\376=d\2321\276\366D\343=\226Q\257=\037\216\357\2760m\263\275\200\'\330\276\377~\321\276\217p\270=\316iA\276y\216\344\275\025P\206\276:\003\356=\305P\333\275\010x\224\276\315\231\215>\035\343\001>.p\263\276\000R\201;n\322\240\275\034\377\230\275\342\343\362=@K\205=\330\317\223<\362>\025\276\340\3172\275\260\225\263<\320\210%\275\234\275K\275\240\026+\276\000 |\273\320G\032\276@\350\300\2742\215\306=\024\315\005\2779Q\232\276h\3643=^M\314=(W\327\276\014\231\n>\300K\002?\226\222m=\032J\256\275 2\224\276\316\345\217>m\334\306\276\215\301[\276JC\225=\306\373C\276\224l\002\277\322\255\363=&\334\014\277\225\315\330><tW=\315\366\252>B\013\211=7\263-\276J\245\254\275\236\326\310\275\000\034\005<\'\317O>\267\322\037\275RX\">\363o\315>\"\265\206=\341(\"\276\341\265\345\275\325&\331\275i\350\255\276p{\030\273\001OD\276\356\313\275=b1Q\276\304\347\021\275Gm\275=(\351\211>\305,y\276\310q\224\276n\r\207=\002D\226=k\032\020=\271w\377<z\242\245\276\322A\355=\354\013\n?\016\331\255=\022\245\307>M\003\370>\224\357\322>@]p;tq=\276\035@\232\276b(f\274\313;p\276\240\236\025=@\032\342=\221\360\027>\314\006q=\301\331P>\252\3270>0\326\251\2760\212\245>\263\034\020\276\365\t\254\276\025\0223\276\202>y\276.}\226\275\371v\274\275\024\204\222>\317\237z>\333\316\t=x\220\246<_\350\234<\212\254\226>\344\3101=\356f \276l\0148\275\260\'\000\276\246+\356\275\322v\375=[}->\376\026\242\275&u\251=\000\003\377\274\266|\365=C\306\373\275q\264#>fr\311=\010\017J=$?)\2760\352\031\276\204\255\236=z\025\301=\264\tm>\344K@\275W8\351\276\277r\267>\335\265\250=\014\263\r=:\236\010>\346\032\267=\217\207m>p}\022\277Q@\226>JR\344=r[\255\276\236\247\373=\216a\353=\305f\024\276N\204\347=q\213\201\275J;\331=$c#=P9\023\276\304\245\037\276\274\313o=\320D\367\274pv(<WE >\300\353\224=\200\377\241\273\202\300\227=\221\202\235\276o!\025\276\232Q\311\276g\235\236\276HC\244\276\024D6<\347uA\276\235\226\200=\022}\212\2759\220|\276\217\014\023=Q\rV\276\001\021\253\276\240zi=\004$\230\276\305\265\277\276B\277\217\276\231\203\013\277\r\005\204>\t\241\244\276\211H\254\274a\337\003>\036\267\231=\363\357_\273\240\204\367\275\234\263\363=\237\213>\275\376e\332\274\212\250*>v\372\206>\237\226p>\372a\312\275f\347\365=\032\375\343>\323q\347\276\232\306&\276\016\356-\2747/(> \2575<\350\nQ\275\300Vr=k\256\375\276\001m\211\274\237\222\231\276\343\362\004\277:\310\364=|1.>\204\334e\276\013\r\237\2741\212W\276\372W\n?\226\267\206\275\343\205\005\275\255\251\340>\335v\">\276\224\\\276\212\026\206\276\372\340\037\276\363V \275\365/\204\276\005\203\202>\243:g>i4\325\275KH\345\275\307-\004>\343\271\246\274\206i\224=I\323{>F.!\275\235l\303\276f\373|\276D\374\246\276\306w\311=V@\271\276\321G6\276\370\034R\275\332\257\246\275\036\307\371\274\323\337\312\274\251\230{\276\004\347e\275\215,\014>p\016\244\274.\276\006\276\000\364\022\274\033\267\232\275\000\005m\274`\000\203=\314\220\002\275\243`\367\275\006\245\363=\242}\201=\020\000\206\2740\323Q=8\313\227\274f\210\241=\236<\022\276\344\314\"\276\202h\314\276\272\210\023\274\"*\330=\372\014\353\276\206\033\352>\201\027X\275\323yT>QuR>)\237\241>\320\344\202\276\264<\262>|\204\344<\261\346/>\266n\231\276\356q\302\275n<\251=z\255\231\275\222\314\277=x\313\016\275 y\275<\rR\002>\256\206\305=\230\204#\275X\367 \276X4\247\274}\211\003>\003s\022\276\223\020!>\346\325\036\276\212u\257=8x\357<\370\375\240\274\260:d\275\360\007\002=[\r\026>\272\263~\275\325#\216>\2560\246\276\331L\266\275\240\243$\2745Il>\3204p<\223\212|\276\317<\377>\365rs\276d@\005\276\026\326\036\2761\036\333\276\236n\332= \253u\274|c\356\276\3737\211\275\355\366\021\2765\216\">\251-^\276\013jj\276jv\214=%\336\223\276\324O\004?s\330f>HW(\275g\307\312\275\232+\037\276\231} \276\317h\023>5X\255>\037\373\310>\300;\362\274$\033Z=8O\341\274\314\n\320\275Z\263\247>Ld\217\276<\034\365\275<\237E\275\302\236(\276_\305\301\276rC\013\277/\022\267\276\265\326~\276l\272\031\275@\177\336\273\036A\351=\200\341d<\320\265\207>\240[;=\2420\212\276\357\nb\276\024$\375>CN\303\276\317\001\210>\251\217\313>\334\277\007=\035Z\035>M\t\263>\023\225\202>\357\303p\276\207\022\225>\002,\200>U\032\235\275\234\270\342>\320f\261\274G\300\202>\326\220\267>L4`=4%\000\275\320Ea=P\363,<\2700\227<\313g\242>Ak)>9\033\034\276\210~w\275\370\270\375\275\260t\025<\257P)>\344A-=\301\331\026>\355/\251\275\210\220\375\275\2241\'\275\352\332\312\275\312\033\321=\362\344\353=\031\344\345\275\312\030\333=\0349\005\276&\223\233=\274\025\341\275~\227\010\276J\2040\276\002\311\006\277\271\274\372\276\274\300M=\201F\225>\017f\345>@\005\027<\270\225\310>\273\343\302\275;^M\276\257\210\025>\0103\327\274\334\260\n\276\003\024\376\275\340\331\357\274\226\032\301\275(u\213\275%\305\224\275\034\205\245\275\2572.\2760I\316\275\023B\001>\317y \276\252 |\275\000_F\275`:\214=\275\226\256\275\360D/<9 \372\276\266\357M<h\265\354\276\357\367x\2766\372\n\277\017\335c\275([\270>\007\252\027>\310y\311=\376\226\205\276\001\250\\>\357\003\004\277\277\202@\275\277\003.\276\322U\356\275\327}\347\276\373I\031>U\341\002\277\274\261f>v\346\331\275\233\2161=\360--\276\020p;<a\2512>g\243\006\276G\331\030>\364K\026\276\211\205P>\236\366\226=\030U\341<+\244\333>\350@\324<\257\202\032=IO\307\276u\225\236\276\036\273)>T\"J=\311]4\276:,\335=4\214\004\277\242\225r=12\022\276\367\033u\275r\363\225\276.8\020\277\213\376\342\275\214B\034=j\354\326\276\343\354e>*\367\212\276\221k~\276Gzs>\364Id=\017dr\276\261&\036>C\337\376\276\230\313\361\274\370\262\213\275\220\210\020>3k\252\276n\263\007>\266!\376=\365BF=\347\277v>\373J\351\275\\d\217=O|<=\311_\226\275\002d\322\275G\212\005\277\236\272\222>V\332h\276^<\264=\303\265\342\275\273\027\207=>s\004=<\001\t\276\264y\335=\036\240\246=\354O$=<1\202\275\202\365\225=\340\311\024\274Z\223\345=\262\001\241\275\305\243\342\275\253\343\033>JPa\275}\313\207\275\000\2748\274\252\253\263=\000\361o:b\251\366=\320?\\\275\376c\364\275\352q\347=`C\200<[\263\365\275ue\300\276w \246=\300-\335\274\243\300\366\276\3351\310\274RE:>V\205\237=\245\3221>\353\2224>\306\313\316=)E\344\276\260\334]\276\272\2538\276\344}d\276\340w\024<\346\232\327=\350e%=0 B<\210\206\367\275\000kY\274c\3101>\000\364M\275\306\226\022\276*\355\245=B\336\212=$\305\372\275c\005\030>8\n\347<\007?\026\276Fc\310=\371\306}\276\2454:\276\227E\206\276\314\237l\276\253&\206\276x\200\005\274\027v\232\276)\017\313<\301\361\311=p\340^<\226\255\322=1T\223\276\371\214C\276>)\003\276\235\217]\276M\200\201>\314\371\337\276\2667\260\276\022\001\342\276\212\240\225=\033\363\032>\212;\333\276]\211\034>_c\304\276\n\030\033\276?\031\206\275\2241\022=G\007$\276fG\246=\244X\245=}\263\020\277\304\303\315\275\330\227+=\250\032\325\276\002\233\242\276\025\375\237=\322r\226>`\301\013?\263\254c>\311\'k>X\361e>\256\036\343\2760\023-\275\022\003\301\276{u\263\276\222L\202\275\261\"\212\275y\0027=\365\243\321\275\350\332^\276\241\"\300\276\234\236B=\035u\035>fl\020\277\217S[>\261\312\331>G\256?\276\354\037\031\275E\210S>\323K\007\277*\302.>\300\3015\275P\352\266\275}\255\215\275\320\2367\275\010x\256\275\023\345\350<`0\020=\3104\257>U\325\230\276\364\266\177\275t\200D=\304Y\221;@\354t\276\2015\331\275\27746=\310\024\260\275w\177\004=\314YW=\1771\227=\020\026\n<\2401\002\274>{\325\275F\242\273=\252Em\275JP\003\276G\306->\216\007\306=\031\024\320\275\300j\001;\007\231\336\275C\264\334\275\200F\303\274 N)<\325\340\307\275\210\\\r=A\010n\276\317\371\213>\237e\002\277aK\204\276x\336\202\274;\235\217>\n;\213\276\033\205\225\275\037Z!\275:\367X<0]E>r\353\357\274\t9\004?\021]u=\311;\204=\203Q\207\276\330\377\203\274PX*\274\000\216\014<\020\377>=\n\373\376=@\261\024\276\252J[\275\346\322\346=\320\205j<\202V\t\276 \032\235;\244\261I=g\262\031>\010|A=[f#>\271\2061\276@\243\350\276\314b\275\276\336=f\276S+\257\276\373\357\311\276\277\024~==z\212\276<\222\253>\216\2748>\324\360r\275\342\331\303\274\t\203\001\277\305\335E>\354\322?\275\263:\002\276NR\330\276\357\n\245\276\376 \360\276\212\037\371\276)\311\013>Ld\324\275_w\273\276\';\336\276\027-1\275\0077[>\353r\023>\246(\320=g(E>\030\032\243\275\325\007)\276O?\244\276\345\333\267\276\017\242\331<\301y\222\276\372d\211\276\337\006h\276\312\352\226>Qc\206\276\303cQ>\236\362\205\276?#\224=\006\251\377\2764D)<\360\241\032\276S\371\242\276{K\021\277\220\2073\276\370\271(=\035\250\230\274\247\016#>x\225\320\276\365\\\231\276y\307\026\276\366h\212\276&\313\017\276\336\302\014\277\262\034\264\274 \221b=\344\303w\275p\033\231\276\205\\a=\004S\034<\343\326\t>\334\332.=\364\254B=B\226\302\2756.\317=\" \342=E\335\276>\306C\214\276\324\215j\273\025\266\343\275\311\013\004>\245\003M\2763\242\226\276\364\215\210;`k\356\275h\377z>\256\r\313=H\276\026\275\313\317\256\275\266A\220=h\301m\275\234\327\022\276\373J\016\276\242%\343\275\200~\252;\034\333\323\275\023|\312\275\254\272-\276\370\220\362\275\272\217\345=\3044\364\275\0047O\275\340\352\357\275\25720>+\241\203\276\323\214\374\275\240\004\016\277\377r\010>\261|\021\277C\335\231\2762\"\231=\340/N>N\245\372=\376\n\"\276\307\362\371=*e\273=\020\254\007\277V\274\312=\027}\270\275\342\375\346\276\224\313)=\202(\237\275\320\305 \276\207I&>\020L\007<\340-\225<\304\336L\275\3360\034\276\030\375\200<\337\0161\276!\371,>\335?\035>n\344\365=\274[3\276\346\256\350=\3006\306;\355xd\276\274q\314\275\352\016]\276[qF\276#\276\013\277$\330<>*/\254\276\0161c\276\001z\030\276N\331\013\277%{\264\274f\204\253\276\275\276;=\341[\313<\262\372g\275\2610\004\277A\251\007\277*\010\231\276\3123\002\277\202\307b\2753@\024=+x4>\374p\213=\334\305\034=\233\226\">\241\357\234=\247\023\335\275\255\016\254<\253\\\377\274\013\242)>q\036\022\277\217\035\357\276\364\252\335\273\026Y\203>\224n\362\276`\202\312=\327\327\t>!\261\004\277\354\2267>\243\364\306\2765\227)>\342\363\330\276\"\367\266\275\313\301\313\276\331\271\223\276\301G\256\276\352j\303=`\334+>\276\343\302\2756m\334=v\017\341\276\027\222\006\277$9\r=gc\014\277d\354\023\275\333\211J\2762.3=\nh\353\275\004aL\276V\303\316\2767\336+>,#g=X\004\311\2755D1\276\330)-\2758\375\340<\213\351\243<d{\313;\034G+=\223\235\224\276k\372\364\275h\"\354\276\215`H>\301\035\243\276\252\2037>\266\347\317\275\001\260=\276\201!\"\276\035\021\325<Y\323\002>\034(\017\275\270z\006\276\036\370z\275\272/\354\275\226\335\301=X\000\337\274\n\204\215=5C\017>\350\'w=\333\326\004>\226\255\345=\3540\230\275\r!\033\276T\207;=\362\002\254=h0\361\275\274\306\226\276\331\213\221=\323\267\341\276(\354H\275\256m\016\277zy\316\276\272\363\347=\206\215\344=K{\037>9\204\345\274\036\221\354=t\002\245\275\321xk\276o\355\032>+\006C\275\266J\330\276n\204\311=)\374\000>`\031^\274\210\007\266\275\350\337p\275*$z\275@\360\216<j\000\n\276\364^\021\276z\263\270\2750\355]\274\250\236\225\274\320r\n\274B\326\201=\342H\237=\007g\033>\270\007\305\276eZ%\276\340\007\375\276:\301\004\277\te\355\276L\271\344\273\206\367\263\276\212eX<\206\273V=\231\345\271\276.>w\2754d\002\277\334\316\033\276o\333\035\276\370\255\311=\242@\206\276*\314\003\277!\274i\276{O\301\276\316\357,=\030\232#\276\377pz\276EF\n\277\264\265\204>\334m\330\275\242\243o\275\":\262=\010Y\213\275\361Z\005>1D_\275\023h\013\277\034\277\337\276\256\257$>\230\366\266\276\353\215t\276\215\370\202>*\016\225=\017\204\006\277*\"\210\275\272\344\214\276<\315`=\213g\311\276\202^\310=\203_\200\276\3332\005\277\377\336\253\276\344\014\345\273\234\213\"=c\'\005\275\213\005\342<\224D\273\2760.\320\276\2427\245=\350\314\307\276g\331X>q\332\335\276@|\362\275\367\272.>6H\341\2723!\313\276d\240\361=\234\251\372\275`2\260<\233\244\342=\t\351\355\275\236_;>\2511\345\274p\006<=\035x\021>\264\212\246\276\361\315\223\272.,\204\276\332\255*\276\2078\305=\274\263\004<G\256\n\275qZ\027>\216xG>\300\"\234=\215n\013\276|\006\025\275\200{\232<\330/\332\275\307+*\2764\204\203=\220u\'<p^[<\324\233\306\275,@\357\275\272v\237=r\333\265\275\264.\376\275\'~\265\275\316/\"\276\017\375,\276@0\227\273A\312\332\276\260`\373\275\253\223\002\277\355:\355\2748$\251\276\326\230\205\276\247\351\277\274\030Z[\275\220\010a<\003\253\037>\020w\255\275\200\345\232\274\027w\325\276#\263\005\276\262\271\302:H\270\222\276\327k.>\004\034\255\275Z\004\255=\025\n\014\276\021\225\003>\331\303\370\275V\260\027\276\253.\004>\330\013\345\274\000\021\021\272\337\340\021>\235%\004>\017Q1>\017f\002\276\270\326\370\275h\207?\275\267\374\201\276\277T\325=\256U]\276\016\331\221\276\277\304\001\277\350e\013\274z\222\334\276\222\360\323\2755\273:\276\240\277\257<\226>\352=+-\306\276C\206\025>\314\366F\275h\205\367\275\377\372\353\276UA0>\250\355\004\277\264\t\237\276\224,j=\272\013\355=\313F\241\275\340\005\254\273\356\234\205<\275\303\272\275\302t\272\2757:u>\242\321k<8\232\346\275Za\336\275^\230\227\276\245\233\207\276\264\301\234\275\354\240x>Z\'\317\2760\037\235\276\2251b\275x\\\352\276\276Wp\275@\265\205\273\240\000\201=\331 \332\276N\255\367=U \006\276\213y\002\277}6/\276\311\005\274<5.\014><\216\314\273\360\255F<\325\301|\276\226o!\276\024\336\313\275\001\225\246\276^\206\035\274\366\245\263\276\034?\023=\016\300\304=\357\373\010>\360N\233\276\223\034\r=\226R\017\276\340\025\r\276G\373\215\275^\037\277<\010#\225=\366\"H\275\200\246\201\275\211\362i>\323E\003\277O\340 \276^\336\006\276L;=<n\256\301\276\376\247\023>\241\366\023>\356\244\371\275&\'\356\275\274\362\276\275l\316E\275~\303\264=2#\267=\357\2540\276\030\t\225<\336\t\341\275\262\246\037\276\037P\245\275\340\362\247;\000\350~\271 \010\017<y`+>\025#\345\275\262S\314=\000\274c\272\261\331,>|~\370\275\326\006\356=\0170[>}a\002\277\222|\350=n.\277\276F\234\016\277\311A\206\275\244\005\302>Hl{\275\374\271v=\334CS\275]\264\226=\302\265\r\277\376\216\202=\227ML\275l\205\352\276\2102\340\275>ss\275PzJ<\216\354\346=\202\323)\276$\313/=j4\360=\270\031+\276\202\031\263=\020\314u=\270\203)\276\301)\351\275b\030\205=\263\017\232\275{\346\'>\364\341\017\276\273PV\276\032\2743\276\231_\351\276\033x\n\277\271Vq\276\304\231\246<\026v\247\276\212\322~>X\262\031>\341\223\231\276\361\370\027\275l\361\317\276\310\313G>\rt\276=\206)\277\275ARl\276\245\252\324\276A\307\256\2765u\216\276\010I\354\275\374\260\005\275\354G\006\277\372\321\252=:U\233\276\317`/=y~\241=\3572\001\276\376\335\270=\337\353\000\276\335\262^\276\347\352\276\276\006c\222=\347\227\232\275\257\232\277\276\330>\212\276Dr3>\343\035\371>\351\227\276\276,3\371;\221\220\334>q\017\210=\024\240\300\276\325U5>q\336\337\276:$\200\276\236|\270\276t\335\226\276\253_#>\307\353\214\276\242\335\226=\272}\207>\035\351\r\277\3608\017\276\304\324\232\276\024TJ=\233\236\231>\327\0315>\300\303r\275CVY>\211_Z\276(x\305=\254\327\024<\010:\216=\236\222\033>\004\2736\275\272D\340\275\205\262\206\276QX_\2765\345T>\271}\247\276\000\032%>\260n\243\276s\310a;#s\377\275P\340\303<R|\236\275V\356g\276\244X\272\276\030x5\275d\224}>\002D\352=\210\2515=\330Y\215<\302\215\226=\336\021\320=\256:(\276w\032\">\234\234\325\275\250U\256\274`s\333\274\3210.\276\345\260-\276\242@\255=\316\244\232=\361\025\004>\322\246\211=m\314\n\276\273\300\300\275\335\270w\276\357(\220<\255\225\254\276M\314P\276\337b\262\274\233pr\276x\241\226\276\374\246Z\276\353w\337\275\026\265\330\275a\\\352\276\345\363\250>\250n;\276b\307\227\276\242?\372=\215\0103>\360<)\274dC\266\275T;`=\020Bd=Y\336\232\275\2723\030\276\306@\201=Pb\n\276\003\025\003>P\010\033\274^\020\210\275\233A\000>\360\017\027\275\370s\035\276\347\217\305\276h6C>nj\203\276\214\244\255\276\335\312\331\276\3636\037=\030\007\256\276\374*\004<\324\355\177>\n\036\222=\025\314\314\2744r\020\277LH_=\002\363\360=>\r\375=\344\216\267>\224\006\301\276\206\233\234\276|\276d>0\301I\276\356\242\021\276\353\221\315\276\322I\022\277\367\2460\276B\341\364=+Tl\276\033\345\036>T\310\005=?g*>:\245\240=\317r\274\276\245o\013\277\354\344(<_fm\276R\022\264\276\274^4>H\"\030\276\030@\234\276uX->y\367\005\277/\356\001\276\307\263X\276\366\2120\274\n\000\226\276*\246\241\276\370\331\002\276\257<\024>*\310\201=,\237\000>\342I\216=y\005\n\277Q[\254>@5e\275\357c\013\277H\324C\276\355\313\366\276\001C\023\276\332\344\210=\362G\217=C\310\324\276\002y&<\021\013J>\205\310A\275\256\nF\276\250\316\021\274\"\023\331=\222\211\013=\307\251g>\3244\375\274P\370q\276\002\014\225>\273\'\240\275\212Y\351=\316\307\243\276\226\253\367=\365\244\022>\365Q\230\274\2720\231\274\363h\201<,\250\351\275\350\244\365\275\273\236\001>\000A7\273\314\226R=\010q\r\275\254\320/\276\330%X=\315f\237\275\337\304+>\265\2643\276\325\025\023\276\350\027\013\275\244Y\204\275~\242\204\275\030\224\364< \265\177\274+w\251\276\226\232\300\274iX\325\276\311\3764>b\030\362\276\307\033\254\276\024\001\"\274#\274\004>+\227[>J\177\312\274\030\367w\275\274o\325\275\254\026\022\277\266.\344=0o\344\274mL\260\276\n\221\272\275\216\203\256=\036\210\003\276Pkb=d\372\"=\266}\261=`\037\314<\216_\374=\310?0=\320K\263\274\000\224&<\224\353\017=\242\007\376=D\247\022=\3004Y<\331~\t>\177~y\276\232\312+\276\032HV\276\201\232\225>X\237\367\276\"N\025\270%Z\001?Zv\347=\241\240\310\275\030k#=\221\370\013\276K9\007\277\346\352\207\276\027\353\343<\377@5\2759Ca\276\205\337\005\277\325s\007\277\333E\003>\241\202\274\274\310_h>0\250\350\276%\204\267\276\237\315\003\276\013\2206\276kw\316\274$\331\217=8\025\325\276\002\376\334\275\366\246u\274SH\224\276\267\226\n>z\025[;\rJ\224\276\252\267b>\252*\317=\210\205\240>\377\003\r\277\316\306\242=\255c\001?\016\212*\275\341(\310\276\221|\240>%\2031>##~\276\360\276!<&*\'>_\227\007\276\340g\021\276\303O\210>\246\371\020\277\200\264\000<K>\242>\371\270\022\277?\257\241>\352\200\266>\223\262\024>\001:\220>t\257r\275\307K\256\276=\224\307\275\372\037\002\276\310\262\235={~\362>(\014\257;\270\206\177=A:\000\276W\336\222\275\374\377N>\362D\233\276\2076>>&\025\371=\226n\270\275J\214\177>z\364n>\010I\305\274\233\344\263\275\020\363\356;\264[\350=G\031:\276\200\266\023\276\330^\273<\256\031\325=\302\202\325=\350T\214<\374\010\021\275lq\034=\230\213f\275\204\'5=\365-\016>\340Q\024\276fC\006\276\200\317z;<\3507\275\017\3400\276\313o\010>\016Y\212\276sqa\276\353\351->\036\254\021\276\227\353\273\275}\224\220>\311e\215=\335\376p;\227-N>-]\177>\334\340U\275\2509\233\274JX\264\276\020F0>\236\211|<P\330\244\274\340\274a\275\034\276\226\275\\\'Y=\0023\247\275\007\363,>\357i*>\302\027\227=$\251P\275\000\232\036\273\006X\200=F\r\257=z\030\245=P3\t\275`\345\001\275\250j1=\266>\350=\035l\263\276\374F\265=\237D\346\276=\337\304\276;C\307\276\235E\021>r\002\014\277\0368\306=\351\037\212=\021<\376\276\252\025\226<-\371\331\276j\251\266\274\230T\253>\035L\'>\t\203\237>T\314\310\276~\203\325\276\025\005u\276x\3654\275\230L\337\275\313\270\317\276\336\367\022\277#\225\345=\016\201\230\275_\271\307<\322\223W\2765\305w>\032\334\361<~\322\260=\024)\216\276Ms\367\276b\177\365=){\247\276\2351\265\276\332p\026>3\357\211>\002\003\337\276\216\207\034\274\n\200\312\276\002\216\353=R\371\313\276\222}5\272\353d\304\276B\211\232\276y\272\275\276\376\375\230=\267X\260\275\205\254\223\275c\236\010>i\365r\276\322\203\304\276}\316N>\375\326\245\276/9G;\030!\252\276\235j\224=\275\242w>7;.\275\302\233\355\276\226\177`\275\224\302f=\240\tW>o\336\177>h)\216;f\022>\275\310\224\207\273\004\340\010\276\273\245*\275]\336\013\277O\177;>\032\254\317\276\320\366\005\276\t+\014\276\005r\246<\327q\020>\003X;=\314\257\377=\\k\224\275\232\006\006=5b\013>zy\t\276\273z\033>\376\335\322=\274\324L\275\370\321\017\276\014O0\276Q\226\027>\202\036\372=\010n\354<s\312\'>D\0235=\240\370\263;\210\370\032\275\346i\305=:*\230\275\225\313\310\276\254\345V=\343\303\313\276~\247=\275\221\327\221\276c\364v\276\304TF=\234m>\276P\352\302\275Y1\335\274\023\036\000=\314\014Q\275\217\027\372\276\350\326\214=\206\307\r\273\221\217\305\276\230\"\022\275\3401@\274\370\313\355\274K\002\t>\317\324\010>\251\017\023>@\034\337;\220\327\331<\014\306X=$\363\357\275(\0339\275\226\307\301=A\037\023>\210\241 =\334Q\031=\n\344t\275\245\020\006\277\205\001\312=5\034\223\276u\306\006\277hU\375\276\264\344\027>k\027\232>Y\326\226=\004\2678>s(\263\2754<\252>7\346\272\276Z\327\266=\304\302&=l:\351\274\033\023\371\276\360\355==\"sx\276\360\226\017\277\332\351\330\275\201\232C\276\215>\224\276\266\374\211\275\270-\342=\337\207+=E\220\235\275R\267\326=\342\367k\274+\242\017>\244\225\022\274zy\324\276w\252\213\276\302\221\000<\343\014\307\276\006)\360>\033K\220\276Xd\246\275n\203\r\277\361\2628>\3678w>\211\265Y>p\223\320\276\364\003\375\275\344\300\207\276\3141\373>\334r\035=\372\3336\276v\177\317\275\322L\274=\330B\t>b\227\310\276\207\217\017\277\335\334\273\275\251\324\314\276!K9\276\215w\177\276\215\003\313\275\336p\366=\242Y\245=\212\244\242\276\354UO\275\327\353\t>\030\327\361<\332k\235=\271\033=\276>\212\354=\240]\312\275\317vS\276\2517]>\336Z\005\277\206\020\246<\344c\215\275\230yb\272\220\\\243\276\024\370\016>\232U\035\276T\024\310\275\027\223?:1\300C>\350\260\304=\257&\000>Q\355\313\275\0002\373\273K*\036\276\035@\026>\000\346\336:X\360\342<\357\206\007>\320\r\307\274\003\343\236\275\224\330A=\024f\204=P\331\200= \001\030<#\272.\276To\013\275\227J\335\275\256\211b<\260hH<\231\376F>:\376\375\275\271L^\276\211\337z>\272\255D>\226\217\257=\222\311\323=>\3123\275N\013/\276\"m\017\277\354l\344\273\351q3>,\010\221\276\217\373\037>\372\333\307=>\216\322\275\032=\260=\321%\036\276&\005\240=\264\373A\275\343\265\002>=J!>\271q\225\275\350\231V=\337\241\022> Qx=t\005\251\275hw\000=\337d\306\275\020\302\264\275\346dp>op\033\276\3328\272\275`hI\275|5\222=\243\003\004>\034\203\373<Tw\373\275\372e\213\2752^\263\274D\322%=d6\327=\3558\271\274\360\230L=\030\254\353\275\350\301\331<]w\006>p\320\377<\242G\353\274\036W\322<\273\326\031\276\3328\245\275=7f\276uz\214<\364(\026\275\017\267\014\276\200p{\274W\377\025=\"\037\267:\307M\007>B\373\346=\310\2501>Fk\371=H=\'\275pR\210=\200\364W=\0146y=\252\023\300\275\370\223R=\002q\370=\200*\232\272\212\036#<\003\200\332\275d\rd=\\\262\000\276p\226`\276\345\370b\276\014\266\217\273\315\260\033\276\005\210\324\275\3718\031>X\342^\275z\333\307=h<\t>qu#>\230\254\005=D\225w=\214\005\271\275\250\001\340<U\0032>+X\022\276M\323\002\276d;\262\274\254\014\255\275\216\302\364\275+\3518>\270\002\202\274\334\273\344=\0330\004>\254\270C>JX\263=;c:\276\302\221\267=\"\202\335\275&B\246<\234\231m<|\316\317\275`\014\254=\310\tA\275kP2>\031\354.>\303\303\031\276Li\017\275Vq\355=\230x\236\275\221\376\321\275\244\220\220=\020\312\201\275\367\346\315\275;\321\020>\200\013\301\274RY\360=p\027@\275h\336\022\275\276\026\006\276&p\222=\232\310\033\276\036\020\226\275zEY:($\333\274!\250\214\275\356\031B;\312\341 \274\233\377\323\275)\363\027\276\324\340]>\320-\336\275\017\322\202\275PAN>\210\351\273\275\300\327I\273\240\233\303<\275x\017>Y\360\t>t\342Z=\260S\205=/n >)\311\205\275\244,.\276j\313\013\276\276\256\306=W\235\036>\230\371\342\275\033|\024>\333\177.>\330\314\026=\333\213\202\275\352\374\314\276\352\366\252\275\254\362\351\276\211\346\217\276\232;\315\276\350\373\023>3\363\245>w~\220\276\021\026\007\276\020\230n=\003\203M>X-\363\276\256\330]\275\353\2273>\342U\261\272\274\361\001?\345^\251\276\323\013k\276kN\023\277rJ\374=\2347\322=\225\331\365\276e\026\007>*\204e<\217\330\024>?\341\013=\203\331\033>\270\237\r\2760\204\034\275\234\316\024\275\004R\340\276\300\371\211<\242\270%\276V]\277>\257\344\276\276\354\355\261>\356\311\250=\010\224/\275\266}K>\334*\331\276N\210v\275\253A\226\276\014\225\336\275_\274\214\276\364\220\t\2778\206\307<\330ea:\021\'%>\306\242\347<\004\350t=S\211\362>\177\033\001>jF#\276\350\277\327>\006\231\'<\371s\374>yb\r>\002\263\312=\312\222\322=\016\357\372\276\032\3020>6\031\020\276\006\204\332<z\246\231\275\023\021\312=J\322.>Y\\_>\273\254\342=\370\235\312=b\260\234\276\020\276\264>\272\311\341\276\001\357f>?\022\023\275W\216l=\256\267\312\275\254\305\305\273\341\200:\276\377\037\272\275l \035=y)\017>^K\001\276\261\025\351\275\030\341\275\274\004\274\t=\227E2>@\265\220\274\340\377\234\274\355\253\304\275\342\006\336=\354i\005\276O\3573>}\323\245\275\341\215\031\276&\216\311=\240d\360\273\247a\314\276\340\361\214>h0\350\276vc\312\275\3531\000\277\017\005\260\276\320YD\275\007\017\013>\341\224<>\261\372\">\227!A>\326\240&\274\240\225\311\276\027\340\264\271 \313\376\275\004\326\266\276\230y\332\274\000Y\332:@Z\333<v\227\020\276\252.\265=\302\310\233=B\334\230=\341\240\r\276y\222\021\276\364\331D\275\002\373\274\275\016Y\316=\270\016\213=\302\024\266=&\224\315=.\370-\276\240\263\352\273\363\272\035>hTi=\324\\\"\276\240s\332\273\017X\275\275\320\350h\274\n\320\276\275h\333\321\274\262\224\275=\034\025\271\273\265;\312\275:\210q=\275\267G>\237\010\031\276\327L\024\2762`k\275l_P=\263a\205\275u(\304\275J\225\332=\014\017k=c\274\242\275xq\323\274\010&\357;A\204\311\274/\262i>5N3>\311#\263\275\370Q\023\276e<\031>;v1>\315\212\036>\360pC\275\330\233[=\334\032\017\276R\311\334=t\210I\275\313\336\341\275i\270\335\275\020G=\2750\262a=zu\r\276~\224\354=$\245\367\275\332\340\330=;\210\001= \354d\276\300Bn<1f\010\276\314\206\326\275\230\201\201<~T\354=\362|\237=\323\177N=\274\362\265\275\202\215\214=\374\340a\275,)\256=2\357\245=.\311\335=\261\034\024>#\221\022=\226\\\206=\230\223\363<\352\035\307=\335\240\003\276/\335\033\276\356\201\241=7t\t>\211\266\273\275\350\022\'\275\372\264\227=\360f\211\274c\244\014>g\335\002>4#\250\275I\267\345\275\\\255+\276x*\026\276\376\302\227=\201\225\214\275\320\256\375<\216\355\314\275\307\022\t>\300\257\r\274\252Y\340\275]+\014>Pj\371\274\274\037E\275\3654\366\2750\000\261<\273\306*>\227\333\013>\340\353\363;L3n=8\266\211\274\362\340n\275`\"&<\036\031\303={\005\244\275\341\201\033>\354\317\340=\261\330v>\235\302\006>\276\276(\276H^\323< t\212=\002\325\245=@\362\013;\001\273\037>\016+\262=\340\340\034=\204\321\225\275\223\3731>`\313\211;\276\347\t\276\266\010\332=\316\271e\275\001\260\027>\260\354<\274\212\210*\276ph\303<_\354\032>\266\022\241=\377&\235\275\262\360r\275\260C\017=\340\346\311\275\202\267\234=w\264\034\276\242\026\010\276\r\261\321\275\250\330\014\276@\215\302\274\225\317#>\222r\245\275D\005\247\275\340@H>\267}(>@kY\276`\330o<&\351\212=\356S\312=\355\302\020\276M~\241\275\223\002\362\275\036\031X\275E\275\350=\360\344&\276\265\233\004>\320\262\320=\306\211\t\276\000\260\327\271\250L,\275\311\3414>:\005\317=\230\361\370<\316\031\022\2760\tH<\317\335z=\242\262\336=\036\177\324=\221\032\247\275\010\373\370\274\376\002\304\275\314p\215=\334\327\221=\357P,=p\350\026\274\3605\263\276\000\024\317\272\024?u=\001\240\027>[vv\275\353\376`>\216r\227=\212p\255=\332\335\341=(\037\344<\353U`>v\2012\276+e\211>\376\376.\276j\035\362=h\212\225<\334l\t\275\377\200\355\275\3751\216\275rp\316=3;\000>\322O#\276[\235\206\275\216\316\210=\3102\260<\257\032\366\275\341}\\\276\324\275\002\276RU\301=Z9\253=,X\374\275\204\001\036=-~\245>X\253\355\274=\212F>V\345\275=}\356q>@\262\217<\232\344\005\276`\377[\275\216\375\341=\274\302\036=&t\364=(\267\373<\360B7=\262\315\221=\346\274\331=v%s\275\3027\246= \216\304\273\366]\264\275P\371l<\270\230\334\274\226-\241=\353\014\351\275c\0324\276\005~\023>\013\035\002\275\273y%>\010\267\311\274C3\327\275P\235\002\275\223Nh\275+$`\276e\311.>\205\222\326\275\200\206\\<\307\266#>u\272\221=Fn\374=\214\260Y=\212\231\330=\233\"\227\275^a\335=ja\334=\000v%\274\036[\260=\266\233\000\276V\002\372=\212>\337=\220\325T\274\213\257\027><\340\235\275k\241\036>\016K\321=T\236^\275\361\224\r\277\2515\241\276\373u\004\277F\337\253\2764_\264\276+P\306<i\263\214>\323d\226=I}>>\353\262-\276\245[\317\275=\231b\276N-\363<P\325\214\275&\370X>\025%\345>\262R\213\276=\\\016\277@\360l;ho\222<<\220\037\275\276\037\301\276\017\247\355\276\254C>>~6\302\275\262|\320<\351\240\342=\264\220R=\r\307\246\274C4\200>\324\207\233\276\037\321\315\276\306-\205\275\025Y\244\276\263\303\204\276r\367\375\27525\331\275a\350\013\2771m\371<\352\270\224>\207\251\240\275\003\372\007\276r\350B\276\344\246>\2759\272\354\276J\036\266=\246\202\305\275\037\201\221\276\020\006H\276\010\270\000>k\352\367\276\324\370\005\277X\221\300\273\016\347\351\276\223\007\223>\331y\002\277\372{\201>\335\365Y>y\350\357\275\303\235\360\276\364\343\216;\207\311}\275t\"\275\273\224\032\330\275ZV+\275\027\220>\272\007\351\212=\303\243\244\275\361\0361>[\376\303\276LT\007\276\337\355+\276fwO\276/\021\215\276\030\306\037\275\"{\324=\330v\360\275\3753\342\274\365\215;\276V\346r\274\264c%\275\326\2174\276\025t\363\275\004V\035\276\352\260\232=4\227\020\276\323\236\025>^p\300=v\035\316=L\2037\275\216\345\030\276i\3241>x\205\t=/>\027>us/>\014\352\033\276a:\255\276W\220\353\275\374l*\276TN\232=\246W\036\276y\017\357\276\370/\214>\355\232\221=\265\265\210>\013N\016>\226@\014>\227\t\032\276t4\323\276\241]O\276Z\r<\275\036\320\325=\214Az=0\343a=@$H\274\363\034\227\275\340<\350\2752P\312=\240\215[\274\033\245\013>\324\307\007=\240\371b<\320\257\356\275/\343\000>Z\276j\275)\250\000>\013\2710>\007\333\002\276\202m\016\277\346\316\'<\'N\357\276\300\t\320\276\331\306f\276\215\223@>}\264\261\276\342\n\216\276\333\023\366\274\217\343\003\277\242\321\254<?\346Y\276\267\343\202=\227\2239>Z,\232=\314\315\365\276R\300\227\276\016\316\201\276\211\273|\276\006\370\223\275\323\241\035>k\245\020\277\332\323\322\276\033\207y\276}\3273>\200\212~=\003-5\276\262~\251=\216\301\005<2\331C\276`<\220\276B\352\010\277\020\310\237\275\272D\020\277\224\226\326\276\306\320\r\276\246@\246<\274\213\302\276\275\364\253\276L\256\r\277\320\252\203\275-\257\261\276\362\330\365=\260)\211=\365@\017\277}o\005\277V2+>\213\222\252>\322X\200=\311\365\253=\300g\273\276\022\025\005\277\0319\201\275L\023\301\2762\260N\274\005\273~\276\264I\330;\300\006\253=\213\221!\276*\272\332\276@\235\250\275\r\222\006\276\210ZO\275\3445\376\275\223\347!=3\217\032>\233\253\225=\364-\317\275G*\025\276\2433\000\277\025$\241\275%\215\302\276\334\322\"\276}\277\033\276\346\237L\275\034\310\'\276Z\321\004=\305o\t\276\211\004\215=bR\220=\354U\001\276\000\323\253\274\314\247\330\275<c\224=\256S\306\275\215\332\013>`\006\216\274\233\0032>\332\301\035\276.\361\350=\247\270\r>\217\014\007>\206\t\276=i\240\300\275\016\0353\276%\2033\276Md\377\276o\264\246=\231o\322\276=\273\016>b\344q\276\360\\\227\276\\\235\307=`Y==c\016\030>Z\274\206=\342_\203>\250n3=.I\231\276\322\037\365=\364\214\355\27362\365\276\350d\204=T\276x= R\262\273\000T\312<\300\227\266\274r8\227=\250j\231<\300d;<\266\202\016\276\337\341\313\275\240\314,\274Uz\006>\244o!\276k\222\">l\204e\275 (\221\274\220\352\000\277o\351\237\276\372\265\014\276\365B\217\276?\231\016\277\002{/>\3516\353\276@\363\020\276\325\301\227\275\254\356\022=Fo\031\274EK\327>\022\257\335<X\247\000\276\026\304\302=2N\204\276\000\367\312\275\343-\273>@E\234\2762\350\232=bU\251\274\204\252\243\276c<\227\276*z\022\276\254A\214<@\225\210=\220D\026=B\246\034\276\372D\304=\016,\215=\255\371\327\276DRd\276\364\253\202=\256?\233\276-\263\351>\242\225;<\231\312\214\276i\255y\276|G\r\276\202\254s>)\335\211<)\256\256\276\321R\360=\252\322\346\276\372\267\307\276\346\201\355=\'\355\010\275I\257-=\024\302\0169\352G\013>I\304\224\276\210\335\372\276\004\231\370<\222\\\007\277\363\216\352\274M\335B\276@}\n\276F\265\226\275Dr\265<j\001m\276z}&\276\272\014\261=q\270\007>v\235\374\275u\366\334\275p\350\014\275\336]\332<\207yJ\276\315\230`>\212\344\307\276\234\213\177\275\200\356T<@\207\267\275\360\237\232\276\242%\">\200\233T\276\230\343D\275\214\253h\275P\037\311\274<y\r\275\025\271\276\275\323\003!>\202p\263=p\237=<l\'M\275\240\204\220<!\367\307\275\200\235\373\2730T\312\274\017\016\237\275\251\256\020\276D\006\000\275z\233\245=\207\311\271\275\025r\024>|\234\"\275\332\302\252\2760ac\275\357\000)\276\220tF>\013\313\243\276e\326\375\276h\014`\275\007\206C=$\334\362\275r\216\002\276F2\330=\030:\016=\217V\r\277P\201^=\006e\377\275m\345\345\275[\330\322\275!x\236\275a\224\344\275\367T0>\207\213,>\333 \020>\353\273\020>\300\262D\275\r\t4>\350$\235<\363\010\t>L\275\215=\200\201a\273\312\360\034\276\035\t\000>\240nH=S\267\224\2768\243\312>\372\027\305\276\333\\\005?\304\244\022\277\317\262\256\275\353\036\346\276Q\007B=\310\336\254=\202I\252=\302\033\020>j.\006\277\260w\000\276\312\236\345\275\245\315$\276^f\014\277\003@\317\275\304\242\210\276S\340\222\276\275\312\007\276\035\206S>|\373\r\277B?\315\276\223\003\t>.%\311\275\360\331w\2758\214%\274\362:\266=GZU=\331\2572>\013\037\000\277 \305\364\276\"\224O=\212k\302\276\006d\333\276\202\267\355=\253\200\225\276\016\342\304\276p\225{=\273\237\307>j3\312=\361.\313\276\327gm>\274\206s\275\014 \241\276\253e\036>qt\243\275\355*B=\256\241\000>\014V\270\275\017\330\355\276\304\376\262>\244\255P=\341\342\236\276\366\357\271\274/\211\343\276b\267\365=*% \275\252\341\026\276c\001\237\276*\253\337\275\314\345\214=\326#\261=t\240\274\275Q|U\276u\333U\276\020\371\031>R\035\260\275(=\032;W\264\252\276\374\342 =OO\250\275\032\3140<\0100\214\276\274\313\256\275\032N\317\275\350\213\273=\340\270,>Z\016u\275\362o\207<\320\367N\275\\\306\016\276.L\352=>!\351=p\205\"<\246r\300=\255\332*>u\2573>8zS\275\274\002\361\275\021\2200>l6>\275\241\342\223\275\324\2756=\200~e<#\334\002>(\365\272\276\203\331b>\005q\351\276h\375\256\275\345*\t\277\345,\227>4\306d=\234Wf\275B\314\213\274\304m_=\004\2665\275\004\201i\273\255\321m\276\311W.>XpF\275`IE\276\211\020\007>\335\301\004>\217\225\010>\020\364\n<\320\026T\274\206\t\017\276\006a\266=\326L\271=/\232\021>b\205\300=$\001D=h[\244</B\002\276\215\365\236\275<\340-=\0100\262\275\254\262\344\276\260\223F=\227\010\266\276\366\246\272\2767=\256\276g\\\364\274Q\237\006\277\306U\367=&\366\363\275\017\372\307\276%\214\341\275}\010\231\276\202\245\267=M\250!>\314`\240<\374)\003\277\352\307\363\276\202\307\t\277\322\376\022\277\334B =8\300?\275\026\321\251\276\304\n\266\276\022C\375\275\314{D\275\217\035\213\275\3741\020\275\300\352\330<\272\370#\274\014\354\200=\017H\376\276W\032\273\276j\326\343\275\204\033\233\276\273\243\t\277\364\353\004\276\326\007\361=\200p\310\276\n\247\273=fl\210\276fn\017\276Y3\007\277P\245z<H#\370\276e\206\003\2777G\310\276\244{\010>t\033\305\275\367\210\204<B\222\335\275u\003\230\276\206\310\t\277\320\274\004\275t\342\r\277T\030\206<#\033v\276\240F\311\273r\327\313=\354kC\275L\232\000\277\nn\256\275\035\231\222\275b`\273=Ss_>\226\256\307=qY\014>D\327\320\272\357c\037>\006|\233=A9\341\276\326\034U<^T\010\277|\\\203\275\312\263\001\277\221\022\025\2760\273\276\275d\326G=\236\254\234=}_O>9\207\006>,\013\355\275+\335\r>\024\236\003\275\000@\022\272\275\036\r>\260\300\\=\220t\037=\366Z\032\276\200\\r\273\236\242V\275\2423\327=\215\255\316\275\330Z\210<\034\331\002= @\033=\000\363\212\274|M\330\276\322 \202\275df\006\277D\036\003\276\016\326\312\276y\027s\276\274L\177\275\375\243\366=\312@\271=t\354,\276\030\205O=)\340\025>.\221\361\276X\370,<\306\356\326=\210\350\316\276\300P\310\273\260\003C\275\251\242\016>\240\365G\275pe\360\274\210\272*=f\375\211\275\200\363\024;\243E\236\275\320cI=\2068\202=\206`\270=\300hZ=VC\'\276\274O\023=\254L\r\275\333\321z\276\202X\006>\005\250\005\277\200\212\374\276\025\016\341\276\304\344\372=3fu\276,)J<8\337\027\275H\220\322\276\035\353\007>\211\277\223\276\232\006\261=|\260\215<\357\362\005=[F\264\276\276\261\361\276P\305\216\2761\017\362\276i\325\221=\347\314\001>\311\364\003\277L\017\355\276\224\311\027>\330\257\371\274\266{T\274\230\031j\276(r\317=\346X\316\275D\230\345\273\177\375\317\276\254\277\305\276\254v\313;3\010\254\276\031h\271\276j\301\336\275\321\024V>\336\371\210\276\344LC=X_\022\277\214h\204;\3775e\276Re\250=\301\362\271\276\005\342\375\276\371\361\004\277*n\303\274\362N\301=\341w\304\274V\207\330=\002e\206\276m\211\362\276\354\250\275\275\305\027\340\276\334\313E\275p\022\000\277\273\347\220=\337\301\021>\022\035\016\276\225E\251\276\272\327\220\275\330\204\275\275\020Q\324\275\346\311\256<\312]7\275\216\335{\275\257\216\340\274-\336\027>]\312\364\275\326\344\353\276{\3556\276.n\301\276;\"\037\276oI\364\276\3341$\275.>\326=\330\204\253\275\206\014R\275\306\246\251\274/@\345\275\345?\006>\245\204\005>\264\3477=@\032\375\275k7\025>\314\"\204=\3462\205=\345|&\276*\351\020\276\247\315\'>e\304\013>+-\000\276\000\233\256:\236d\322=\352\344\"\276\240\232\"\276T\245\005\277d\324=\276\t\221\002\277\021\202E>\271F\360\2765 \366\276r\266\201=ks(=\322\266\311=|\335\032\276sU >\030\366\013\276\350\346\254\276y\346@>\024\177\251\273\201\356\327\2760\321:<\300\263\254<\032\320\035\276\333\024\251\275f#\213=\233\321\210\275\244\237m\275~\217\232=o\271!\276\355\263\031>F[\342=\212\271\346=\343#\010>\324\031&=\326\377\001\276E\217*\276\352\377\'\2766\250\247\275\3630\233\275\014@\t\276h\256\316<\345\024\217>n\321\272=`[\334<\267\356,>6\373\257=\217rM=BV\302=`x\254>\235A\332=\215i#>aN(\276\257\263\037>\276\266\301=\372\r\263=\232\332#\276\363\251\240>\351\321\000>\024\020\003\2750U\305\275\3601\325<,\0300\275w\215&\276\233\265\267\275\343T\021>\370\261\215<s\333\322\275\014\333`\275\233z(\276o^\004\276\304\232\224\275C\230\345\275\254F\217;\032N\336=`\321\226>\243@\">\360y\275<3|\221\275h?v\275\202J\262=\270\002`=\030+\323<\001\375\214>{\000v>>\231\311=\222g\262\276\372\342\317=\006\344\354=@@\023\276\321\024\005>\271 \222>\000,\245<\000\023:;\356\310\364=\242\367r\275\200y\324;\034I6\275\307\n\005>\036q\236=\360\241\322<{\210\013=Q\3461>\tj\251\275C\0358\275\'\203\201>\211\255.>\202\032\032<xE\305\274O\314\220>\\j/\275\\[w=WUI>\214\200Q=V+\375=\251`e\276\020\375R\274Je\361\275\360!\331<\304\353*\276\302\330\030\276\3402\320<Z+\251\275\376\227\324=\360\350\244<\t \001>\300\333\235\275v>\277\2758\315\254\274\010*\252<\344m\271\275\214\370~=\366m\353=\234\2379=\370\007\257>`\332Z=!\025\347=d$\t\276\322L\221=4\334\236\276C$A\275\315b\230>X(.>\327\217\353<F\nu\275\024,K\275\3322\005\276\220\000*\275\003\256\026\276`\220\211;\010F?=zE\373=\0300m=.\013\213\275\346\357.\276&\266\212=\2224\240=\030D\225\275\201\000\266\275\243\222\000\276\263;\334\275\260\r{=\317S.>%\n&>9\2323>\303N\002\277CH\256>\207\263\232\276-\200\225\276r\331\237\276uP\021>OZ\324\276\330Q\203\275\366w\024=_4\021\277\252p\234==q\213\276z\316\207>\322\004\212\275\2241*\275\014\210\371>\267)\250\276\232\304\261\276\324\252\t\277\313\260\250\274\254zL=X\313\006\277\320\206K\274s\005\252=\323\2500=\362\356\360=\266\360\300\275\007\243A>\021\253\005:s\005\252\275\023\275\262\276\223\242\311\276x\037\340\275E\232\000\277D\003\362\276p\276\010=\375E\347\275\257H\227>A6\000>p\375\307>\3619y>q\341^\276\313\220\031>#\314\207\276#\245z\276^\233\033\276\243\345\022=\027R\024\275k\324\353=\020\217x\275\346\263\005\277\362\242\001\277\214\2017=\271\261\000\277\316\200\231<\331\370j\276\2346\001\275\213\2614>\246\204\212=\354\021\222\276\200\266\337<\177^\215\276\316\321)<\272\265\302=F\257\003>>\212\304\2755b\342\274\024\305B\275\272\234\035>\261\002\270\276\314\270\347\274\273\304\222\276\247~\327\275\006$\275\276R\337Z\276\213\033\311\275\376\253\264=@v\324=\220\345\352\275\243A\245\276\256\020\350=\200\360\200;\342H\324=>\021\037\2768\262\220\274\212H\272=Z5\263=X\372\232<Q 3>\224\203\200\2751\031\"\276\367\316%>(\320l\275f\313h\275\3203B<\360\366>=\260i\314<\370\260\246\275\202\273p\276\272i\370=\200\322I\274\3639\320>\302 X=\027\327x>\266U\314=\344``\274iz\364=\375\241\032>\332\226\223\276\250\316\257\275\244qk=\336\376\246\276r\347\312\2751:\005>x\340\264\275\313\245\030>\217R\227\275g;/>x?\365\274|8w\275\3202\250\2747\334\022>|\020Z=\276\325\371=l\2071\276~\224\256=\364\013\017=\206&-\276%\255\017\277\344\311\351=z\231\212\276\'\003\221\276\006\216\365\276\374#\n\276\244/\333\276\354\0241>\335Ae=M\230\350\276\343\003\254>.\034\006\277&%\327=\222\370W\276\216\212\360=\334\314\300\276Z\252\244\276p=\225\276\271\262\227\276\265\312/\276\033\253\r\275y\343\003\277\323\305\365\276\332\342\206>:\274\326\275$\325z=vG\246\274Vp\343=\256\270\370\275J\304\356=\227\352\263\276}8\311\276f\256O\275\r\004\021\2774}\272\276\356#:>\241TI=Cw\351\276\243\337\022>\212\316\211\276\331\254\216\276-\334\217\276\316%\330={\207\354\2763\357\003\277F/\004\277\334Jc<\r\334\262=\362\264\254\274\010&\t\276\005\236\306\276Z\314\226\276\303\342\024>x\243\001\277N\227\311\275\254-\013\277\364]\177\275F\355\355=1\035Q>\273\375H\276\247/.>\372\304#\276f\034\305=\357\275\260\275\317\327\201\276\276\025`=\203\242\305\275I\230\314\276\205.\214>\240O\213\276\244\241\240>V\302\303\2764\026I=\033\265\341\275\225\254\035\276}\321\341<\2726\306=.B\210\275\010\355\346=\261uS>\260s\005=P/X\2740\2222\275\200\254\315:\326\025\260\275\216\322\025\276C\245\">%5\r\276\274\3726=.\205\343\275\nq\013\2760\3254\276Q\223\024>\313\321\212\275*\027\246=\203\335\021\276\340\265\227\276\352\364\234>\366H\001\277\037\265\231=\031\260\341\276\022*\307\276\264\3641\276q\350k>\230\314\010\274\323o\304\271\262q\276=B\000\001\2763\"\324\276.O\327=\200\311(<\353\312\351\276\277\365#>(\001\033\275\236t\267\275\2457\216\275\025\240,>zO\323=\004\312W=\013\204*>\257E0>\371q\024>\210\327\252\274\037=\347\275n\003\314=\034\t \275\375s\037> x\206\273\276\376\022\277\351\370\360<\373\314\311\276\3150\232\276\311\t\214\276\317,C\276s$\232\276\017\334c>\212\265\213>\273\331\004\277\232\244\373\275\0006\014\2776\345\226>\314\010Q\275\244\236\240>\3042\304>\262\025\253\276<\247\n\277\227\357\305\276\355u\215\275\260\353\027\272\230\371\014\277\003P\257\276T\307\253>Vv\377=\202=\234\275\375\246f>\336\272\035\275\302\030\370<a\014A\276O\307\324\276I\020\207\276\264\205\024>\231\257\361\276\263\201\377>v\301s\276\326G1<\356\013\306\276\346\014\256\276s1\333\276\207!\201\276\365x\300\276\342\345b\274\000\222\244\276\3670\247\276\304\226\327\276:\207\010>\242\037\320=\027k{\276\335\320Q>6E\344\276\361\241\274\276\334\356U=\366r\317\276\r\022\256=\304D\352\276\255\\I>6\240\311=o\234\010>\211GP\276\233yw>\2537\027>s\177\217=\257\005m>\224qu=\217\304\216\275U\271\002;\240\260\203\276\243c_\276sJ\356\276.\207O\275e\340\304\276\232\004\014\276$\200\216\276\204\233\016>\212\252\347\274\320\'S>.(8\275\263\344=>b\325\220>\264\214{=\024\362Q=\366\237\371=\005\3203>\3317\030>!\350\271\275\270\303Y=\304\326\311\275{\347\256\275\277\177\037>\005\014\022>@&\276;|cB=<s\203\275B8\207=\372\236\363=l\263\t\277}S\316\276f\336\002\277\347\3108>\224a\374\276\254\201\245\276,5Z=s\213\217>\346\"\362\275C\235\301\276\004h\257\276\264\277#\272\3356\226\276r\254\242\274{\237{>\347\224\276\276\204<\366\275\023\024\007>\323] \276z\345\261\275\000\273\355\2753\0260>h!\366<\022\307\217=8\311\014\276\006|\313\275\364\351\242\275\304\256\217=&\374\026\276\343\035\023>a\316\037\276h\336\017\276\344\300\365\276l\236\364<\372\306\277\276\347\034\243\2769\201\362\2764\333\363;7)\343\276\351~j\276%\3361>\343\253z\276\213\356\321<H\037\316\276\327\273?\275>\222c\276\374m\242=Lo\225\276\254*\353\276\3202\006\277\030\242\220\276Pv\333;Y\340A\276\030\306\374\276L\330\376\276\301\356(>\255\330\'>2\316\353\275l$\037\275C\2440>)\277/\276\374W?\2753\316\022\277\245\220\350\276\265\017\226=K\001\336\276fR\345\276\302\006\313\276\024c3;fc\336\276\230\303\004\276\254\007\016\277\002\376\221=/c\347\276\371$\010\276PxN\276Mn\377\276A_\332\276\n`U>\332\354\200\275B3\202=\036kK=dj\002\277\030\251\247\276@q\363<?J\205\276\002\346\262=\226\234\231\2765H\016>\242\030,\276\317\3448>\327\303\223\276\222Z\001>\270\336\024\275\225\245\301=\2209B=\370\275\362=\007\360\304<\031\333g>\'\025\235>\307\205\027\276\033\271v\276\031m]\276G\350\233\276\360 5\274K\022\323\276\3666f>\205\325\247\276\352KA\276{\354 \276T\201\021<OH\364\274\212\336\260=\000\355\344;^\247\315=\346\357\200\275\n\235\354\275@\020\032=0\315\027\274\000\352\271\272\200w\264\273\276mU\275\200?\233\272@S#<=\3450\276E\336\035>$\020\016=\226\257\321=f2\350\2751\337\373\276\025\232\022\277\010N\262\275\311\230\021\277\005\304\320\276\274\213Q>\316\250{=\264\007j<\274<R=\006\356\223=\006&\236\275~\360\017\277\253\301==\311D\006>W\225\272\276\322\260\321=\300\306\226\274H\016\363\275\364f\002=\000!\327\274tK\031\276\360\016r<pn\235<\0344\014\276\211\301\007>\220\037\330<\261N\000>.\373s\275t\2407\275\217\003\"\276\240;n\274\204\277\272>\261\327*>+\026\014>\267\301c>8\226\361\276\372{\367=\263l\243>\003\315\003?\220n\251<L\\\n\275\223Q{\276\023\317\347\275\357O\320\276\327\376\331\276\370\026\321\276\270F\352\275\305T\033\276\345\254\321\275\006\234\272=\233y\221\276T\001\005?.b\254\275rZ0\276b\311\375\276\035\345\277\276CV\240\276 h\220>\024\303\205\276^\n\372>,P\345>\025\324q>&i\252=\0062\202\276vd\305>\354c\223=b\305\236\275\275a\205>]y\323\276}\225\321>\010I6=\n\340\343\276k\351\374\276\351\224\332\276\350\346<=\314(\373\276\300\305v;mS\207\2767\004\331\276kh\225\276\000u\337:\226\314\370>\310\223_\275Z\347\315\276>@\374>4s\363>-<\177\276\213\370\310\276{y\017\277\237j\362>\316\344\317\276@K\304\275T\210\351>\306\354\302=J\354\230=\310\236\360>UIo>\210\237\255\276\216\207\264>\240|\250>#V\250\276\214\237\210>\3524\351\275\337\272\307>\033p\311>\261R*>\311\027\313>UI\345>\377\250)>\267\363\256\276\2072\261>\266\247\361\275=g\312\275 \345\235<\2266\244=\224c)\276\346\367*\276Pu\267\274\375\205&\276\"\350!\276\354\004\262\275\024\353\377\275 Ki\275\254DG\275\364/\031\276\221\2434\276\320\274B<\251\020+>p\275\267>yQ\036>\006\342\362>/\024\032\276\t\350\010?\233\262\217>b\2032\276\322\001\306>\274\366\256>\265.\024>\232\245\255>+\224o\276s\340\017\277\251]\326>x\025\362\275\212\022\360\275\206\007\310\275\276y\275=~\030\363=z[W\275\320\024\247<\220\311\001\274\250\255N=D2\365\275Z&\r\276_\223\346\275\300Q=;\327\350\322\275cU\027\276\235<\223\275f\302\221=k\314\361\276\230}\027\276\021\354\037\2768\320e=dg\331\276s4\227>\007\373\010?\247\355\037\276j\315(;\267Nj\276z\363\242\276\033F\336\276\241W\230>\251\303\206>\026\'\236>7\350\347\276\320y-<6\222\311\276kz\365>\203\261\370=A:\254=\030\222\035\275d\246(=\205\204\017>`\322^=\325\341\333\274q\360\276=\2724^\276\337\242H>G*(>\337u+>\307q\223\275\035\177\276\276T \364\275\326\234\221\276\013ER=_;g\275\202\371\245=\334g*=hS\360<r?p>\324\031\255>\203\313\205\275\260\3400\276\220\232L\274\322Y\344=\356b\007\276\366\272\205>>@\226>4\037\341<\026\350\322>\316\330\355=\330\276&>+\t\236>\226}\304\275K \267\275\217\256\002>\272\374\203\275\256\267\273\276\377&\214\276\250\247]\275\206\302\271=\323\2219\275\014\327\371\273J\304\r?V\336a\2769\206\310=\017\361\221>\314~K=\243\242\361\276C\366#\275\216\312\366\276\027\307\242=y\275\205\276zV\357\275c\237C=\272\367\277=\'\357\005\275\363\021>>\331\374\322>\370\305\211<\027v\031>T<g=\334Y\366\275ru\326=f\342\313=y\177\220\275\270?\306\274\243&)>\010D9=\3057\014>\300\203G<\030\n3\275\353+\033>b\355\266=\330fo=\374\026\033\275\010\017\021>\004r\000=g\370\n\275\270yo=8L\341\276\365C\020>C\177\214<V\243\365=x\232k=\314\321\033\275S^\324\275\222\233\006\277\225\215U\276i\'\225=\330\357\361\274H\346\313\274\005\\#>:>\352=\220\350@=;c\033>\200\355\337\275\000\301\007:X\035\333\275\204\3574=\361N\r>2\325\322=\243\2522\276>\'\223=p\311\312\275\300\227%<\310\0202\275p\335\375\276\036\244\365=a\264\327\276Me\217\2767\240\006\277\244_\000\2759k\205>3\240\372\274\276[\347=\311\357*>^\272\277=\353\263\361\276\376\240*\274\022\241|<m\0032\2750$\266\276\013%\274\276\2560\331\276\312D\357\276\302\365\200=\377\234\253=`\234\305\276\253\004\234\276.\000\272=\240\025\326\275\274\270\'\274\004\242\234\273#\242#\276&\001:=\344\351\344=\375+\362\276\225\246\232\276\220P\344=\031]\320\276\365\275\266\276D\365\346=j\361:\2755i\r\277\236\035\315=xx\007\277\027\340W\276\360\022\376\276Qv\343\274\310\004\365\274\237\016\354\276\022\361\004\277$iH=h\251\276<\332\240:<\n\254\304\274\022a\005\277\376t\t\277\377\205\032\275)\304\375\276\024\313x=X\"\321\276z\214\305\275dG\250\275\276d\227=\304\274\214\276\036\017\026=\001#b>$\214f=<\375\024\274l\264\017\275\354\315\000\275\000\230(=ijU>\006\246\373=\324\261\361\276)*s=J\357\005\276jG\250\275O\317\347\276\304\311\026\276\244\301\212\275r\207\232=\260p\022\275\'\324\304\275F\036\321\2753\2743>`\207\t<\016\236\350=\210J\213=\251\214\005>j\305y\275>\222\267=\010\242\221<1\327\'>\007O+\276\336X\262\275\335>\034\276\220\252\003\276\264\3318\275\021\314->\210%\240<\205\005\007\277\370\311\314<2;\312\276\353@\010>E\204\265\276z\330\227\276\252j\373\275\325\236\200>\3658\001>\307d3=l] =\n\036\006\276\007\034\263\276\330\304\316\275Z&\026<\310\363\341\276\304U^\275+D->\324x=\275`\305\337\274\357a\017\276\236\265\360=\360\252\013\275\364-.\276:\001\324=>\221\r\276\013@\016>N\351\374=2!\372=^Pp\275\302j\330=\000!*\275o\001\200>]\232L=\004\354\n=DP\315>\301\205\210\276\014/\344\274&\304\204\276\254,C>\177\270A\275\004\034d\275\303\t?\276v\335\374>\324\002\324\274\026_\214=Rn\270\275\370T\267\276\345\343\032>\003\261\303>\025\343\222\276\022\240\223\276\031\363\214<\343y\277\276Q\355\016\276\375\234)\276\021\267\375\274j\246\324=\276c\356\274\000\307\230\275\217\365h>Um.>\316\271\213\276\020z\014\274\240\274~>\n;\374\276\026\325\355\276\316\016\320\276\030\336\355\273\204\302\241\276\214\017\202>\3054\232>\320:\236\275,!\323>V\277\014><\032\315\2750\260\326\276\3700&\276\234-\203\275F_\366\275\265\222\331\274\376=\330=\033_\323\276P\331\310\276l\301\215\276\307\336\010\277\365(h\276A\214\372>\305*\376=\021\325y\276cR2\276\337\231\346>\235\324\205\275\"q\230\275\034\022i\275\217\r\231>\310\333\222\276!gN\276g\036\361>%\211s\276\270\331\211>\253\005\337>\277\333->\014\331\r\2761\021\003\277\0361\260\276\354&\326>5\322M\276\004\202\205<\274\007\253\273J\372\217>|\347a\275\"\341\363\275\027\241\250\275\306\346\327=\034\201>=\036\304\305=\2750\033>@\242\237\274jU\211\275\274\270\030=6\313\022\276\372\313\266=\320\271)\2766j\320=\376\201\376=\357I)> \227\244\273\254\274H\275)CK\276\363\020\253\276\345F\231\276\354?\272\276\254\255\266>\263\034\241=D\3326>\377u\214\276K}\254\276\300\371\000>;\243\202\276k\337\215\276\270G\177>\n\252\272>\236p\372\275\362\025\010\276d\247\014\276\344\034\335\275\240\177\322<\300\014\007\275(\030\005\275\356*\272=\026\275\027\276 \237\234;\302\341\312=b\302\313\275\000\220\2648T\262\n\276(w\211=k5\007> 2\202;\255e\237\276r\371>\276\276\246a\276\361f\336\276\276\024\217\276\330^|>\242\370\263\276\335\251\023\276:}\256\274Y\260\277\275\244i\352\275\017\340\355\276\\\004\247=\336\331\230=\037W4>\310\217\355\276_\330\001\276\313\311\367\276\243\216\243\276V=\254=%\337\270\275c\360\273\276cn\226\276\256r\353\275\"\313\n=\341\351)>\324\210*=\'OW>\320^\337\274Q\306!\276\240i\240\276w@\352\276,\333\257=\203A\237\276V\224\300>v\023\r;\266\311\222\275\344@\227\276\3404\341=\257Ck\276\255\243\017=\232\265\225\276\327\263\313=&\365\333=A\337\225\276\370h\000\277\206\013\021>\237\2466>8\350\254<_M]=\265fu\276\215\265\007\277\363\006\320<\243\323\364\276\243~\014\275\217\002c>\221!6>\266\274\375<\037z\032\276wo\222\276(o\254\275\336(\366\274!\250\321<\336\007\343\275\366`\257\275\264T;=\216>\037>4\336W\276\323\017\241>kW\266\276\312_\354\275\303\031\n>A\376\203\275\344k\373\276\303D\201\276g\241j>\215\302H=\\\035\013>o|^>6\375\246= \035<\274\205\215->`d\243<\204\314\026\276\361\202!\276E\267 >\034P\002\275\346\261\365\275\200WA\274\302\264\217=\355\261\026>\210v\217=\306=\317=\006\265\264\275\360\253\350<\326\335\350=f\204\260\276\276S\303=9?\006\277h\355\247\2752\331\373\276\336\204\342>\267\301D=\335\032\243\275\027~\313\274\323\000-\276\371?\211\2748r$\276\031,\336\276V\005\020;|a\373< \201<=\020\226\000\276\216\217\315=\265~\305\275@_\312<\324\346\374\275\022k\"\276\020\346\032=\211\201,>\000\350\035:\245\365\273\275\007\377\016\276\024\2262\276\316\333\274=/\002\251\275\022>\305=\200\035\006\273\337\303\346\276\005\214b\276r`\335\276\271X\366\276\262\360\265\276\376\207\034>\234\255\373\276\210\030`\275\036\317\331=\300\307\003=\250\034X\275\346A\310\276d\362\234\273aJ\361\275\227\022 >\310\206\004\277A\016\006>\213$\016\277\2447\232\276\235\227j>\003\337\252\275\001\332\205\276LK\"\275\240\255\210<\260?\204\275T\211\275\275\340\333D\276\273t\">\214v\032=\246\347\223\275\177\031\222\276\254ri\275\022\276t<\037(n\276\311\265F\276\264\272\202=\260\2645\275D\331\271>\030\276\033>\223\222\000?\004\217\216>\342g\276\276\252m-<\325\304\356\276\025\310a>\344\314=\275B]\254\275\322\307A\274\2406\321=\361\006\317=\322\365\312\276H\267r=\326!\200=\314\001\017\277\244\247P=Qi\360>\177~S>6\031\200\275\212\325\224\275\350\200\007\276\322I\263=\261\254\031\276\230\r\3749>\357\367=f\322\177\276\373.\200\275\260\212\333;\340\300\"=\330\373j>\003Xi>\251\025\253\276\371\322\005>\254\"\330\275\372\033\242>CT\201<\231\317G>\th\216=\340\247x>\277\311j>eH[\276  \000=H\' \275\231\231&>d\355/\275I-\352\275\310f\274<81s=\032\376Y\275$\357&\275h\264\016\275\352\335\365=\371\220\235\275\2718\213\275\254\367\031=\023\224 >S\324\016\276\000\375\343\276A\375l\276l\274\333\275a&e\276\364i\203\275\252\267\002?]/\237=\225}*\276\204\tv\276\024\342\032=\374\336u\275:\226\210\276-U\317>\002\237\361\274U\017t>.\205,\276h[\250\274\356\275\363\275o>3>[\035\t\276\026n\302=\375\n4>\032\204\267=m\327\021\276\366\340\267=\000\373c=v:\341=U\002\246\275\316p3\276\034\t@\275\210\007\373<R\366\314=\222\256\272\276\202\343\330\275\364\264\370\276r9\002\277q\257\273\276\215\031\014\276\204\317\266\276BB\311=\322\235\033>\351\nm\276Z4\360=\320\252\370\276\nB\317=\303R\031>\\-\000\276\260\030\203\276\352\240\021\277\277\355\355\276\322\313\374\276<\331\217\275K\035\261>\237\233\302\276\270X\376\276\230\320\243=`,\334\275\010\3001\276\222\263\343=\3477\000>\257{h>,\0162\275\214h\361\276\321\021\000\277\212V=>&>\016\277O\177\376\276g7\005\276s\031b;\333\366\314\276mrZ\275*\224\r\277s\213)\275a\"\324\276\276\365\242\275\221\237\320\276q\005\274\276\377\214\246\276\355`\223\275\213\257\250\274\275_\255<^ )\275\304\347\355\276I#\240\276Xjz=T\315\010\277\357\355E>\243\246\353\276D8\001=\022\006\364=\337d\025>%F\002\27782\003>U\004\254\275\304(\323\275pc\341\273\346\353\306=\304)1\274\314\361P\276\364\3275\274\376\243\231=\307\304\347\276\033\225O\275\2740\t\277!\312\005>3\034\267\276\200\334\027\275\336\236\370\275\264\214h={%\274\274\212\000,\275kP\013\276\204~\372\275T\002\r= \177\004\276\320\207==k\350\027\276\356\263\267=\350\3758=\030\2524\275\223\213\211\275\000\315\220\274\307\303)>\330X\256\275\254\220\034\275\237\235\322\275\367\354\031>\t\346\033>\316\231\322\276-\233\010>\331\026\234\276\223\327\t>m\031\347\276\352\001\014\277\270\377\016\276\256\004M\276\010\303 \276*\343\325=\032\307\'\276\230!\370<\023\222\265\276\330gQ\275\214\357E\275\213O\313\276\rw*>6\223\346=k\235\255\275\334\362&=H\364\343<\207R\n\276\300bS\275\374\226`=\200\234\236\275\372~\343=\\wD\275\327\224\317\275`\272\250;\246\202\301=\245\020\035\2761}&>v`\244\276\272)\247\276\332y\357\276o\321\256\276H\366\353>\345D\\\276<M\330>\242k\202>c#\252=\375\340!>\030\2372>~G\312\2766\202\253\276-Y\366\275(*\345\276\303}\202>\330\315\373\275\300\347\014\277\206\326\321=v\356v\276F\311\020>\2429\023\276\273 \237\275z\330\353\275N`\371\275\214\276\336\273d$e\275\007\261}\276\321\302\330=\313\000_>_\006\314>\342\022\256=b5\257>f<d>j\220\250\276\027\364D=\277L\250\276\263\250\211\275\305\006c\276\006\350\315=*n\260\274n\203\233\276\252`\375\274\215\271\213\276-\260\013>nq\274=\256\345T\276\310\355\214\275\226\320\306\274\261\332&\276\'r\255>\330Y\364\274\370@\023>U\033\324>2\325\367=rI\207\276\346\213=\275%T\226\274Pg\373;\036;\245\276\"@\216\275\304z\262>\'\200\235>\006\234\202\276\202\264\034<\346\023d\276#|*=\312+\266=2\031\255\275P\337\315<\030\031\214>\244\013\036\2752\020\'\273#\351\266\2755\323j>\223=R>3B\264\274\005\034\326\275r\034\303\272\225\330\213\276s1\255\275\200r\035;z\247\302=b\356\240=H\367\002\276\005h\t\276\3730*>\311\017/\276\234\306b=z\236\016\276\352\247\333=\000\270(<\033\2653\276\000\367\005:(TX=g\265\216\275$\310\"=\\\"\265\276 \032\324\276<m\257=\370\306\356\275\021a\273\276\373.\201<\333\304\237=V\362a\276\034e\236\273\257f\234>d\033d\276\224\r\267\276\3376C>\355BB>@5y\276~\031\321=\254\211\021\2755\336\r\276\r\362\312\275\204\233\000\275\020\324!\275\321\311\305\275k\276\032\276\331\343%>h\227\375\275\241$\225\275\327\010\213\275t\316*\276\244\t;\275\246\261\242\275\366\261\367=\003\324\210\276G\241\211\276Y\024\241\276?\315l\276s\230\373\276\362\020\232\275\355\257\016\277\340\365}\274\261r\226<\0134\002\277\207\300R>Q\310\356\276k\363\343<\010%\213\275\213c\272<\370\022\327\276\0173\013\277%\034\020\277\364\204\304\276\022\261#\275@\027\224;\033\325\213\276\373\320\225\276Y\332#\276\031>S>O;\033>\3120\246=\t\306\031>Uu\317\275\224\221C=\363\306\354\276\272\013\232\276\304\353\212\275\350\332\006\277\014g\233\276\327<;\275D\217\016\275&\364\316\276+\272\001=\363.\247\276\303R\r>\373\237\222\276<\263\225=\n\275\306\275\210\316\201\276\342\247\356\276\243s\326<\222\256 \276f\337(\276\014G\\\275\375I\251\276\333\226p\276R\361\353=\204\211\210\276;\2605\276\006\026\364\276FU\252=\200\212q\274I\254\215\275=\343\325\276I*\210\275\010\323\023=\244Y\230=\030\006\335\275\214\344`=\211\205$\276\323b\\\276\267\3569\276Fd\354<x\227\256\276\250\\F\276\330Z\032\275\324\0040\276V\031\325\276a\0175\276H\016\201;_#\031>q\347\205=\372\300\234\274\203\237\017>\2039\235\275\264\3636=\277\357%>\374\214\233\275\370\323@\275\346\265\254=\0147\014\276\240Zd<4}\343\275\371\270\024>\216\324\240=%\300/>\246\307&\276\236n\332=\3538\313\275\254\205L\275BX\245\276Nd\310=V\270\277\276\000\311\215\276\273\200\321\276\001\231\354\276(\257\213\275\\\225O\276\211C\367\275\312\252\177<*\362\376<\027\203\030\275\2336\275\276I\253N>Z\277\377=\362\003U\275\030o\200\275\251\265\261\275\200\031\033=z\205\373\275\255\276\r>\024~D=v\353\345=\324\317{=\256\252\223=H\216\004=\026)\236=\030A\033\275,\014\007\276\276H\207\275I\307\035>vx\205\275\356\344\227>\362\021\264\276\212\224\370\275\217Gf\276f\263\262>\263\344\230=+\237\351>\321\374\241\2761\357K\276\220\027r=\372fm=\355\007\362\276P\334p\275\252Z\363=y\200\014\276\023\346\277>\310&\343\275\336*\215\276\230Ba=3@0;\327\rs\2753\334\">\332\354\356=U\302\201=0\3033\276\332\200\177\276h\016B=\370\266V\276\231r\250>\036Q\322<\340\002\277>\346\020\240=\212\236\337\275\\4\313>\3343\001\277\n\275K>t\367\327=\314\302?\275\363\310?=\2613\276\276\\w\024\274I\242\201\276\303\343\033>\036o\230=\330O\361<\342E\200=\234_<\275\376\361\245\275\264\317\306<\306[h\275\230\240\205>4\022\r=|\276\230\275\211\332\020?\314\305W=\266I\345\276\303\002\215\275\235\355\266\275\032\013\251=\351\252\324\276 \311e>3g>>l#\"\274\357\"\002=I0B>\370^\201\275\232\235\201=\240\322\226=\271\241\024\276_\304\251\275]\337\302>8\267\277\274\334V\010\275\246$\036\276\267\"\301=\027\003\307=@\227\203\275\254Z\r= \253t=\327\245\030\276\336%\252\275\320\361\202\274\360\200\265\275\247\255\231\275\235\330\317\275\305-\274\275\360\024$\276Qk\314\275h\233\330\274.\364\244=\355\250\014\276\200\222\020\276t\327\037\276>cc\275\334\334\261\275\325\350\034>\270\243D=4\330\223>\3276f\276H\3472<\004\323\020=\035\360x\276sH|\276\344\273P<\250HL\276\226\324\327\275\'\272\026=.t\324\275\337\222\237\276cI(>\316\030Z=\010A\013\276+m&>\031\315,\276C\201\035\276is\272\275_\275\030>0\234r=\000\360\2479\276\024\033\276\256\201\355=\366\351\322=6\315[\275iL\354\275\226G\361=\310\013\217=\0007\241\273/\313\250\275\325Z{\276\274\321\003>\177\240\204\276\003y\033\276!_\302\276R\203\203\276\251\003\334\276u[C\276\331\330x\276%Y\345\276\355X\026>\267\265\377\276\200\252w\2743\325\323\275y\230X\276\252`\323\276g\207\021>B~\243\276m\276\017\277=\271\210\276a\237\206>\315\007\233>\300P\373\275\334\337O\274l@4\276\243\t\027>\025m\240\271\255\007q\276\313\274K>\0353+>E6\374\2766\302\243\276}95>\032\212k>\354\216\217\276\016B\014;+80>\366m\003\277\264s\r\276I\306\224>#=/\276;)I\276\026\013\311=DmF\276\264\343\007\277y\266\317\276\330\224\234\275\235w<>\014\255B\276\3375\"\275\tO\314>\032\001\320\276\034X\037\274\3157\331\276Xgc>TV~>s5a=\340\366L\275\266q\305\275};E\276\241(\022\276\324)\241>\2502k>\336\341n=s\361\263>\312\334\223=V\215`\275z0.>_\362J\275\213I\361>L-,\275\335R\256\276\323\222M\276-\3144\276\264\010\245;\204\016\257=\234jI\275\350\361\364\275y=\311<\030\027\356=^\035\344=\336\030\342=\350\023\014\275\351\333\027>F\023w\275\346^\257=s\323\t>\240\223\322\274\240\373\337\273\000q`\272Tp\r=x\374\252<\300\242\220<\240|\324\2730\366\261\274\232\334\326=\000\310\275\276\027D\337>1\215\243\276QT\204\276\3409\021\277 \341\224\276ek\245<g\321F\276\372\367\221=$\201a\276\013:\226\276-\337\204=\235\225\365\276\321p\375=(7&\276\226\354@\276\226\234\265=\002\204\226=C\314\375\2756\025\302\2756\2213\276\346\275\375\2754\233\032\275l?o=\010\262+\276\233j\017>\300/\264;\254\024\246\275m\257\024\276C\271\">\354\013\035\275\250F\227<\330\255\226\276\377$\254=\321g\n\277\277\367\310\276\t\277e\276G\007E\276U\030\237\276\030P\374\275`K\274\273E\305\013\2774\345\225>\373\214\n\277_\342L>\374\274\301\275e\000I>\022\211\216\276?^\001\277\025\334\016\277\360z\006\277\276\335\314=\212\373\262=W\021\006\277\355\230\007\277\212\025\344=\343_\247<\357\277?>\340^m<\260\000C\275\262\206.\276{\366\014>Rb\237\276\375\214\322\276\240`\351<(\027\210\2768L\356\276uQ\t\275\033\210!\275\032\376\327\276\347\277[=<\033\356\276=\267B>ac\244\276x\3503=\\M\261\275\207X\220\276z\r\214\276\350\362c\275%\3412>\204\212I\275L\220\217\275\'\216\013\277\230\206\311\276H\233\206\275U|k\276\037\311\002\276\351]\201\276\014\317\316\275F\242\246\275\n}\204\275\342\r\210\276\355 \004=\034d\007=!\330\022\276E\303\n>\022}\262\275\0001\005=\236*U\274\014WL=\362\231\351=2s\311\276\343T\"\276\262\030\006\277\216\212\024\276\354<\234\276\250\304\177=k,M>\000\014\224=\344\037\233\274\265\n\025>\271\301\301\275dvB=\353\220\005>\014\320}=\336\304\357=;z\r\276B\376\372= \3553<\030\205^\2752\270\267=:\350\361=\250F\223<\221\215.\276\300I\224\273fV\213=\01408=k\264#\276\313\001\316\276Z\034\364\275\321\277\207\276Dv\302=\256\360\264\276\273S\317\276\346^\203=\341\336\203>Zk\260<\006\337A\276d\231\253\273;T\000\276\307T\010\277\305Q]>\025c\230<\210\333R\276\271\201\221\275Z\024\206=\370Q\332\274D\333\213=\004\357\231\275E|+>&=\001\276Pm1\276\240\211\016\276\032(u\275\262(\362=\272vh\275\005\336\032>0\202\360\274<,E=\021\261\033\276\340s\001\277\212\315[\276\321\320\312\276Bv\313\276+\207\350\276\262rT\276\236\213\337\276\272\334\254=2\317\237\275\027\270\337\276/\0269\275\222p\224\276\265\245u\276\352]\241<=F\374\274$\243\257\276w\250\016\277\222`\220\276(T\314\276p\002\315\275s\334\232>\306m\324\276\257\'\365\276\357\311\'\276\275\300\016>\210bL<\017*=>\006\\#\276{\007%>\006\300\361\274\311\000k\276W\277\t>\000\262\263\275\213\337w\276\030\226\210\276\006\017\233\275(\035\251\275\220\020\261\276\233h\014\276\371\\\356\276\2500?\274eMe\2763\003M\276<\2574\2767~\206\276\316T\253\276\030[\227<\024IN=\032\236L\276>\036\371\275\321N\364\276\313!\016\277\224\253\377=\273\230\344\276|\024\005>m\250\260\276P=X\276X\362\027\276\027Z\262<Qs\227\276@\340\223\274\343\250l>\277\001\273\275!\361\324>X\370f\275f62\276\362Ao\276\304d\031\275\220\216\227\274r*\211\276\313%j=\365\325\262\276\353wn>M\3204\276\315\254M>\267\241?=\\\323\r\276(\313\201\275\272\367z\276F@?;\001\2323\276\314\247Y=\243\030\001>8\324\366\274\316\227\360\275\220=\030\275?:\036>,]\232\275 J)\275\001\240\302\275\214\272\202=\304g\034\276i\300\000>\010\375\350\275\256\211\235\275\322K\243\275{%\356\276h\303\306;\010h\306\276\362X\226\276\321\230\022\277i\n\345\276\"W\277\275va\201\276\361\367F>Hv$\275\227,