node {
  name: "x"
  op: "Placeholder"
  attr {
    key: "dtype"
    value {
      type: DT_FLOAT
    }
  }
  attr {
    key: "shape"
    value {
      shape {
        dim {
          size: 1
        }
        dim {
          size: 24
        }
      }
    }
  }
}
node {
  name: "decoder/conv2d_transpose_1/Shape"
  op: "Const"
  attr {
    key: "dtype"
    value {
      type: DT_INT32
    }
  }
  attr {
    key: "value"
    value {
      tensor {
        dtype: DT_INT32
        tensor_shape {
          dim {
            size: 4
          }
        }
        tensor_content: "\001\000\000\000\004\000\000\000\004\000\000\000\010\000\000\000"
      }
    }
  }
}
node {
  name: "decoder/conv2d_transpose_1/strided_slice/stack"
  op: "Const"
  attr {
    key: "dtype"
    value {
      type: DT_INT32
    }
  }
  attr {
    key: "value"
    value {
      tensor {
        dtype: DT_INT32
        tensor_shape {
          dim {
            size: 1
          }
        }
      }
    }
  }
}
node {
  name: "decoder/conv2d_transpose_1/strided_slice/stack_1"
  op: "Const"
  attr {
    key: "dtype"
    value {
      type: DT_INT32
    }
  }
  attr {
    key: "value"
    value {
      tensor {
        dtype: DT_INT32
        tensor_shape {
          dim {
            size: 1
          }
        }
        int_val: 1
      }
    }
  }
}
node {
  name: "decoder/conv2d_transpose_1/strided_slice/stack_2"
  op: "Const"
  attr {
    key: "dtype"
    value {
      type: DT_INT32
    }
  }
  attr {
    key: "value"
    value {
      tensor {
        dtype: DT_INT32
        tensor_shape {
          dim {
            size: 1
          }
        }
        int_val: 1
      }
    }
  }
}
node {
  name: "decoder/conv2d_transpose_1/stack/1"
  op: "Const"
  attr {
    key: "dtype"
    value {
      type: DT_INT32
    }
  }
  attr {
    key: "value"
    value {
      tensor {
        dtype: DT_INT32
        tensor_shape {
        }
        int_val: 9
      }
    }
  }
}
node {
  name: "decoder/conv2d_transpose_1/stack/2"
  op: "Const"
  attr {
    key: "dtype"
    value {
      type: DT_INT32
    }
  }
  attr {
    key: "value"
    value {
      tensor {
        dtype: DT_INT32
        tensor_shape {
        }
        int_val: 9
      }
    }
  }
}
node {
  name: "decoder/conv2d_transpose_1/stack/3"
  op: "Const"
  attr {
    key: "dtype"
    value {
      type: DT_INT32
    }
  }
  attr {
    key: "value"
    value {
      tensor {
        dtype: DT_INT32
        tensor_shape {
        }
        int_val: 1
      }
    }
  }
}
node {
  name: "decoder/conv2d_transpose_1/conv2d_transpose/ReadVariableOp/resource"
  op: "Const"
  attr {
    key: "dtype"
    value {
      type: DT_FLOAT
    }
  }
  attr {
    key: "value"
    value {
      tensor {
        dtype: DT_FLOAT
        tensor_shape {
          dim {
            size: 3
          }
          dim {
            size: 3
          }
          dim {
            size: 1
          }
          dim {
            size: 8
          }
        }
        tensor_content: "\200\311X\276\006\314\366\275\r\214\226\276?s\256>\004Cn=\353[A\276\274\322\312\275\341n;>3\277\273>E>\250\276W\227!>f\263\225\276\232\026\314\275\267\036\202=\236\0079\276A\024Y\276\r \272=\356\004\315\275p\321\262\275\361$p\276m\365\222>\220\364\331\273\304<\222\275A\302\226\276\013\322H\276\303r$>\2069\005\276\273\315\004>\371\2559>\014\337\261\275\316\364\224=\345Ya>bl\260>\244<\210\275{\032#\2760\333\345\2743\tq\276\232\370\372=|)\020=|\366\241\276\253\004F>\353g\237\276\230\306/\276%\220\204\276{\005/>o\325\236\276\207\274S\276\315Un>0\004\270<o\363\213\276jf\226=d2z=\252A\304=\307\220:\276(\334n\276\3356\261>\377d\303\275\330\010\214>\250\315\333\275\327_}>\325[\211\276\007\005y\276/\275\223>\235\220+>\202w\221=\203<S\276\331G\201\276\n3\247\275\031K6>/\\B>\375Z\275=\343\211\311\274"
      }
    }
  }
}
node {
  name: "decoder/dense_3/MatMul/ReadVariableOp/resource"
  op: "Const"
  attr {
    key: "dtype"
    value {
      type: DT_FLOAT
    }
  }
  attr {
    key: "value"
    value {
      tensor {
        dtype: DT_FLOAT
        tensor_shape {
          dim {
            size: 24
          }
          dim {
            size: 24
          }
        }
        tensor_content: "\020\304$=Ep\025\276~`\234=\021\001\216=\251\223\004>\237n\222>\013\263\214<\250\006q<\356\030\341>\005[g\276nK\200>\253H\313\275\037\003\204\276\265\235\250\276\035\367\254\276\350 \243\276{45\275\2332\212\2762\313K\276\343n\017>\036\255\320>\377\031\025>#\001\254\276\024\330\331>\200\204\342;\320\227\263\276\363\024\013\276\322zh\274Y\215\010>\324\224\267\275V?\224=\366\343\260\275\246\205\274\276\026\2760>0J\333;\221OQ\276hoe>\263B\"\276\372-\217>\n\257\363\275\364\317\252>\200\202\330\276\036\334\262\275\246\342\274=\273>\021\276\027{U>\253\222\014\276\253l\264<\303 \204\276\247`\217>\326\273\337\275\313q/>d\247f\275\360\314\213\276\356\347,\276_^\271\276\327|<=V\323\236\276%\260L>4D\363\275|\372\202\273\300\337\322\275Jt\276>\336X\014\2764\364b\276\315\352M>s 9>\267\025j>b\207v<\0145>\275\340oP\275\3754\233\276\032\213Z>\000\207\376\275\252_\370\275gu\034=\255\0362>!\241\255\276\001\344=>\365\300C>M\352\">\374\333f\276\255\246\n\275\344kp\276\344!\270;]\323\206>\037\000\345=Sh\256\276\224\267C<(\357\373;j\'\312=\235;\010>##N\276\247\303b>\236:\252=\226\253\317=\225\304\257>\017\300\221\276\316\267o\276C(\325<9_\211\276*\034\231\276\346^i=\202A\177\2761p\271=E\006\245\276r\276T\276\364\355\274<\346\177\301= +C\276\001\210]\276\246V#\276\326\031\227\276\335=x>\3377k>\322\221C\275\376\025\336\275\027\2737=\316\367\005>p\230\201>*\210}>]\235\334=\2219|>\306\244\240>\351\021J>f\347}\276\335\344\202>\326\305\233\275\347\'u\275Bls>\336\370>\276\354f \275\326\244\241\275 u\224\275\034\346]\276x\300\206\276)gX>\257\341&>\"\000\317\276\240\216\016<\346\332\274>\326&@\276\034\010s\276\204\037u=O\265\223>\327R;>f\366v\276U\000\271\275\270\353\277>\300\203\304\273\302R{>\002\014\320>P\343\243\276\300<y<[\266\306\276\353KA><W\217=Px\001\275=\265#\276H\240]\276\242-\342>\311{~\276A\243\024\276\353\306\212=AQ\013>\211\267!\276\266j\277=v\252\245> \023L\274\331\277N\276\206\244\232\276\333l\t\276\210\246\310\275\375\"\257\276\026\205\310>\006\020\252>\361M\233<\240\261\303\274\r\347Q\276\230\333Q\276\035>\305\276C\363\264>A\t\013>\272 s>\332\3435\2767~\220\274\271)4>5\037M>\3723\314>\371\246\272\276%\340&>:\375\265\275\276\272X>\332\224K>\345\257T>pf\240>HP\216;\346\275O>\265^\030\276K\007\214\276\331\r\017\276\200c\361\274\376Q\233=H\001a\276.\\\300\275\3301U\275\300\274\255=`\003\303\275[X\302\276\236\203\371<t\257R<z\204\224>\315\347[\276\317&\216>\022\224\327>\200\000\235\2763\"\206\276\314\225\213\276b\323\225>\206\000\364\275\274\375v\275\010\365\224\276\2212\237>\234\036$\276\221\201\315\276\320^\330\275\304\261\325>\361ll>\307Q\230\276\306\326\004>L1\213>\356\320\227\276\364\305\r\274 -C\274H5U>\355\366J>\351\2364\276\r\364x\276/<\t>R\236\253\275\001\213\233>\275_\337\276H\227\237\276\227\345X>\252\304.>\226\2157>\247\0262\276\341\217\030\2761(u>\376\326M>\236\256\367\275\3141\257\276\327\333+\276\022\373R\276\314\373\304>+\271\256>\224\326H\276\270_\027\276<\257\215\2744H\343\276\301\231\267\274\003\305\327\276a\254\214\276 \242\233=\001\334\245\276O7>\276\nC\220\276\233/.\276\0040\001\274\273\257\212>v\031\223>]U\216\276\032\272\227=\272I;\276\251\275#\276\2353+>\'7G>P\337\205\276\014\t\264>\320\305\376=\244\257\304\276\324t\351=\027\306\240\276\033\374b;\036\370\253>\\\243\316\275\242`\264>_\032I\2763\032\031\276\246c\265\275\014M\276>\334i\235>\300\232\301>\316\202\206\276\007\231\004=aC\233>\\\255\363\275\360{b\275\216\204^\276\'2i>\316w\225\275\271+\227\276\232R\300\275\220\314\232\276\356\242\351\275H.\221>\222\377=\276\234\250\313\275f\001\305\275z\032\340=\343\245A>\237\207\251\276\000\262\243\274\364\r\324\275-\177@\276U\240*>\260\300\247=x\031\313\275\272\035\325=/\213G\276\262<\275=\000\206_=\325\257p>\211\376z\276\034m\215>\354\352\363=X\236\330\275\227\214\224>\245\312\031\276h\201\222>4\367\340\275*m\205\275\350\033\247\276\263\022\242>\247!\317=\\\220\264\275@\003t\276\']\020=\013N\034>\"\272\251=\362\020\313>`\370\001\275Ao\217\276;t\274<\234\251I=\212\302\">a(9>\351.\222>\360\341\232=\316\306:\2765ZI>@\320\035\274\256y\260=\226\267\211\275\247\037\254\276je\264>\347#v\275\276i\301>\377\357\226>\372s\315=\006\377O>\366\217\360\275\373KV>\323\215\264\276\2046s\275l\\\273\2754\264\264>F.\257>(\324\253\276\010\200\204\276\2448w>0\264\220\276\372t\251>\336\":>/<\231\276P\232\367\274\333\302\t\276\356T\313=\317\364#\275b\256\235=\354\302\013\275\014\036\312>\020\224\264\276)\2166\276\377-\246>\242l\214\275\253H\203\276\354\234\257\275D \032\275\236Wb>T\351t\2768\276\273;b\342\212\2753\276\211>\217\350Z\276~&\226=\266\027\362=\320\254\267\274l\211,=\300\373+=&5\246\274\252\206Z>4\300]\275>\006_<\211\216\241\276954>\306\0372\276\3638X>\205\027\244>\364\2015\275\352~\364\275,\302\204\275\276 \327=\246\261C>s@u>\204A\243\276\305\362\263\274\344\252\262\276\361\346\230\276\255z\010>\370X\252\276\346\231\014\276\317H1\276\026\362G>\341\014\001>\356\027\014\276\374\317\211\275\243Z\027>\266\322.\276\345z)\276\024\203\000\276\031\370\246\275X\241\004>\230\214i\276\262\367\020\276\324\034\221\273pt\031;\351\\\216>L\024\216>\335\274\"\276\312\030\212\275\251i\256\276\276\247\201\276\013\334 \276\272C\320\275O\267\227>\337\020\343\275 %\352=y\321>\276\345$\201\276\373\'\004>\r\177B>\203\346\212>\031\352\017\276\375y\206<Ku\260\276\251\240\250>6\374[<@\031\332\273\r\370p\273<Ud=\3566O>u^~\276]b&\276\353\203}>iB\217>\352D\264=J\312m>\005\371\204\276L\037\230\276\352\223\337\275\006\252~>\350\243\216>\204\367i=T\n\303;E\331,>N&\275\275\324\217\253\275=\\$>\353\276L>\330\025\340=Go7\276\261E\232\276\203\254!\276\366\251\265>\364\014\206\276\252e\247>FfT\276\334s\232=^\207\204\276\3511O>K&\r>Jvi\276\014\2667\276\327\202D>y\324\213>\204 \320;\t\341\007>\014\213\231>\214U\315\275\366\030\226\275\336Q\313\275\206\204\302\275\202\251\256\275\320\010\002\275N\275\270=\214\270s>\354\334\232>N\033\257=\020\016\033\275\332\367\306>\213\001+\276\237b\027=L\025\205\276\002\361\223=\246\306\202\275\236{n\276\244\027)\2761Z\r\276\025\234\211\276\226\'\227>\020\026U\276\3047\243>>w\266>^\365\247\275\344GD\276\271m7>JO8\275;\235\215\276\276\353\272=>\310/\276rJ\372=\t\223\330<\236\372\262\276\344\215\356\275\266\324\332\274\332\251f=\230\021\235\276\205\317\t>\322w\315=)\354\200>*\311G\276B\223\205>\026N\210\276\213\332\'>\371\247\236=gP0>fK\203>4ie\275\331\027\351<e\302\005>\006`\245>@3\311<y\307L>\236^\247>\266\212\203>K\034W>\020<g\276\256L\217\276\037\275e=Wy\243<\337\020P\276\010\010\200>J+\260\274\264\276B\276@v\336\275+\211N\2762\270\177>!%\344<\300\364\206\276\254\213i\275\222\271\276\275Jpr=\3422h\276V>\245=\016\016\324\274"
      }
    }
  }
}
node {
  name: "decoder/dense_3/BiasAdd/ReadVariableOp/resource"
  op: "Const"
  attr {
    key: "dtype"
    value {
      type: DT_FLOAT
    }
  }
  attr {
    key: "value"
    value {
      tensor {
        dtype: DT_FLOAT
        tensor_shape {
          dim {
            size: 24
          }
        }
        tensor_content: "\000\000\000\000\304T\301\273\220\022\003:C\215\227<\252\007N=\000\000\000\000\242\202b=U\304\302=\266\354\036<\000\000\000\000\033\344\203<\240\213\333;\252\231\031=\000\000\000\000\3144\357\273\000\000\000\000Qx\213=j\314n=j\212\016\274\n\241x=\232!\016=\032\006\001\275&\240\t\273\322\016\034="
      }
    }
  }
}
node {
  name: "decoder/dense_4/MatMul/ReadVariableOp/resource"
  op: "Const"
  attr {
    key: "dtype"
    value {
      type: DT_FLOAT
    }
  }
  attr {
    key: "value"
    value {
      tensor {
        dtype: DT_FLOAT
        tensor_shape {
          dim {
            size: 24
          }
          dim {
            size: 64
          }
        }
        tensor_content: "\004q\024>\236L\335\275\344\024\200=z\2333>L\322;\276,\004k>\030\362\351=\346I\261\275\3702\360\274\246%\253\275\340\365\206\274\372>^\276\221|T\276Q\241J\276<\032\317=\204<b\2764\364:\276z\210H\276\020K\353=\300\372\354<\202\375\231\275 9\333<\271B\203>\372\360\224\275\2203W>\207d\202>\354\263\007\275F\316Y\276|_\303=\t\004E\276\366\264\t>@\003Q<\3428w>8\327I=\2545\277=$\327\242=uU|\276\nHb\276\264\372X>\264!\032>D\006\336=\030\na>\200\222\272<\254,2\276 \275\345=\360\352\034\2752\224\037>B\330S>|\354\201\276\220w\315\274\334\3652\275\010\212E\275\260\033z\276\254\r\033>&tR>\246\330u>\354\357S>\242\231\347\275Xq\025=\350\241\324\274<\233\220=8\263\000\275),\205\276\372\274m>\351$\021>\344\020|=\324\212\251\275\204{.\276z\337\022\274\210\026_\276{\271c>\265\003,>\320r\343=f\307\321=hn\210>\027+z>\340\315\026\276\000I\351=\027\372.\276T<\222>$SX=\245w<\276\233&T>\250{<\276\236\321\276=h\214>\275\022/\261=\310\t\237\275\244i\202\276\\g\350=\232\004\177\2768Y\332\274\370\313k\276lm\257;?pj>\265R\235>\253\215\201>\206d\243>\376\0003>\221\200f\276\016\2267>\300\000\204<\353\203\026\276Q\r\005\276~\307\240>C\020 \276r_\352=2\010\331=\"\301\271\275\006\305\205>5\374F\276\010\342\335\274\372{\311=\251\"V>e\317\205\276\200\227\356\275\272\366f=\372\332\342\275\231\344<>\332\256\274=08\220\276\363\337\276=\306$\313\275}\242\232><l\236;C;\034\276\331,-\275\235\316\031>0\362\350\275\"46\275\004\237$\27590\200>\344h\235\273u}\007\276E\310\211\276lB;\276\342N\327<\203\304\204>\360\230\323\275N \256=\"\251\037\276\330\030\202\276=$\022>\346f\024\276]\006#>\\.=\275\262\352\245>\016\020@>l\252[=\256\031,>Lub=\242\326\366\275z\362/\276\202\254\207\275 \335_\275Q6K\276\3654\024\276\343uy=r\366@\275\374m\266;\334\246\377=\271v\224>\300\241n<n\322C\275w\007H\276\3207!\275\326\241\216\275\010l\303\2749\200H\275\334\010$=J\316\231=\216.->\010\244y\275\247\221<>\302C\210=\314\222`>\254\356;=[\227\035>p\366\023\275\352\222\255\276\354`X\276\324\232\242\275t\346q\276\016X0>\20785>\326\344\233=O\250\271\2753;\027>\252\361a<\322f\361=\253D\031\276;u\240\276\'\232o\276\241\302\326\275\204.\216\275\252\027T\276j\321\337=\027\366\307\275\305)n\276\217\362\001>\210\372\261\273\335\3241\276\200\004\370<\366|\241<\330\3559>\230\317\002=\347=C\276N\264\215\275aF\030>\255\252\255\274\261\333#;3C\n>\270\252/\274\234t\216=\266+\227\275\023i\303:\250r\002= \022\314\275 ?T\276\346\314\232\275G\255\205>\311N1>\2711\244<X\372y\275R^a\276i\210\243>\276\003t\276j\005S\274\032B\013>d\221\247\275YDA\276\317\376L\276c6:=\022\371\203=\037\tH>!\332H\276LW\021=\256G\272\275\261\306^>b\234\272=\3158n>\274\031\227>t\205\310\274\032E\n<2\346\366=N\261\005>\366,\360=o\254\223>8\264\374\275p\247,\276\2536\034\276\326\315\177\2764MM\2747\317\254\275\224k\361\275N\300\362\275.\313\006\276v\032\267\276\276\306r\274\224-H\276\354\370E=\312\247\252=\220fV\275\235\322^>\2745\337=\373\365\206>\325\272q>\214\034L=\010\312{\275 \312@<-\243\n\275\255\242P=J`\210=O\337\206>\"t\240=\2739l>\033]\201>\230&Z\276DG\032\275p\000\365\273P\032\204\276\304l#>\200\270\374\275\024)2\275\026\366\366=`8\036=3\315R\276Dh\262;\010\026B\275I/*>\242o\207\275\022\367\271=\354\336\275\275\340\271\037=\375\322h\276\371J\241\276\344\341w\275!\337\223>\221p5>\257=\245\2760\241P\276\t\000\250>E\270f>K\365\350\274w\0270>\241\257E>\235\332V>\305\300\013\276&\350\022\276 \360\324\274\367D\005>\3225\200<\221C5>\241\273\277=F\'\235=\213\2004\276\314\032-\276\177\227\270\276$\263\014\275\272K\236>\264\343\335\275\340\013\311\274pK\247=\254%\345=\323\237I\276\320\220D=\340lh\274\200\264\n\273\242\372\025>\300\324.\276\226\271V>,\\\021\275\246\315l\276\240fM>\240\017\r=\276\363\303\275\272\214\375\275\004n\r>`\003\211\274\240n\226\274\371\010\202>\350\316\">\240\017\232=\002=v\276\235\260=\276VR\034><\300\257=\230\'C>\320~\220<=\006l\276`\354*<\263\356\r\276\246\177y>X\016S\275\020V\344<\004\321\266\275\204\306\244=\216R0\276\000<,\2764\237`\275\264\302\r>\355y;\2760Q\316<^\305t>\022\317\217\275\034\220Y\276\311\334\002\276\236\266\245\275@\"u=4\226P\276B\251\221\275\370\001q>\024j\260=\246\337V>h\256\010>\310\275\247\274\010[\245\275\266\007x\276XqI>\232\342;><\"\276=\304\316D>\350\345A=D\2620>z\003\357=\327\205#>%\016\035\276\200B\\>\242\031\363=\360q\353\275Lr;\276\346W\367\275L\224X\276VP\333\275\250\231u\275\214\021Y=n\177\003\276Z\371\"\276\3368\217>\312\365\336\275<\363T=$A\266\273L\243_\275\242@\204\276fx\263<\340o\032>\344\212W\276G\345|>\237\305\001\276\354\331\036>|\n\257=\254\\]>,l\322\275;\232\010>\001\217\033>\201\215O\276\264\030\271=nV\265=@:\214;\254\242(=&Sr>,\030\232=\273\270&\276\371i\">\377\215Q>\224:\"=\253\212\000\276\346 5>\201\342Q>\3723s\274g_\r>\266\230\253\274\214\333/<kJ~>@\242\254>re\245=\027);>\245\216\025\276\374\313\320\275\301t\245\276\317-\257>\344\007\242\275\353\371\031=\034#\211\273\007\006\346=\332s\367=\'`A\275\t\006\203>q\303\233>j\347W\276\200U\031\276\036\200t\276\347\254@\275p50=#\004.;}\303H> \013\027>\246QW>\345W\240>\355!\354\274\264\021\\\275\320Hr=\340\241\202\276\220\266\325\275I\2219\275LC\025=\320\333\266>\321\261]\276@v\233>\214\334\260=\032\257\273\275?\242\034=\300\025e<h)\252\275\272\0160\276(\272\217=|G\021\275\233B\036\276\036=\265\275\334\304,=\326\327O>\262\203\263\275P\201C=\'{\200\276\336\235[>\2307\203\275\314\026-\276\315\017\025>\021\217->\251\013!>y\367\\>ZD\036\276\242K\320=\007\036\014\276\262\276\347=\330\006(\2765\357N\276\033\341\002>:\234\211>\253\220y\276\332*\271\275\324\243\300\275\230z\371\274d``=\371NR\276\245\241M\276\321l\023\276\334k\344\275J\222\240>m\343F\276c\337\002>l\003\246\2757]\013\275\336N\303=\314%\\=\244\372\020\275\036\330\234\276\300\276?\276\'t\t\275\346\362\242\276X/$=\243\316\331\2754v\304\275\371jA\276*o\221\275V\336e\276\016v\200\276\265;\200>V\026\226>PG\206\275b\323\210>Wc\030>\350\006\223>\354\236\030\275\314s\254<*\254\213\275 vo\275\\\316\345\275\330fJ=\276\"\330\275p\275W=\007}\275=\351\213r>\244?\356\275\357\240\007\276y\034f\276@`$\274\347\353\n>\322N\314\275@W\204\276\314\356\006=\231RR=z\350\365\275j\027\201>b\001\217\276h;\265\275\330\210\004\275\302\221\370<;\3065>.\363\235\276.|\222\274\242I\370=\357\333\021>\216v\363\275+\221n>\244\357\n>\313\215h>|\356\214>\216 \231>\352e\327=\335\302B\276\276\014\245=>\266s\276\264_\033\276\016X\225\275\225\320\314\275\356\334z>\200\334\'< \204`<xE\250=\016\341\">\264\250t\275\264\313\312\275\376*W\276&\2670\276X\250\262\275\356VB\2762\244\"\276S?\204\276\324\204\300=\320X\365<$v@\275\320Qj>\300\'+=\257\350\200>\324\033\201\2760}\307<0=W=\320\361\215=\270\332\261\275\274\217\364\275\225\350a\276\356\244G\276\304h[\275\240PR<e\310p\276\270Cc\276\340\204\256<\2609e>\024\202H>\000\023\025\274qZ\204\276X\225S\275\340\351k=\366r\">4\025\347=\314\227\007\276HNI\275\342\345\305\275\"`g\2760\331\230<\315\263,\276\335w\000\276\360*\236\274\024\226\020\276\336.-\276\030\364,=(\204!>\272df>@\341\000=\020\010z=\230\267X>H\3221\276e\347#\276\032u\001>\004}\305=\220K\035\275,\2721\275a\303V\276\360\010\313<\223\210\233<f\222\264=}\266\017>\203W\001\276_\330\020\275W\254\177\275\211\t\036>\036L\353=\275~n\276\000\342\232>\236\364\210\275\002\242]\276\374\2342>\n\221j>\305\265|=l\\\212\276\nb\263=y\321\216>\346u\200\276U\352\212\276q\347a>\247\345\026\276\325+\022>\260\311\027;\010P\363=\017\207u\276\342\223\033>d\004\267=\354\316\220=\356\202\325=\374\226\363\275\361\355/>\024)i\275\263\203;>48\202\276\215\214O>\3136\030\276\373\204O\276r\223\237=[;m>>S\202\276\236\260\373=_\026\n>5\000\336\275n\202\311\2753\014(\276\317\235\022>i\226\004\276\3339\022>\026!\002\276\272\236\344<\001D%\2765\366\200\276\204\330\236\275\347\025\306<\275oe\276\327\301,>\303Z\177\276\204\030[\275\023\262\224=\360\257\257>=\220@>\226\002\203>*,\021\276_\350\213\2767T\"\276\272\001\365=\000~F<1\006%>H?\216\276\302\257\362=\216j\317\275\025\014\212>\021\021\005>/O6\276|\257\277\275}\356\203>h\205\213\275$\313B\275\272\255\314\275\004\314\275\273b\311\222>\310,1\275p\336\225>#\010@>\r\300T\276\232\235\302=\013V\004\276\216w\363\275x\354\322\275\230p&\276\230\274^\276\236\236\211\275\364\264\333\275]\023\r>\345\261i>\350\264\354=\251\230\214>\212!p>\r\024\220\276\315\006\203=\030\350\204=+\3513>hdW\276f\004@\276+B\352\274_J\n=\021~\006\276\314%!=\023\326\016>vi\242\275\356\t\013>2\270k\275\005\303\254<\277\211*\276\326\275\300\275hv\354\2756r\315\275\210\326!\275\204vg<\010\330\002\276\221\026\367<\374(\361\275F\357_\276\254\350w=\247\277\023>I\304K\276\301\333\023\276`\377\365\275R\302C\276\220\327\217\272\325\3631\276\276(!<\226L\371=\275\201\177>\306\237n\276\374\210K\276\220\262\252\275P\262\243\276\235\321m>\020`@\275\340\366\212=\200,\014\275\366\347\343\275\340\302\016\274I\320X>:\006\372=\374\367P=,F[=\316(Q\276\\D\254\275\0021&\276\336\252X\276`\213\013<\314\215\202=\312\221\256\275)\350\324<\263\3542\276\204\325\024\276\223N5>\004\214V\275\r\nw>4\217k\276N\324\367\275l\370\'\276\304\366\304=\311\366\202>\247e\227\276\\\312\253\275x\3140\275Q\373\t\275\361=\000>5)#>\035\321\021>5\022e>z\002\302\275Js\251=k\315\010>\265i\232<\002\300\315=7\3304\276\200~\372\273Dhe\275t\262~\276\256\374\251\275S$*>\262\203\364=j\222|<\034\177\325\275{%c\276\364\263\235>&\227\022\276\224\310\003\275@\306&=\3565\304\275\300\005\311<n\3657>\222,\334\275\312CB\276\002l\032\276zFc>\256Xo\276\035\3714\276\220hV>\234\3140>\020\315\340\275\350%>>hq\211=\202\356{>\000: =\\\274k\276\344\2547>\303\\\022\276\3608y=XG\273\274jK\014>\177\272\035\276\025\227@\276\034\342\253\275|4^\275\230\023\341\275x\2261>\035]_\276\000\214\013\276\035\375g\276\354\0222>#\217\002\276FX;>\332\274X>\205\3451\276H\006\020\276\330J\214=\244\005k\276\343\336z\276P\267\005>\260\343\307=\032\257z>\250O\324=>J\252\275\3566y>DH;>\204\032\247\275p\210\363\274\206\216w>\350\345\200\275\000(\262:^\324N\276\354\206\343=\372G<>\010\276F=P\267\217=\200\365(>\316^(\276\036\216\325\275\257\361\201\276\020\017\036=>s\360=\350M\247>\210S\215\275P ^\276{\365M>\215R\324\275\332{\336\275\347\317+\276\210\003O>.\372\332=\177=\024>\243M!\276\352$\210\275\200kv;{\025\227>\300\224\330\275\353\227G>\024\204\023\275d?1=\224\213Y>\027y\020=l\013N\275G%\010>OnZ>\200\203\016<\376\177\310\275\260yy\274\210\313C\275]\240\003>]#1>\361\236~\276\344\200\267\273\000\002\332;\377\316\004\275\330l\246\275%\320G\276\316/\035>\310\2601=\016>\323\275\200\275\177\275\370mg\275-\327\202\276\361}\000>~\323\345\274\026,\212>\025\003_>\347\226*\276$\264\312\275\225\343\021\276\030\000\236\276\232\2139\2750{\254\273\313\200k>\302a`\276\232\230\356=C\033!\276\376\333\244=l\255\273<wV\347\274x\217\231\275]\224;>\244_{\276\246\036A\274\354\222\334\275\350\351\037\276\027\374\203>\260\323M=X\321@\276P\235,\276n:\331\275\310\237\253=pR\346\274\342d\221\275\210\3150\275([W=L\327\203\276Z*^>H\250>=\354\010<>\336\224\\\276)\022F\276\370\306\316\275)\215@\276\300\025\'>\200F\204\276\300\364\005=Pok\276\366\222\365\2755\210\030\276\nAu>\\\321\027\275\370\273+>\000\320P\274^\324\375\275\262\'\034>\274\006\000>\360\325\337=`\310^>\036\361\376\275O\327A\276~R!>\334\345\371=\300\035r\274\3207L\276\024\362\025\275\226\017b>d\360\022>\220;\360<\340yC<A\tX\276Q\005#\276\376\373k>\020\200\202=\216\327\213\275\262Ey>\254\343:>\230\245;\275T]8>@\016\223\273x\303L=\274\313\312=D\225U\275\211\000\002\276\200l^\275@4\273<\352vD>\035Y6\276\000\343\030=qy\251\276\336\024\202=H\014\001\276l0\236\275m\016\005>\017\344&\276S\021\232>\305\\R>d\204P=G1E>\353\\8\276Z\003\217>l\273\001\276\361\275#\276@j$\275\315\010]>\254\232\273<\246e\245\275\023\265\255:C\347y\276%]0\276_\220\013\276\216\367\237<\214\355V\275\023V\202\276\316\225E\2762\345w\276`\204\242\275\017w\200\276&\225\336=\003\254\035>\301\034G>3M\t\276\273\367U\276\210S\031>\244\332\014=\252D\026=4\257\242=\30108>\030\240\031\275Mjp;\356O\311\275\305\235\026>\376\343\014\273\346\322H\276\246\266\202>\005\216G\276(\335\341\275s\214\022=G\007<\276\277s\026;X\233\247>`.\305\274\000\310_\271\364\273\\\276\025\332{>G\347)\275\330\213N=xA\211>\031\316/>\3715)>&F\211=\027bA>-\354\221>q\310\201\276!>6\276\336\234\245=\202!\032>\374*\214\276\255\373\t>\\\016V<[\273\007\276Si7\276\2144\221\275F\376\364\2740\324\032<r\261f\276\222\200|>\213\235-=\226\263K\276.\231\244<\357\220g=\0018\006>\311\031R\276^\260:<0\273\020=Q\274g>O\272\262\276\204\024\320=\255\332|\276\364K\240\275\216X\224\2753\310{>\333\304t\276B\014\201=\010n\204\275\244\302E\275c*r>\n\026\227\275\2277y\276Nl\023\2760\227r\274\312\232\252\276M.\026\276<Z3\276#\023\000\276\332N\210\275\236\224\000>\274\376\211>a)\237\2768\276-\2750\035\342=U\023\202\276\025\213\001>U\251w\276\026:\000\276\326\235\253=\300\336\266=\234\331|=\310-C\276\207?\201\274\344Zi>\374\t\203\273\220S,\276\307w\000\276LJ\036\276R\034\320\275O\345};\3371\234\276\317\364w>\244=\257>V@C>I\266\304<gc\006\276\354cb\275\30773\276@\202\305\275\333w\025\276\035x\360<\262\226\320=j)\200\276\256.U\276\325\035\034\276\232\306&\276)\262E>\200~\305<\000\255\242>\241J\361<\226N\237\275D\314n\275\235+\200\276\262\241\261\275n\320\357\275P \221=h9F\276\202k\312\275\270\030\364\275\336\371\310=\365@U>\034\365\243\275pNz\275g\'\024\275%\322e\276i^\016>\201\223j\276\n\274&>\241\375S>\311\262f>\363\333N>\250&\265;\202\303\236=$\362`\276}\365{>W\226V\276\\\010T=)\027[\275\252\351\241>\3744q\276^\"\303=\224\313r=\325fe>h\007%>\005\3777>&\270\225\275\224:B\274\242|\371<?ON>\266i\201=\237\262`>I\265\017>\003\014B\276\273ft\276\0201\211\274\227\333\241\2748\351\001\275 F\357<<\216|=F\2727\276D\'\351<\020\212\027\275\313\005\200<\032\225\325=\023\257W>\204\r*=\240\226\025>\221\013\004\276AU3>\n\005\353=\277t\'\276\026\017\263=5 R\275\270F\004\275\357_\232\276\332 \330\275\346u\370=\021\224|>\300}\376\274\3222d\276}eq\276\246\341\345\275\232\020\\\276R\313\372\275\261\306\224\274\321\313\"\276\024^\000\276\rEI>.2\314\275\005\2408>\360M\032:F\310B\276o\263>\2755ZV>\330p\312\275\246(\276\275\027\261w>\310O\206\276\303\253\310\274\312g3<\265\245@>y\243\213\276\0225\330=$O\262>\336A\346\275\232\206\362=FSm\276\2263\361\275N\377\266=\365\025\014>\343-a\276\200\035\201>J\006\014\276\2629\220>V{\222=L\350r=\221N$\276\321!\003>z}\371\275\226{\232=\n\376\247\275\342\307\342\275\030/\203\276\313\361\020\276\234\231\362;\034of\275\264\375n=\226)\331\275\226\336\324=\253U\210\276\250yD>\034\230\r\276\2415 >\240\230\352=\304\254\224\2756\364\242=\311\330X>d\035\277\275\363\022\275=x\270~\276\256\326\232=\232\261\225\274\252UG>\344\233?>\264^\320\275\006\304\007>\324BU>L\225)\275\033\252q>\001\023\227=\330tN=\t\211T\276(\'\251\274\034#\353;\330\331\373\275\210;-\276\032\013\200\275\314P\305<\226\337\356=\352[\361\274\375\303U>\370W\250\275\356\r1\276U\357A\276r\227\276=\221\356:>i<\023>\304\3354=\3457\223>D\272m\275\010s\252\275t\237\342=\265\214\202\276\331\341\010>\303z9>Cl\226\276\300`\237>\221o9>\356\366\342\275m\355\277=\002\256\373\274\305\3347>\205F\'>\316v\274\275aI(>\000\343\353\275o\211\202\275\227\314(\275\322\034\345\275c\335.\276\273RO\275\321\366Z>\\[H\275\255\266\207=\220\347\216\275O1x\276\302R\202\275r\334 \276\374\217\317\275\274{\256\274\312\221\316<\022\272\210\276\241\355\222\276\370\372H=\376Y;\274\354\213\026\275\300\301\031<4\315\250=P\317A\276\324c\354=%8(\276\034\025\\=N\000\356=\377\315\030\276GN4\276\264p;\275\200I\035\276\023\257~>\346\306\333\275\276\200\335\275FO\317\275\200I&\275{\016\006>C\214n\276\215\220\031>\036\n\225\276\304w\275\274?\274f\276\305\034k>\370\250\241=\3465\246=uz\232>?\313b>\261]7\276\020\300\007\276\270E\234=,\264\032\2764z\231\275\036\232\'\276\203\243\003\276x\201Y\276[\010{>&\334\305\275\374\307\214>\023\003r>\004\177l=*\262\024\276\336\215\234=\360\345\205>\017\252v\276\3651t>$<C\276\177\264G\276\332xa\276^\017p>\317\202.=P\215}>\235\223V\276\350\307\266\275p\205\203=\201w\">\027\231\236\276\246\301\235=\266\305\021\276\232\202\232>8\346c<\331\032\014\276p\332\371<\361\327\025>\337\376<\276|\017\037\276\010c\032\276\214\247z\275$\316\266=\323\207<>ty\334<\033\227\033>#\310=>\340\232b>\351q<\276\342),>\266R\273=\346~p\276\326I4\276\206\366\320=\212\254\336\275f~\317<\274\356==\205^ >X\371\035\276\347\342\036>\301A\007\276\246\347\200=L\272\000=@\267\207\276\030L\207>\201/\305\274\306U\311=\032$\254=,\024y\276\252\254\351\274\337\221H\275\217Q\023>\265\201\323=\'\217,\276\016\252\337=\344-s\276\327`5>\302s\355\275\361\211\312=v>\251\275\216\321\034<\231\256\240\274\305\275G\276\227\301\032\275\222\177q\276\336\334\361=\324\021\024=\345\025\005\276F5@\2735\375\202>\264M2\275A\257m\276h\347@\276EA,\276\236C\324=Q\311\236\276D\035\207\276\n\304\223=\010\001\217<\366p\327\275L\256\373\275M&=>\022\032\244>\026\024\022>9lM\276\222\203^\276\035\220]\276\232\350\344<\324\346j=\263\016O\276\230\010\211\275\254\325\000\276\307\213\223\276\304\256\201\276\246{p\276\300T\247<\335A\204\276n\t\303=\034\331\210>\372\240\335\275\201\001\016=\326\263\304=`\347\215\276\351\026$=,e\304\273\337\240\232\274\347/\240\276\356@\222>u\373\022>O\261-\276|\014\237;\352a\203>\355\237z\276\271VC>\312\021\253=\227Ot>\024RT\276\213n6>\206\022\243\275\372+ =-\242D>\022\010\325\275q&.>"
      }
    }
  }
}
node {
  name: "decoder/dense_4/BiasAdd/ReadVariableOp/resource"
  op: "Const"
  attr {
    key: "dtype"
    value {
      type: DT_FLOAT
    }
  }
  attr {
    key: "value"
    value {
      tensor {
        dtype: DT_FLOAT
        tensor_shape {
          dim {
            size: 64
          }
        }
        tensor_content: "\365\230\314\275\264\250\244<j\360\005\275\000\000\000\000l\212\016\274\365\230\314\275\212NQ=\362\3762\275\020\267\321\273\332\223\007=\332\331\254<1\277\216=\000\000\000\000\000\000\000\000\322|P=Q\346\277=\362\307\030\275\014\037t\274\304\274c<v\216\344<\304T\301;\000\000\000\000\2223\"\274\236\003g<\000\000\000\000\000\000\000\000\000\000\000\000\000\000\000\000E\025\235=\266{r;B R\275\362\307\030=\000\000\000\000\344\035\247\273\000\000\000\000\021\006\222=n\005#\275\000\000\000\0004p\316;R\241V\274\n3D=\325\351\225\274\304\254z\274\365\230\314\275\312R\026\275\216C\013<\021t\306=\tJ\214\275u\017\213=\271_\207=i\t\371\272\274\000\336<\302d\252\272\000\000\000\000\222\234\"\275F\005\243<\217\357\247\274l\212\016<\230\317\325<\352B-=\346\r>\273\216C\013\274\031\371\261=rj<\274"
      }
    }
  }
}
node {
  name: "decoder/dense_5/MatMul/ReadVariableOp/resource"
  op: "Const"
  attr {
    key: "dtype"
    value {
      type: DT_FLOAT
    }
  }
  attr {
    key: "value"
    value {
      tensor {
        dtype: DT_FLOAT
        tensor_shape {
          dim {
            size: 64
          }
          dim {
            size: 128
          }
        }
        tensor_content: "2\234\210\275\340\355L=q\254\211\276\270\321X=\014\243\003>\262\240\336\275<\006\035\276=\023\373\274a\336\214>\217=+\275\252\004t>\270\365\025=\334\305\205>X\315p=\024J\0069\350\033.\275\200\371m\274R\301\351\275)\332\374=\230\026\341\275\342q\241\274\221\2102\276\177\334`=\216\336\270=M-\201=4\305T\276/u\314=U3\346\275\367\301\001=>4\006\276\330E\002\2751:D\27679\000\275\375,\241\275\276S\376\275\346\220Y\275`\327\037\2758eX\275[\232v=\350@_=\240\215\223=\216\347L\276\321\304\350\275J\277m\276\227\336\022\276\000\210\363<\270JF\276\033\316W\275\222!\303\275z\367\256\275$n\020>\214T`>\215\214(>\336\362\375\275u\337t\276\220\237\334\275\371tT\276.U\262=\260\0145<\216E\027\276\020I\301\275\n\367X\274l\224#>\376\304X<\352@\251<Xo%>&\255\230\275\261#\000=\347\005\254\275\210%\210\275\022\321\200\276P\2148=4\325E=\214\342\200\276\306\224%\276\322Q\377=\340+\205<\304\003\014\275\312\362\303<\266\242\036>\026\373\374=\305a(>\226 \334=\236\013\203=\330\337\271\275\306\213\341=z+\317=\274rb=\020\260\231\275\201\272\023>\034\377\007\275\260\220\027\274\242\236\316=\330=}\275\277\300&>\257\235\013>c\264:\276V!@;v\344\207=\324\305\000\276pL\346<\246\334N\274\010\277\374\275\370:\227=\020\003v=@\001X>\017x\\\275\220\273_>\317l\016\275\265w\202>\354\360\240\275y\206\n>g\337\013>\024t)\275\352\265(\276\255\025\207\275\332Q\274=l\211 \276\225\3343>@z\177<\347\276\305\275\205z\r>\204\030/\275\200\230\210;9Y\214\275\320f\322\274T\251\371\275\304\250Y=%F\304\275x&p>\374w\255=k?p\276\r\026(\276\020\210\026<,\231\200\276\316]u\2737`\034\276 F3=\353\252\265<(-\226=:\311\010>_\342\226\275\031z\206<\364\026\355\275\235\355\004\2766A)\276\227[T\276?\243\214\275\344\225\344\275\207\032(\276\360m\325\275v\203\363\274j\334\370\275$0\264=\320\2201=ObX=\234\224\204\275\200\373F<\324WN>\254\305@>\273\250\212\276\274\200\035\276\024<u\276\234\254\316=f\336\243\275j\245 \276\020p\312=\305\244\340\274\333\230L\276\2463%>\250Ws\276jO\273\275\240\030\303\274\303\332b\276d\002\272=\214}\360=\345#\251=\360\007Z>\247\253e\275w9z\273\266(\221\274F\001\034\275\276\333\204>\320\245\231=\3204`>\010OR=\256\314[>\262m\341<\0025\355\275=\244\001>\327\347{;H\356\354\275v\336\243\275z\033\275\275\320\325\366\274\367\203F\275\270\313\313<\026\230\332\275.\351\025>\205j\204>\254\203\272\274\204\303\r\276\005\326\236\275@5\203=\315f\371\275\204yL>\261|\377<\306\207\027\276\254\"/=\036\032\271=#\307\001\276:P\350=S\334\025>\022\277h\275\300El\274d\3363\275\326\353h\275\340Y\031\274\300\004\025<\236>\236=nW0\276N;\316=\360u@\274\025!\353\275`=c>\300\305\022=D\3524\275\2463\206=9\002(\276\277%G\273\0208\211=JF\336<\206H\310\275{\003\013=\332\267`\276d\3009>\243s\367\275\246\001\257\275\3749\374\275\346\266\275=\276\035\207=\365z \276 \274@\274\220\001\274<\376C\241=\032G\031\276\336\352\272=\343\321\034>\2425\234=\343\205\370\275%5\002>\223\345\032\276\275\245\004>\202i\020\276\325d\250\275\370S\377\274W\334-\276\324\004=\275\022\376\270\275$!\203=\335\265M\276<s \276vG\314\275\022Yw>v\026\034\276z\311G\276X\245\017>o\222\241\275\311\206\346=!l+\276K\311b\276\271;%\276\304_\327\275\332\376\027\276\247\362W\276\347\322\t>}UC\276\270\001\306=\203\036\310\274h+\003\276\320u\256;$\276\002=\030\023\320\275\220\365\000>\247\036\347\274\364\202s\276\234K{<\022o\306\275L\216\346;\033k\251\275~\344\252\274\205\027#=\316Y\026>\361\206)\276(\340\310=B\337}\276\277\333\200\275>W*\275m\")\276\250J\005>\202u\213=\317\243 \276\353^\022\275N\023\005=\373|\003=X\004\000>zi\223=\221\367\004\2768l\356\274\260\327?>\304\214A\276\245\013j\276w\0101\276\302\2426\276\\C)=\020\026r=F\013\315\275H\275\"=\322E\'\274\350g\230\273~\372!>d\310\234;\262\002\247=Kc\255\274\031\363\242\275\021\222\266=\217<T\276\020g\t=TsQ\275\360\266>\275\213\301\344\275\254\272v\274:\022Z;~\232@\275\260\265w\274x\221\016\275\325\270\335\275\n^\351=\"\223r\275\327y >\273\210\027>\212~ \276\330#\352<6\247\306=k\364#>EE\224\275;a\035>\024\300b=\270R\237< 3\006\274\360\306 \276\032\371\265=b\267\002>\213>J\276\030\013\207\273\246\222\205=9\216U;@+\352=\025\316I\276\244\247\341\275\352\023Z\276J\220\235\275\000\346)=l@4=\360\311-=\243}\006\276\246@\273=\034{*=\326\213\243=\345=0>\276\314\341=R\325\307\275\264\325\'\275\024\330,\276` \326\275\032\2173\276\331\367\336\275<z\003=\022\001\253=\373$\027>$[;=\200=\234<:<\r\276\334\206\014\275X\374\311\274l\333\207\275\247\262\251\275HW\013=\230\007:\275\366pl\275z\210\177\275\177j\001>\314\276K\275\027a\032>\242\335\376=w\306\263\275\343t\014> U\267;Oq\006>\232k\274=\230O\t\276\300\213\006\275x\021+=\"(\314=H\207\340<\226-\343=q7\032>\376\023\360=A&2>t\263\024\275\016\216\337=R}\231=4t\235\275\206\206\227=B\034+\276U\235\223\275\236a\306=\n\344\261\275\004*<=>\243\372\275\354\033\"=\257\002\030\276`\343\317\275\257g\033\276\202\235\227=%\025\003\276\004\220+\276z\204\311\275\244\314\261\275\254\327U=\230VN=\250\373\006\276\246\026\324=\002\307\325=8\332\215\275$\300\311\275\031\257\030>\256a\313=\220\300&\275\210U\263<\200\214]\275\266\214\307=\002X4\276\264\214y=\360\310\253\275\212M\355=\350\024\036=`\211\373\274 \374\301;\002\276\224\275&\010\263=\270\3043\275\210\201\020\275\226#/\276\320x,=\300i\331;\263O->\333,\230\275\255\201\021> \313\272\273\r\321\351\275\330\027>\275\240\315\002\276\211e\343\275\000/\002<!Y$\276<l\021\276h\275\331<\0300\207\2744\224/\276O;\013>\313T\'>\203\250\343\275j\005\266=\354A/\275G\2133\276\252\245\357\2755V\001>x?3=\220\317\221<A\336\244\275@/\321\275\304KN=F\231\330=\024I\227\275\017[\034>\220Mc\2745\231\030\2766\274\366\275\252\213\277=&\301\024\276Bh.\276\303\210\223\275\364\217\031=\010\370\265<\271P\035>\\I\023\275\020\014(= \344\377\274\332\335\261=f\263\355=\375\257\005>6\\\334=\310\226\351\274\377\310,\276xg\023\276\311\266$>\266\323\003\276\223/)>\240\212\265\2735\r\037>\335\230\036>\014\277\020=*\224\200=\374\240\310=\320\232]\276\025\305 =\212\030\272=/\266\017\275\206A\207=\024\204\224\275\217\362\013\276x\207\322=\226\014\337:T\022\017=yp\034>L\244\006>\177+\026\276x\354\301<^\235\017=\023\350{=\030\234\322\275o p\276\274\255\003>\274P\371=~\351\200=\356C]>\274\356#>\221\322\244=\337\315W\275Hy\232\273\220\233\037\276\211\n;\276\\)\244;\000|z\276\200\255\234\274\302\021\031\276\340\346\316=+%\311<\017\363\243<(Qg=\026\021\324<\366\246\204\275\256D\270= e\221=\037\032\005=@\345\006\276:\332V\276\234\251\237=$\\\201\275<\031\371\275\333>\030\275B}c=\n\216\247=\340\360_\276\005\375!\276\0132\005\276=:4\276\360\343\"=w\211P\275\255\330Y=\274\365\t\276b\331\023>*\265y>\206)\216\275\370\005c>R$\005>\373\267,\275\177]\250\275$\244\234=\234\350\031\276\340\333\n>\230\'=>1\374\274=\350\033H\275\303\036h\275\360\335L<\244/6\276\024j\200=Ay\006\276m\277\333<|\325\001>\330\377\352<\002\265\267=\237A\277\275\325\377\014> \245\036=K\021\004>\327\020\374\275V\277\353=\302\222\376=:I\344\275\366\250\357\2752E\314\275\320\215\301\274<Ku\275\027w\325\275\357M\036>\354\232\030\275\325\233\311\272\253\321\t\276\346\361\267=(g\206\276\003\227\033\275g\007[\275\351\353\321<\215\032\006\276~h|\274d\200\377\273\344\234v>0\377t=g\007\322\275\321\332\033>\270\311\370\274\300\226\377\273\300\317\275\274\244\257\200\275E\324\022>`\027T<9\'$\276\347\033%>h\260\314\274\300\260m;\037c0>!d#>8s\214\274$\361\030\276 \314:\275p\325\017=B4\370=\324o>\275\255\234\346\275X\014e\276\022F\247=\261\037\025>\002\253\213=n\325\347<\244\325\366\274\246\216\007\276\300\272\311\275l\021\207=\204\221\221\273\216!\235\275\3226\030\276\230\354]>&\026\312=\243\212\312\275\300m\340\274\022\274\352=H\236[=\271\017\023>\\\251\221=\007\320/>\322\214\317=S\231\024\275\020W?<\034J\033>6Z=\2744m$\276P/F\275\322\326\037\276\321\361\342=j\266\205\276*\357\023<\320\201\355\275\313i\307\275wN3\276\020\205a=&\237Z\275\2008/>\374d\203=]\252\022\2769\357.>\232\240\216\275,a\273\275\304\353\032\275L5\204;{r\246\275\300\r\344\275\177\022\345\274 \262Q\275fk\303\275\311$\214\275g\255n\275\032\270\334\274\2304|=\324Z\001\276\220\317d>\027\307d\275\000r,;\3608\257=\036\365I>(#\203=\325\222\206=\344K[>\300\373\331;x\203Q\275\261\274\274\275\240\335\022\275\014\177\232<\230\375\'>`_y=\247\002*>\333\030}=`\204\213;\362A\331=&\253K>\3230\023\275\364\314S\275\314\272\251;lF\375\275\353\014\">*\241\310\275\300x>\275\260\0135\274\242\377\367=\001\200\224\275\321\233\005>\221\302\004>\217-0>\000\365\013\2762\376\363=\023\2110>f\005\253\275m\0214>X\023^\275`\267\206\273\001#\036>%\327\r>\222h\212=\001w\026\276\302\310\235=\230t\032\276T\376\225=\322\217U>r\211,\276o\262\371\275\252\213J\274#5q\275\020@V=\343\255\005>\351\365%>B0\207\275\210\254(\275\006\324\233\275~q\360\275\310\r\317<.\344\372=]\201%>6\3001\276\220\337\244<62j\275U1\211\275J\264\342=Lo)\275\030D\214=F\354\314=_\214\"\276\000C\354<BD*<\334\325\033\275\027,\210\275\016W\261=\315\211\000>\367\031\035\275\367\201\013\276\235P\004>\020\200\226\275\360\276\200\275\226^\005>\2542\250=?p#>\230\276\026>vA\326= Q<\274`Y\374\275\000\373r=\271\272\223\275V\231\272\275\227}\362:n\027\341=(\240{=G\361D\276\233\345Q\276*TA\275]\344\242\274\304$-\275 \224\264;\324\023\243=`\355[\275\247\016\304\275p\365\216<\203\010~\276H8%\276\2429\327\275,6)>\230\216\n<\344\035\333\274 P!\275d4\312;,|\336\273\264\312^=\367\206\266\275\333\331\231\275P\024]>\263\216\207=\3503@\276\002\034F>+0A\276\024\177b\275\242\371\341\275\004\310\264=i\t\334\275/\367\234\274\250(\000\276\343\027o\276\234BE\2761\373\006\276f\266;\274^\275X\275\337r\025=\244\207\350;j\317(>\357\214\003\275Z\235\262=\241\341\177\276&\220\306=\246C\205\276\215\017\016\276S\300\301:@=\'\275T.\251\275@\312\017=\304s\365=[\014\256\274g\335\326<bT\223=\310Dm=\320\361p<\343\254\034\276ZH\201\275\243\303\035>\004dB=\262\206\256=DE;\275p@%=\332\t\260=Aa%\276\315\255\032\276\332\017\026\276U\276 \276h\245\032=$(\024\275\000\204\2639\2161\310\275\030\374\014=\333\231\252\275\200\'\235\275\021\304\246\275\242\273\351\274\264\232\202=\000\352M=0\013\301\275n\271\235\275\372\370\r>F)9>Q\246;\276p$\200=z\313\325\275\261m\202\275.\210\323=\022\364\256=\235\313\242\275\216x4\276a~\222\275\250Z.\276\270\245\222\274,~\013\276\220\347\022\276 \313\272;F\313\322\275\271\272,>T\233\356\275\306\236\356=F\206e\275(d\231\275\370;\347\274=(\001\275\370\341_=\026\024h<\237\200\025\273\244\357;=(\323\023=\260\237:=\340v\232=\205\'\t\276\234N\"<\353R\320\275\220\266g\275\374\350\313\275\027\340\305\274\307\023\223\275\000I\265\274\333\2040>4\2629\275@\241b<\301\227\r\276O\256\336<Zr4>\r\312\345\275sZ\r>\244\rc<d\240\256\274\240\336$\276T!v\276\3406)=\020\0063\275W\036+\276\262[\264\275\3174\207=h\305\"=\367\033\315<\2544\236\275\356^\001>\3511i\275\020F\027>\312\330\353\275\337\021\227\275\340\226\016\276\333\217\005\276\177\215-\276\240\315\374;\0270\262\274TY_\275\310\217\230\273 T\036>\274\226\227\275\223d\023\276\254\205\036\274\254\217\020\275\300\220\210\272\'T\'=\226\177c>_\216\210\276\254\233`>*\001c\276w\245\001\276>_\020<\256\033\361=w#!\276\313\\\024>\3429\247\275\330\322\020\276\007L\362\275\330\326\t\275*mW>\014\221\235=\220\322\001=y\254\030>\263q.\276x\350\211=\000\334}\275\220q\036\274\265\357m;\250\227\231\275,\230\255\275I\253\007>O/\312\275\367\242\'>a~\305\275\001C\030>\24680\276$\202\236\275\226h\302=xR\035\276Z\003\010\2765\252\006\276\364)3=X!,\275\355\0343>\000H\313: \334\340;\230dU\275R\273\267\275\r\300\002>\327v\202\274\214\212\322;-y\201\276\311\217\031>@y\177=!\227M\275@\033\t\276\350\322i>\256U\326\275\247\332\"\276\360Y&\275\000j8\273\001\024\027>T\227\023=@\3455\274x\313\322<\016\325\316=\256\302|\275(AP=#\225\010>\244Jl=\240\361X=\217\251+>(\255\202\275\335\217/>\016\037\235=\370\304|=\020\277e\275\270C\342\274@\274y;\335\372\n\276\344\322a>J`i\275I6\366\275\000\271\255\272\332\214.\276\3468\251=\235\305p:T\331^\275$MQ=\006\207`\275&\211\020\273\304\032s=l\273\250=h+\205=()\226<\002\037\312\275UqS>\000\365\022=4_\021>\365\214\257\275\300j\232=d\365E\275=0\031>\254\222\220\275\271\005\220\274d9\270;\020\363\203\272h\304e=\354q\033\276\\sX=81\351\274:\341\004\2760\364\226\274\232&\334<X\314g<\300\274W\276\322\177\266\275\022\263#\2764(\230\275\301\205\226\274i\020\000>\032\276\317=\323\264\n>\177A\223\275V\032\362\275\354\353\360\273\032\231\201\275\276\277\320=q\276\210=8S\000=\004;p=\256]\372=\323P\'\276\340GK\275\013\304->:\304\223=M\334X>\243\005*\276\223\205\277\274\003\"\r>\370\016\345=\036+\354\275.\250[\275\245\246/>\232e\207=\001_\021>\273\305\'\276\3164\331\275\347!\236\275\006\026\375=Bz\311\275\360\226I=\370{\220\274\206\336\351\275\373\232&>\313\034\216\275\224\331\251=\335+\3369\3331\016\276C<,>\305\215\025>\204%7\275\253\256*\276\376N\360=\200:\212:\206\026\274=\300\365\304\275\n:r\275\313\027\020\276\004Ij\275\227\"\304\275\214C\024=\274i,=\360L\206\274\026@\364=\303=5\276\374g\265<D2F=E\341\027\276J\346\212\275\220\307\375\274\256\343\255\275\242D\371=3,i\276\250\350\315;}\331\010>\266\207\004\276\254W\314\275\0316\006>g\222/>\354\366]=D\025\030\276\360-`\275\264\251-\276p\257a\275G%\034\276Q\017\000>\300\304\360\275\364\"\025\275\340\227\307\273\216\367\230=\331\350\310\275>w\367=\304\022n=\"\021\263=\226\243\226=P\243C\274\035\201\350<\212\340\030=\327QW\275zX\177=\206\361\370\275\364.D\276eq\357<\362@f>\rm\311\275\204?\253=\204]s\276l\253\371=\375\261\033>\022\224\364\275\272\235\327\275\362i\366=\273\356\366<\361\362\331<,\246\206\275c9\004\275m\207\024=\211\321\210=&\230>\275>\221\010>\334xJ>\320\003\343=\r\001y\275H=[=\000HQ\276_\246\014\2762_\330\275\323\010\200\275Z\307\243\275W\217)\275n\275\226=\265\261$\276\272Uj>p\307v\274\211\347\251\275}\254\014>\030\r\367=%z\213\274\364\006\371=Nq\261=\357l\260\275faO\275xq\374\275\224\314X\276Z\270Z\275HM\001\275H\250!>\327\030$>\020\347\006=\340\026k=\trw\276O,`\276\230\247\001=\345=(=9\347\031\276\336\202\">`\311=>\312\036\r<%n\330<x\244\303=\335\222\214<\336\326\020\276\204\213\272:\225@\023\276\036\344\244\275\210\356.\275\234\335\\\276\006\215{\274\264=\347=\200}\256:\372r8=\230\254Q=2\303!>\340\366E<\302\262\037>8%R\275[\254\001>\010\2738=G\235\351\275\265\323\002>\275\202\t>\003\302\007\276(j#\275PG\030\274\250R,\276\300JO\274\024\214\237\275\226(\244=\301\311 >\024\263\217=\364\2024\276\006\207=>\201\200$\276\013$x\275b\030\324=\252\2246\276\372\035\020>/q+\275\264\003\213=\244\212;\276L\035<>\236ft>P\261K>\210\263==`.\301;\335\375\314\275\253\212\036>\200\355r\274\374[\033\276\236\310\007\276\200Hy;\336e\021\276\315\261\034\276h\261\026=\027\370*>\307\321\027> U\252\273\316\177\272=\020\3332=\307\341\341\275>7\223\275\231r\316\275\340\234\230\274\004g\034\276\247\346\226<3\263\377\274\037\325\004\276\242\310\363=l\245\370\275\266\226\203\276\376l%>\206\022F=\316\005+\274\024\327\222\275\322\\Y\275`<\263=M]\016\276\256\027\201=\254\370\017\276\220\177\336\274&\000\205=\264\324\">q\230\006\276\336\016]>B\033\014>\264\030\265<\352\267\345\275\201\254\026\275p2\274=d\215V=\230\304B=\214\326P\275u_\004\276\224\335\361;\022\002.<\330r\303\275z2\244\275\320s>=d\341{\275b\272\021\275^\202\231<\317\314\343\275\265\276h\276?-\332\274\366\274k\276\326W\245\275\215c8\276\357\032\317\275@aQ=\304#s\276\020\244\335=,\261P=\350\210\270\274\250\001b=d1\363\274fU\202=\022T\225=T4\231=\372&F\276\266&\335=\213\231\240\275V!\016>\203\314\027>\236\372\220\2748\244f\274\264j\274\2738\020!\275*\037+\275<\020?\276\210k\300\275\250\251^=\304\006\210\275\214\016E\275\026V\026<~;?\276[5D\276O\205\002=\366\037/\276\263/\211\274\272\232^\276v\0167>\336n\"\2754\246\332=\000\r\005\274\320\3655\275\300\010 =\322-\345=\031\"\370\275\3552\037>\307\306\006\276\340\223\212;\375\307\030\276\310\320\357<X\346\277<cm3>d\377!\276\240\270v=\3542\331\275\246\231#\276r\246\247\275\306&S>\022:\263\275Y\362K\276\206\254N\276\376\367\237=\246`N\276\311\021\252<\346\3371\276\326P5>\370\225A\276\362x\252:\374\005~\275.m>>\350$\216=^\221\221\2750\024\214=RS\366=\244\177\033\275\307l\024>\223\0260>8\350\307<\334\307p=n\305\354=\n\032\215=\262(\330\275\2400\026\275Z\014\032\276\035\225\000>\213:\017>\326$\275\275&/\035\276\236\241\234\275\267\223*\276\\\007\255\275\375\347\023\276\270\014Z=\262\353\305=\007+(\276\222O >\177^\330\274\340d$>\363\370\326<\212\r\265=\320\2069\275\370\342\r\275x\237N>\324\030-\275\276\356\233=\300)\031>\334\321\255\275\343\010.\2768\360\235<Zp\361\274(\273;>\234w\330=\222k6=\026\026?;\024\035\032\276\247h\247\274\020\000K=H[\222\273\242\300\256\275p\200N=\272\030\t\2764dX>y\213w\276fQ3>I\304\002\276(\340\363=>n\352=\034C~>\002\326\313\275\366\3144\275\032\366\277=\032O\203\2751T\035>Z\341?\276\367A\016=\254\376q\275u\375Z\276\250\\\020\275\204G\323\275\212\300\006>\215\3719\276\206\017\277\275$\312\360\275\030yu>\240\342\272=\214W}\2760\211!<\241\320\017\2768\314\376=\244\316W\275\000\277\376=\200\3618<\2109\277\2750\326H\2764Db=\323\3237:\260\020a=\333\013T\276\035\337\000\276\270;\014>\204}\305=\374\275H<E\342->\232b\020>\2725\325\275\002\017n\275\230f\037=\314\004\004>\310\207\034=JH\305=\352\010\325=\214\257;=e\036\366\275$\0326=\321\020\223\275\275\352\347\275<\372-\276\335\246\037>aW\026>\302\350\356=0\017i\274\006\240\233=\330|-\275\000m\225\273-i]\276i\245\315\275\014\333i\275\254\'\037<\226\204\033>\010\314\204\276\021^\201\276N\013B>\226\255\032<IJ\236=\004\007x\275\231_\234\275\007\336\n>h\240\036=\257\272\001\276\024WC\275.\207\266=J\351\362\275>0\014\276\362\322\247\275\001]\022>\323Y$>z!\005\276\204v\r=0P\007=\241\325\010>x2t=9\217\r\276\t\'\r\276\200\364\227<\262Z\215=\'8\237\275N>\342=\3029\245\275\340\tp<\323\345\027\276\316\235\005\2768\032\352\274\323p\013>\200f\001;\270\222\233<\222\303\313= \230\354<`)\313<?\347,>\031\211\">\260\215,\276\337x$>\246\"\343=\022\277\371=\332/3\276@SO<\014\013/\276S`%>!\213\332\275*8\257=\320$\203\274\334\342\017\276`\345r<\327\2413\276<\351S=\3560\270\275\366\203\302=\240\227\253;\340M?<\334\010\030\276\370.-\275\254\315\000=\231\035/\276\021Y\210\275\256\310\343=`\277[=TJ\210\275\270\322\212=;\251\t\276\226\020\302=\306\336\214=K\361\033\276\202\331\342\275\224~M=\220\262\"\274\253\2003>\200\363~=\260\230\033=\375\260\345\275M\316\025\276_\032\205\275@\037\312<\247T#>\202G\227=\342h\225=AN$>\222L\332=\200\333\307<T\\\222=\036T\377=^\355\244\275\326\255/\276\200\034\216:#~\n>\320\311x\274\214+\036=\\\215\037\2758\256r=\362\235\037\276:X\251=>\351\226\275\251/\036>K\0033>@\333u\274\010\347\225<\260\243U\2743\276\036>\346#\354=\3743]=\300`=\275[\366\020\276&\233\201=\370\003\234\274\216:\213\275\340 \230<\026Aa\275\250\223\033\276$<\204\275\357>\227\275\307\032\022\276\026\340\313=\332\251\214=;|\025>\206B\323=\340@\226\273\247]\206\275,\204,\275\014\351j\275jW\353=0\311U=\315+\016>\307\207(>\251>(><\246F=h^\350<@\225\261\273\306\363\271=L\365A=.9\010\276@\274\341;R\242\024\276 \212\024\276\000\324a\271\014!\310\275\365F\002\276\320\005\353\275\023\027\002>h\271\263\274z\330\256\275\016l\000\276\3672\232\275_\037\004>\310g8\275H\023\345\275\312\352\275=yK\017\276z\235\200\275&\206\306=\267\t\252\275\022\212\362=\320n\007=\312\343\242\275\270 \357<d+Q= \276\233\274\373\035\365\275@\344S\273aI\037>\240\200\370\273V\356\371=B?\246=\260\2649=\024\342x\275f\374\033\276\206\212\355=\010\355\231<#\253#>\246Y\347=s\311\225\275U2\365\275~\355\313=m\000)\276\275e\206\275\200\211^\274\227^\256\2756Y\271=3\3562>h\215\325\275\360\2020<c\3724>=\020\'\276\304\nv=t\263<=1\201\273\275\260\243\274\274X\267\'\275\211|\026\276\250\032;=\367\236+\276\370\363z=\262\315\370=`\341]\274>\r\347=\025X\035\2768N\001\276\203}\322\275\322\233\320\275y\\%>V\316\334=+B/>\221\321\213\275\260\332B<G\007\226\275\010\371\223<<\200\264\275zAx\275lI\220=jl)\276p\370\234\275\367\210->\301\273\313\275\2765\342=P\3343=\201\223\t>em\210\2759\313\327\275\302\263\313=\036\227\266=1\257\n>\026\321\300=\360tE<\006Q\307\275H\3050\275@\2513<80g\275N l\275\300\340\273;\202\000\t\276\241\245\034>\306D\253=:fZ\275\236jc\275\300\247G=\366+\252=\211\267\005>ql \276\370\0326\275=D\353\275@.\025\276d\335\333\2752k\343=X\227\377\274q\362(\276\022\035\362\275\335\270\013\276Ta.\276\235\332 >\021)-\276\370\306\020\276\362\317U\275\036\244\354=\350\327c=\360B\261<\321[\017>;\323\035\276\276yv\275\276c\322=\357\336->4p/\275\342\205\365\275\360Z\013\2748\266\222=\344\302g=0\261\347\274J\242\330=\034\336\225\275\003\226\005>\214{\206\275`\360\275\275\230?\320<S\010\241\275\200\025\336<jW\327=\370&\034>\225\346\207<\216\373\337=\004y\\=\330\240>\275\266\255K\276#\275\351\275\302n\303\275Yx\203>\364\253\344\275%\311,>\272DO>n}\206=\033\324\026\276\360\004\306\274U\336(\276\277\0330\276G\223\016>\000{\252;4h\315\275\3561\021\276\206\330\'>\360\316\227\275\336\213\'\276\212vX;\365\345O\272U\306\037\276\270\334\205<\273F\230\274\200\013\316=\344|\224=\321\244\263\275\337%\026\276\356\351j\275\274\262\334=0\016 \275\300\006\327=\270\014\267\275\246fZ>#\245\365\274&\332\327=\242\232\030\276\3043\214=\320\222\035\275\270\211V\274\262\3111\275P4\237=+\020\212\275\357\004\220\275\004\014\007>\347X,>\316$\200\275\030O\327\274\222\330\353\275\230.S=*S>\276\242\370!>&]\035>\321\n\030>\037^\030\276\031\245\035=\223Z\201>[Y\343<\326/Q<\254\026*=\000\254=\275\357O/\276@\342I<\304b9\276\027\207>\276^\265c>jh7\276X\267\247;-D0>\317\233k\275\360-5<kHL\275\216\370\354\274\212^\367\2753\025\034>\274\246i\275\300cZ\275o3.>\316\276\252=?|\317\275\014*\220\275\376\273*\276\350\230\322<\330\306\351\275,\266U=\260\0257\274\313\177\016>\350\226\212\275\360n\301\274n%\233=\372?\370=P\213\007=\\\n\313\275\332h\253=`\260=\2757\242\363\275\005\216\034\276\210\206+\274<JT\275\212\'H<\375[L\276K\302\341<\3627i>\267\026B\276\306\277\025\276H\334N\2752\313\320=\310\236\256\275\307i/>%\215+>2\363\355=N\261\344=\336<\351=|\370)\275\366)\375=\306I0\2761\3741\2762\013\247=\222\r\370\275P\241\031\276\305 \">^\305\220=A\034\025\276\340\277\313\275\354\363\351=\271X\302\275w\363\352\275\375\264*\276\013\003\317\275\235\211\035\276\034\333\242=\251-\203\276\214\025\272\274\333C\005\2763})>\030D\261<\020\325f=`\206\302;\260*1\274\316]\210=\357\366$\276\320\275*\275\030\2519>`\273\226\275\3168V\275\332\245b\274\014$\223=\250\255\271\275MP\037\276\361X\247<\034\3615>\353*e\275\272\324\372\275\350\361D>,\327\205=(\333+>cio\275H\207\253=g\351\230\275e\330\205\275\366{\001\276\313\236\025>\343< \276\367I\344:\243\204->\372<&=\365\356\000>\346(+\276\352\307E>\261-\363=\300.\235=:\330a>\237\026L\276\302\371%>\364Q\"\276\251V\262\275h\006\304=B\255\265\272\252\244\335\275\210b\236<8\237\313=\226!w;RN\211=$\240X=\340^8>\236<\360\275\276D\005\276\000\344e=\216\007\343=o:\036\276\"v\337\275\2549\261=\360\226O>>\355\034\276P/\347=g\273U\276\244\023\213=\373\300\006\276\365\305\"\276\212\343\214\275\3542,\274\021\\Q;GO\313\275\321\004\r>0B\314\274\2306P=p\177s=p\375\036\274\313\274\001>\252\007\337=\342~\365=\200\006};\277\340%>\221(\020>\312<\301=\\\254*\2767<(\276\336{\303\275?\r\035\276\\\300\233=~B\364=\030r`\274\321\243\207>\024\240&\276Vo\362=\300\264\262\273h}R=\010\323\301\275\232\322\211\2750*\006\275\234\004h>E\031v\276\340\305\337;P\027\240\275\375\217\033>\375a\024>\331L\n>\350D\205=\337\242(>\264\230\242\275cY\026>\'\362\231\275\245\235\357\275\240\317E\274\324{\340\275\226\034\247=\234]\001\275\320\336y\274\263\322\326\275JR\301=\336\330\216=0uW=\377\301\000\276\226\263\237<\213!\025\275\240\315\336\274,\375E\276p=\375;\3401\331\275\277\347\335\275P\027\372=\254\033\233<|\344\211\273(\3208=\221z\272\274\330[)\276+4\032\276}\242\013\276\022\247\335=\014\320\264\275\216\334\356\275\227\365%\276\330\304\302=\211\344\302\274\001\261\321<\3327q>\345\327\307\274\244\273\347\275L}\005\275\313\306>\275\010U\367={\0004\276j\202\t<\300\353\276=\372T\323\275lm=>\014\254\252=\017\243\216\275\362\206\225<\251\254\360\274\340d\323\273\211\2208\276el:\2768.\370=\207\353\272\275\225.\347\274\324\262\346\275\212\356\020>\316;\316\275\205\021\273\275qt.=\253b\224=E\376,\276\270\360\245=\212\226\237\275\231H\316=\200\327\312=($&=\324\321\221=`\372K\275\336\033\016>7\262\365\272\3608\310\273|\207d>@!\207=\343\000Q\2756\321\214=N\007J\276*$N\276\216G\201>\270\001 =V13\276L^L\276\340\347\274\275\001[ >8W1=\300\230\027=\313\372)\276\272\005\005\276\375\247\307\274\016\222\027\276\263$ >\360$\216\274\342\367t\275\'-\">\025\270\372\275\270\231\036\2760\220n=x\370z=0\370W=%\276\013><\250\r\275\3003\034\274\300\003`;\220\333+=\326\306\332=\025])\276\336C3>(\247\306\275\016n\006\275lrv\276\320\262\304=\270J\302;5\264\3558\370\237N=\304\327D\2755a\205\275 %\024>l\341p\276lM\266=\207\250\256\275\010G6\275\3400\014\274h\332\363\274\240\365\330\275b\024\232=\360\272v=\304\355E=`\273<=\302\020\013\276+B\201\2752\306\374=\303\342\021\276!~\r\276\004od=\317\321\005\276\007E\010>\301\324\r>!P2\276 l\363<I\233q\276!b\006>F\3010>%\357$>\360\235\254\275\276\210b>$u\320\272\373\320;=L#|>\352E><\226\255\264\275_/\037\276\202|G\276.\023\017\276\317\336\017>r\213\312\275\222C\000>u\235#>\362\023\232=h\342\311=\364}\024\276\232\351\245\275h\357\025\275\205\211n\276\302\365\203=\362%\333\275\223\332z=l\016\223=\307\274v\276\317H\n\276Z\021\222\275S\207\020\275\302\221\311\275\205E\266\275\016R\324\274tl\324=\236z\002\274\217\247\211>\337\255\317=\270\320M=\210\010w=BK\212>A\310\215\275&\254\366=\252\003\\>.i\035\276\017\'z\276\2767B\276\n\311#\274D+\372=\300u\375\275\020\263(=\212\340\256\274\337/J>S\016\027\275\324\207\372\275\001\321\266\275\275\026N>(\030\334\273\252\021\t<\362\314\032<|\005\226<\364\327\346=1\260\026>r5\033\2760\025\212<\"\323\236=\016\351\234\2759E\305<%\222\213<\210\374R=8t\020>gU\306\275~\332\354\275\010\037\235=\201~\016\276\370\332[\275\356\241\013\273`\355\212;m\266\000><-D=V\372\252=\302P\327=\230\231\320<\320\274\216<\304;&\275\020\000y<X~\210\275\220\310x\274l\305\201\275\216Z\365=\377\236!>gD\025>\200\323\274\274\203*\017>\356\376\001\275\265\337+\276BC\314=\355v\027>\245\036\245\274p\273@\275owO=\312*\326\275\014\311=\275\220>\t>\341!\266\275\340\353C>9; \273\337\334\017>\300\363\033\274\210!\304\274\210\357\250\274B\317\355=^\345\363=\344\355\022\276\334P\000=Pu~<0>$\274\251d\030\276\000\030\0319\"\020\350=YB\035>\210\025\300\274/\345\324\275\300\336\376\275\000\326\264\274\030\364-\276s\257\036\276\270\001\267=\252w<\276\267\2231\276\220\025\023=\304\010\214=\216(}>\246\001\214\275;\035\037\275\314!\351=<\206\327=Y\337\035=\000b\014\274L\215!>\310\t`\275\264\013a=\372\277\247\275\250\350\231;\300~\023\275X\347q>\314G\275=\"\353T\276B\254+>\361\350!\275\300\300\010>\251\300N=\200\335\262=l\2421>$\013\272\275\252A2>\274$:>F\300I\276(\247\217={_\000\275\026\002\374\275\304\023\304=\200\274m=U\266e\276\213\030\357\274\034Kz\276\304\017\032>\021r\214\276\250{\263\273\211\360\205\275\313\377g\276\350R\374\2750\342k>\033%\034\276\350A#>\300*\207=\276\237\027>Ou\232\275\264\255\227=\356K\025>\250\032\305=|q\352\275\2047`\276\223\202\026\276\270\204\'\275\204\023\333=\230\243\223\275f2\004\276`\211\014=\340& =@\370^=\020\3027\274\353\024\210\276\\\"s\2764\217x>\377\325\207\275\261\007\313<`\022%\274:\373\014>\022\026\322=\021\367\322\2756\205c\276\250\236\004>\202\364\360\275,z\372=\336)\371=W\310\226\275\036\371\245\275\315\n.>\200\366R<6\t\241=\343>\337\275\333\340\037>\202\364f\275ZI\304=\344\030\222=0<\005\276B\005\235=m\177#>\233R\006>\370\213\364<OTC\276f\236\"\275\343\341\267:\372\026\260=X\302\014=\244\215,\275\320~@\276<\271/\276\345\346;\276@\026\010=\020b*=\230\262\355=\200C\375\275\206\022\265\275v\274+\276m\353\347\275\030\345O\275\360L,<s\330\n>\216\002\372=\324\242\036=\n\314\316=\363\233\t>\032\224\330=y\006->\266w\245=3\272\025>\366\277!\276(\177m=\306\311\360=\017(/\276\332\000\376\275\025\366\034\276*\0032\276\232d\206\276z\027\032\276\232m\006>\211\'\206\2750\274\036\276(\250\231=[\'\241\275\027\371H;\\B\344=W\0016\276\232\373Z<1\003\013\276L\253J\276@\347\256<\030\220\333\274z\367\304=\324\244\242=\017\3364>\277\3176=\301l\244\275\340T\036=|\362\021\275\374\231\021><<\322\275\254\247\235=\322\342\235\275z\220T<\323_\t\276M\262\272\274\227\372\233\274\366\250\205<\215\253\231\275\367h\260\275\240t\351;\02286\275\364l5<<\025\236\275-\360\235\275\350D\233\275\311\237X\273\274\275R\274f\201\316=$:\223\275\024q\035\275\267?#\276\324~\234=\300(\372<\354\372\207\275J6\254\275\254x\303=\0069\230=\262t\010>I\243\014\276\r\217\200\276\200Bd=\007z\027\275\302\2167<\321s\004><\t\'>\314\364\027>:ne\276\211\323C=\330\020\312<\367\032->\336i\002\276+\005\213\276\233\256\014>\276\232\021>\002`M=2\377\221\275r\327\237\275&\356k\275\344\202\010\275\356\"|\276\317V\017\275\336\035\016\276\264\237j\275\310>\300=^\333\221=\332b\034\276&Xs\275\207\017\006\276\tt\311\275$`\350\275P\024\005={\231\037>\242\273\360=\035k\014>\223\210\016>\000\334I\273\216I\371= \221\032=\240\"\360\275\226\270\007\276\200s\356=d\030M\275\022N\271=d\345\007\276\220\220\003\276z=b=T\323\014\276\240\367\026=i\177\344\275\207\224&\276\370\032q=\374\014\201=\321H\244\275\260n+>\016\030\321=\254/\034\276JH\237=\276f\226=\2606\340\274 \224\317;\352\333\353=\372]\203=\\O\201=\010\377\327\274\2508\274<\2771\264\275\344c\252\275*3\267=\007\3164\276$Pu=I\000\032\276\245F\370\275:\243\255\275\254u\346;\346u\261\275\027\323\371\275\330\246\003\275\336Y\260=\276\316\202=\224\304k>~\253E>6\371q\274\221\036_\275\'\326\356\275\247\266\201\274,\3724=l\256f\275\352\177\361=X\234\202\274mQ \276\351d\275=b\207\316=\260\273\341;\274(\256\274\033\010\031=h\2450>E\\\271\274\301i\345\274\204#L>\3562\025\276\270V\033;.\242s\275\250\321Q\275w\013\007\276\340\364-\275\220\030w=\331\260\n\276o\'&>\324\021\332\275\226Fo>\000\363\273=\034}@\275\250\333:>j\005\t\274 \005\230</\346\032\276\305\216\347\275q\"\">T\374\374=\206\205\337\274\037v\213\276r\214\\>\004@(>\320p\363\275#m\261\275\342\233C\275UF\341\2752\276\365=\224\233+<\300\274\363\275\272\304\256\275\026\242\241\2758\273\341=(j\222;5\212t>\260E\367=\202l\325\275\313\035\303<`>\260<\371\027\372\272EF\032>\006\302\377=\014/\343=\264c\274=\221\336W\275\364\260-\275\240\322\325<\200@\310\275\226`;>\035I\214>\335\214\353\274D\325\346\275@su<p\266\350<\030\324j=:\257\326=~}\037\2769\t\331\275\000g%\273]\3332>\252\204\372=R\241\242\275)0\031>\366\r\365\275\262\254\362=\214\2312\276`)\201=\030vU=\301\305C\276\350\0177>;WM=\360\307\342\275\303\233\356=\302\013\206\275\301|\317\275\007\354\022;\237\004k\276\363\230\227<\361\230\344=\246\200\003>|\262\020\2768\224\263;\260\303\366<&B\r\276T\331,=\361\310\273\275\262\221\034\276\330\2268\2756\243\315=\036\031\277=px\031=}\242$>\2569+\276\n\305\364=\000\317\035=\372@\252=\220I3\274d.\205=z/\320\275\026=\232=H#\034=0\\\245<\020\224\201<\231 0>nd\224=P\\B=p\274\007\274\205~!>V-\330\275\300\335&\273\314\276\242\275\311/\026>\331\220\347\275\312D\025\276\230\237\263\275\314i\\=\010\007\272<@\024);f_\322=\260\216g<\022\212\013\276\364\243\032=\377T&\276\316J\202=f\321\265=\310P%\276\217/\n>\236\355\232\275\320\\/\274\177\200*>\213B\024>\362A\320=\037\355\261\275^\036\271=\321\241\t>\300\3159\273\0277\260\275*\276\016\276\030\303\370\275\246\355\214=6+\236=\020\2723=\270\262t=\333T4>FB\325=\021H\013>\342;\357=\240\265\340<V\326\272=\252d\344=\362\225\240=f\3504\276\226p\217=k\217\257\275\002f\367\2751\375\025\276\020\304h\275\366\274\330=Hf\336\274}\020\233\275(\331v\275\033\212\030>5\'\346\275\266w\365=<\000S=~\273\034\276X\024\244\2741\206\230\275\0024\300=\372\262\245=\240P\250<\247\351\203\275_\3120>\340\312\237;c\374\235\275d\317?\275\250\211\316\274\'S\202\275\337\373#>\342S\027\276\374rd=\270\240\276<\230\327\014\276\236X\320=\210\003\220\275\030\204\240\274\014\265\007\275\231\225\322\275!\270!>,\206g=\2000:<l7\357\275V\245\201\275m\365\303\275\222\272\216\275\211\253\313\275\331\253\032>D|\\=\221\344)>\314\314\004\276_\253\026>\214yr\275\270W\006\276F\337\260\275\355\234\031>\342\265\202\275rx\310=A\333+>\327k\n> A,<\370\350\351\274\200\316N<\000\016f\272\274\223n=e=\022>\310\206\022=\\V\260\275\353z\013>H\376A=!\034\t>\351^\025\276N\022\363=\364ET\275\317\004\027\276D\250\034\275\334\243\215=\316j\264=\305\357\014>\342\372\231\275\204\312\031>X\374y\274\276PR\274\271M\311<FY\271\275g\357N\276\304\315\366=r\277\327=\263F\"\272t\360\014>\350i\303=E\237\227\275\000 \3119\204+\371=\272\034\311=8:$\275\344\234\360=d\257\343=Xg\267<-\227A\276D4\312\267\377<y=\033\"\212<\0005v=\2036\022\275\230\353c<\036\331 >Y\303\365\274D\354\312\275\231<\r=\004/K\275v\345K\2764\020\346=3\"\013\275V\320\274\275E\272\206<\352e\014<Z\317i\275\371\206\031\276\230\350\353=\262.\263\275\247\036;\276\300\201\377=xom\275\273%K\276\2019\240\272X\351\250\275T\271\377=\000\334 \275\3605\023=Z\034y\274\025\316\243\275\261\321+=\214g\231;LS\310=\276\327J>\210\351\232=\354\t\006>N\363d\275\264\232\030>\370\300\267=\320cS<\220\271\177=\026\277\036\276Q\332\345\275\360&\006=\223\354\306\275f\033\300<4\005/>(\263\375=<\2225;H\014\316\275\222rw=\316\361\267=V,\221=\035\264!\276X}\235\275\234\303\314;\266)f<\210\001\037\275P\255%\274\\8`=\275\205\n>\254\362\023\276\360\354\303\274\215%\377\275\350\014\213<\256\305\323=$G\022=\242\346\260\275\007R\010\276.\336\303=\246\010\'\276\016\347\325=\370\254\210<l\206\303;\360\230\367\275\250)\254=\241\3708\275\217\376\262<\344R\217=\034b\207\276\0202\256;\242\267\035\276VC\371\275\220+\246=n\t\206=\003\236\253\275\343\307\275=\031:\030>\013j\017\276\322\350\364=\202\222\364=\344\250\007\275vP\260=\000\346\351:\371\006,\276\2003\300\272\305G\034\276\203X\025>\310\030Q=\264\271\343\275\340\351y=\340\'s<\226q\356=6\351\330=\020i3\275*\242\261=\302F/>\372ix>P}\t\274\312\214\356\274f\320 \276\0061\224\275Y\027)\276\252\351\020\274\326\334u\276]xV\276\000J\207;\t~\203\275v_\333=\030R\001>v\013.\276\2347`=\300\373%>W\014\221\274.x\352=(@\313=X\256\035=?\330\302=x\343\004>O\215\314<\016\036\211\274\230\354f\276JHJ>[\177\022\276\370\347\222\2756|\256=\005\376\250=x\210\030<L\366\346\275-@E\276,%q=\260\201\373;\366\315.>\354\206\266\275tYX\276\246*Y>H\300$<\n\024s\276(\027(\276\210\213\373\275\250\312H=\250\214A=\302\243:\276\244u\\>W:\274=| \215=\250n\214\275\221\004j\276\263 \005\276|Jj>\302\214y\276l\374&\275%\352\322\270\362\261\246\275n\253\025\276\353\364d\276\026\014i< ?\223=W\201i\275|\\\332\275iK]\276\306\355\216=\240\314 \2761<I\276\275\361 =\364\255\275\273\225u\311\275\336[\260\274$h\200\275\"`\211=8\267F\275\207\362/\275D\375\370\273l0\n>\322/@\276\300\272\346;\300\013L=\200\324\303\275\233p\354\275n\007\212\275\346\224\231=\016U\260=\025\361\332\275\030T\321\274\030\272\235\275\037/\341\275:\017x\275P\244w=\356\037&\276w\370\035>\325\3043>\024\272a=<8\231\275\204\222\325=\346\332\343=\230\375\341\275\326KX<\317jJ\276\363\'v\275\343\267U\276\267A\266<@\356\n>\357\356i\276\317\313V\2764)\024\275\362U\237=\240\254\030\275\000{\253;-\255\035>D\016\210\275\266\354\237=\244\203\352\275\231\031\005\276@\336\312<vz\276=5\205\t>\242\212\203\275\366\327\360=V\236\200=\032\226}\275\260\301\037\275i\017\'\276U\337\203\275\010&\005=\266aW\275x1\346\274\251@(>\006\337\213\275\322\245\254\275\202Gt\275\002Q\306=.\030\353\275\020\211\251<\000\206\324:\210\251\225<g0\005\276\002\357\305=\020\365Y\274J\342\035\276\350\323\214\275\226_T\275\2134\033>\346\201\357=\200H\234;\210\222\205<(\325R\275\276w\235=\330\000H=@\207`;\213\225\027>\273\373\031>\272W\333=\246\307\207=\3709\225<F\206\002\276\230\3341=\2424\306=\022S\226\275\336\t\225\275mI&>\"\327\240=%X\364\275\371\345\037>\337\376\202\275@\026\235;\322j\254\275\270\235\204=ha\342\274,\2129=\333I\022>\336?\253=\324jX\275$\016\007\276\026E\233=\2625\326=@\255\233<,\331E=\236\274\347=\221\367\324\275id\007>85C=\030\320\002=\005(\206\275:\303\305=?I\004>\225Z\005>,\0064=\2707\333\274*\233\223=5A+>|^\r\276@\3375\274\000hd\273\343\257\033>0\035U<Cy(>\000\222\022\276X\"\036\275\312e\021\276\367&-\276Z\312\353=7\310\324\275,\244\017\276\004\352\006\275\311S4>-\362\277\275\265Q\204\275HB\357<\313\205)\276\000\270g\273\373J\016\276\374\336*\276\000\221\267\274(\337\261\275\332\240\326=yU(\276\272I\325=\342_\301=\204w[=\210\376\335<\244\275\003\275\213\276\021\276\316\316+\276R\3522\276\266\314#\276@\311Y\275\240\341\022\274\200p\371\274Y\303/\276\340AF=\232\230\260=1\335\360\275W\025\235\275?\t\030>h\033R\275\000\265\033\276\232N\316=\000\362\374\271\007\034\'\276\034\313\003=\350M\215=\371\2002\276Z\023\214=\224D\225=\372\261\300\275\r\222\013\276\231\335-\276\276\263\373=P\021\331\274z\317\257=\355`\321\275h\370\212<^\016\216=\300\250x\274\020|\035\274y\"!>\315\264\275\275\034\024\023=h&\020=\304~C\275(\336\010=\013\301\264\275\200~N;\3222_\275\214\233A={\177\002\276O\362*\276\267\305->\214\020\224\275\020\361/=\202\"~\275r\376\372=\222p\007\276\300\362\017;\260\206B<\315^\033\276\013\005\n>\320]\350<5W\025>\301\3063> \031\201;\304\003\026=\355e!>\214\342%\276\333{*\276\315.\036>V\226a\275&\006\373=\216\213\276=fl\017\276\022\367\275=Vv\360=*\375-\276 \260\313;\2459\361\275\200\343Q\275(\022\004\276+\320\235\275\005E\036\276\301\351\221\275\0340\017\275\210l\003\275\274V\n\276\004\327o=H\221.=\001\213*>\310\276\321\274\030\215)=\010O\024\275p\3138=\023]/>\324\262\t\276\300@\010\273+[\033>e\326\263\275X\335F\275\\\2123\276\\~\031=\030O\306<\"\234\251\275*\213\345=\312q\377=6\3014\276@\026Y;\026w\314=\030\377P\275\020\233\207<;\253\343\275v\364\326=\244\251\244\275\266<\236=\225\312\255\275`:\345;\300\245\017\275\310\217\372<\301\020\033\276\330!\245\274\000zx=\256\347\n\276\222\310\351=xXd\275z\363\260=\020\0266<O\007%\276\217\350\'>\234\034\355\275\217Z\332\275\271.\r\276\374\306f=K\202%>\342\r\003\276~GY\275*\224\260\275\332\016\244\275pD!<!\325*>h\314\014=\200\353\001;\3066\372=\224\014^\275\255\200,>S\\\031>U\235*\276@-\177\273\276+\277=\240\323F\275\025\217\322\275\022|\263=0\2027\275<o\032\276q\320\007>`\345R<\263\324.>S\324\014>ZV\306=\366u\322=\256\337u\275\244\331\352\275\321\0063\276a\t\020>\322\327\032\276\252$\004\276>\003\372=\360\203$=\360\247\245<\225\301\"\276\036\202\356\275\342\336\211=\021\222\216\275\344\226j=\350x\000\276 >\375\274\340J\353\273\200\356p=\350#\220=\260\333\336\274%\020\330\275\302\030\034\276v\276\347=\313Z\035>\000\010=:[f\000\276|]1\275\320p\n=hw\366<\022\343\300=\006\236\346=\355>\n\276xmJ=\320\364\251<5\251\026>\220\355\260\274,R\303\275p\252*\276\232\032\302=\240g\356\274*\364\017\276\200\t\304;\177\n1>\014(z=\020\364\177\2741\031(>\024\370\224=H\2578\275\035\301\001\276>\350\311=\300\365x;0y\325<\'!1>o\022*>)\002\001>\264\225\031=\362\212\021\276\373\344\">\312|\227=\2209\024\275\033\356\032>\211\352\024\276\020\343\022\274\337-\350\2751A\033>\360\310\036<\025\301\213\275\304\273%\276\306\n\013\276\371\247\314\275_\375)>RY\234=\3120\375=\266\037\202=2\177\311=\326C\207=U>2>$3\016\275\340\307~\274p\014\030<A\325\251\275\344\003\023\275jzq\275`\2465\274\002\223\251\275S\212\220\275\223\334->\000\364\246;\344Z\034\275\035\026\037>\364\014\030=|\030:=\225\3103>\305\307*\276AX\333\2756\252\371\275\250[\020=\324\342\034=\350\361\201=\234\376#\276 \317\367\275\332\203\230=\330\003\347\274k\241\327\275\226{\351=\310\2549=@\326\034<\004\305R\275h\255\233<\0252\023>nz\241=\0001\024<b\372\017\276\000\353\007=\003\321\n>;\0370>\220*W\274\223.\035\276\023\227\234\275$\360-\275\032\350\320=\344\266\303\275\325\367\036>xR\225\274T\003}=\260G0\275\200+\202\273\251\t)>\r\317\025>\331\371\034>`\220\331\273\350A\260\274\261R\n\276\030z\016\276L\373Z=se\025\276@\241N\273/\003\233\275|\"u=\034X~=\306\217\377\275\221\000\000>L\255\273\275\037 \n\276\315\236\036\276Y\335\250\275`\004\372<\371\336\225\275\236g\353\275\202i\006\276!\037*>&\320\330\275d \213=dU\001=\3745\227\275\245U\003\276m\336\001\276/0\314\275\037\006$\276\220a/<`\014W=\371\215\306\275\201\343\376\275\020L\000\274\225\350\331\2756k\361=sm\004>R\323\244=\243\034-\276\244\225M\275\204Kf=\224\364\205\275\240\r\225=P@q<\312\325\266=}\n\214\275`]b<\362;\301=\336\214\323\275\005p+\276>\226^\275\014\373\032\275\316\226\327=B\025\300=v\215\224\275\374*4\275=f1>A;+>\326X\320=y\320/\276_D\250\275\200\323\215\275j\215\341=\205\021\375\275Y\267\026\276\272\364\266=\274$\031\275\246\326\371=\367l\243\275\020N\316<0\312w=\306A \276\240\315\327\274\350L!=l\2024\276 \377\001<=\273/>\316x\332=\340\364\364\274\240\036\205;\376\236\027\276\263\354\016>\020\005\345\274\032\277\372=m\350\030\276p\364\335<\270\204!\276\004\007a=GE\305\275\377\335\232\275\2030\021>\006a\314=\360\371\346<\350\232\363\275\000d\275\271\266\016\364=\017C\214\275(\013\272\2758E#\275\222Q\314\2756\0251\276^\201\334=\0203\344\275X\220\250\274@8Y\273\214\205\031\276P\370\255<)\027%>\371\333\001>Z\014\275=\340a\344<H\330\311<()\306<Q\024\025>\210X\014\275\311\236\340\275\210$\356<\354A\377\275\377v\233\275\232\307\261=\300*6<\313C\017>\202.!\276\340\316N<\372r\n\276\026\336\303=E!\010\276\332\321\263=\200\371\214\274\340\313U\275\324\244\035>\324%\356=p\301!<w\326\002=T\345j=\247NQ\276\322\355\004>w\360\200\275\211\266\270=(\222\322\275\316\276X>\'C\212=H\005\"\276\300m7>\210gQ=\2766\335=\350$\266=+\216\204>\023\031#>_5\231\275\300\213\035\275\211\233\032\276\006#\037=\334\020\025>D\230\271\2757%\206>\260\275\014\276l-X\275\226K\375<\177NT\275\205\030c\276x\032\244\275\376q\t>X\350b\272\317\330F>\324\347e=\236v\t\276\037\221&=\334\342]>\334\002\364=\025\271B\276\340\301\347<n;\221<\264\251\020=F\033\316=\306\267\034>\244yk\275 F\301\275\0335T\275\234\032n<7\376\017\2734M\220=\261\210d\276(%R=\036\255u>-g\306\274/\0176\276Ld\351<\340{\023>K\307\307=\020=s=%\221\034\276\200V\212\274\037\302T=P\245\221<@\302\002\274K\321>\275f\316M\276:\334g>\330\336s=f\236\253\274\264f\022=^\336\313\275\371k+\276\331\003M\276\360s\021\276\356\312)\275\236\233e\276H\246\374; v5=\270H+\276\204\345S\275Bo\306\275\273\311)\276@&2;^\025\261\275\337\352\000\276\342\254\272= \007\022\274pl\217\274@g\341\275\340r\031\275\020\326\346\275\330\036\305<\340iU<\316\333\027>\214\303~\275\364l\361\275\004*\227=\266\250\315\275\203\230\362\275\357\326\263<\302\361\251\275\336\034\206\276\"\005\036>\225\217\364\274F\005C>\003`O\276\226h^\275(#\360\275\374I\023=\025\2212\276\253`\023>\026t\247=$\204\\=\246m\250=#\270\244\275\206j\261=\334k\n=\230\214]=N\224\233=\266\346\037\276\370}\027\276\210\313\334\275!\351\004>\210@\210<\200\376\327<\021\300\013>\250\324\016>\276\363\370=\254\331\023\276\230-\026=\312G!\276\342\016\377<\340\341\250\275\326vK\274\244\251\217=8\214\245=\177nd=,R\354=\300\023\301<|l\257\275I\352\263\275\372\226\257=\237\366\025\276\'\255\370<\234\205P\275\200Q$=,r\376=\3308E>.Y\r>\270<\311\275\272\302d\274Zt\344<\\$\265=\326\324\306<f\315\360\275\016\240^=\226\376\010\274_\262\202\274Oz^=\254\261\264<\n9\001>\273\025\034\276\274\324\014>D\334\023>\374\340\301<* \025>\340*\032>\353.Z\276\240\372&\276\315\276\033\276\024=\224=pu\246\275\'\307\000\275n`\'>\210?\022>;\304\374\275RZ\265<9\237\030\276tGw\275\256\367\"\275\300\237\275\274\314\'A>y\273\017\276\023f\320=\260\225t\274=\3365\276wx\206>\215\316I=\260\017\274=\313\3675\276\271\351\350\275\036\357\367\275\272\240U\274\202\234\305=`\353]>\351\232\320<\027@\2659\270\271X\275Z\033\035>\360\313F\275\370\244\256=\3710v\276\250\203\331\275\213HC\276\370\2230>\232\020\367\275$\235c=\254Z<\275\201\205(>\023\202\017\276\214\233\033\276\002~\211\275p\217\375\274\244LC=W\027\020\276\037%/>c\306\'>\310D\221<R\256#\276T\323L=\335t\022>\352\350\"\275r\324T>\233\236\026=\376&\375<2\222\'\274bip\274\300\351\345\275\256|\005\276\325\223\354\275\356t\014>\304\352s\274\267\245o=W\013b\276\345\252\014\276j\261\334=\373\246\241\275\324\002g\275\031\373#>\367\266\033>@\001b<s\000\036>p{\355<\nN\373=\260d8\275*\255\331=\\SM=+\240\377\275P\222\315\275\340@ =\207}\031>\302\245\243\275N\0210\276\224\375\014\276T\314\232<\322\311\226\275\354\3724\275P\374\242\275\305\337\037\276\314*i\276\004D5\275\235\251\213=\262\272\242<+/\255\274\232\203\212\276\220\323\304\275\007\376\t>\027\321~\276*\261\242=\220\223\235<\254+\345=\264*\343<\350I\342<\214\024d<)\340\307\275\321`\275\275dA\367= \231\331=\324+\277\275`\372\314\275\004B\366<\340\212f\276.\370\235\274x>\003=\271\034\326\275\270H\364;y\306\214>\341g\244\275\264\326\371\273v\006\022>\371\265R\276\370H\033=|\254#\275^ \346\275\314z\343=\232\013\207=$\355:\275\260\023\034\275R\325\354\275\215\001\274=$\277\\\275\003\203a\276\215E\273=\210\321\275=6\235\r\274\2320\237=\232\304\016\276\206l\353\275~E\245\275\360\356\256;\253\223=\276^\0049>\262\345\025=d\205\361=\230\317\034>\242\337\010\274\000X\300=\316\246\263<\354\354\301<8GV\275UBK\276\312\030\326=vl\350\275\300}\367=:\r=>\271\215\036>\373\216q\275\227m\242\275\3409\316=\262N\316=\201\246n\276\035d@\276&)\306=;+\">\360\234\026\275\027j\275\275\363\343\'>\010\367\'\276_\r&>\364)\006\276Ai0>R\177\240=\342\363\032\276\3550,\276hA\233<\234\262p\275D~\t=@\356\036;\321\3450>\3704\r\275\323&J\276\345\256x\276\252Q\371\275\037\303\201=\362\220\001>\3115g\276>_J>\204\344\316<a\230\356\275\034\272\212=\372\330\257\274\313\207\374\274\266\206\254<y\371\272\275i\243*>`R\365;\372\022\214=QA\323\275\231a#>\321R\001\276\214\327\014\275\300\234\003\275\375\204!>\207\223\034>\014\315f=\006\312\350=+\200\035\2769y\036\276\264\300\004=P.\030\276:\356\343=\020\017\206<\214\301\316=\014*\217\275?\r\\\275&\357=>T\246\363\275\023G3\276\227+\204<fQ\332=\226Jv\274@`\020>\320\326\\\274&\nO<\020\330A\274-\274\327<\312\342+\276MC\231\275-\202\211\274\"J\243\275\211\235\027><{\"\276\026v2>\302i\037>\212N\316\275\307\211\250=\261\010\004\276P\300R>|S\\\276/\261\020>\354\025K\275\017\235\201\275\3520\321<6*\002\276q\331\017=x\313O=\250\200\014\2768l0\275\343lX\2769\tE\276,\032\230=\032\035M<\317\322\221\274q\002\335\275\326\035Q>\217\3452>f\'\311=\313\252\210>\334\276\006>\350qe\276\333\352@\276\244\211m> \345C\276\315T,\276\237&\203\274\00597\276H\200>>\367\236\347\275\230(\025<\314q\270=\253\213\007\276\250\035\033>DLW\276(\327_>\000\"\274\275:\017\353=\304\002\035\276\334\037\203\275\356\271\177\276\033\366\n\275\354\232\223=\216\177\036><\361\316\274<\372\212;M/\206\276\251-/>2\251\322\275J+\204>\301C1\275\350^{=j;X=\222\235[\275\275*\002\276U\035\013>\240_\241;Nj\203=\336\010\360=zI\006\276h)\335<!N!>@\177m;\034\234\266\275\370\315\322\275\231\016(>\274}E=\2168\377\275c\016\031>\022\251\214=\254\236\"\276|\335\201\273\274\336\334=\233\303t=v\215\336\275\030\333\022=\211|r\276\1776~\276(D-=a\243A\275\352\265\234=\275Hc\276\320\304X=\030\372\003=\250\014\036\275\233N\001\276\262\235\253=\300\221\237<P\3109=l\\\001=\230\026\033=\032+\256=\020\234H=\224\277\203\275\"\374\342=f\351\013\276\316\027\356=\302}\206=\250\010J\275\300\367\223;\302;\201\275\202\252\300\275P\226\234<-^\034>\316\273\275\275\234i\222=s\2371>}|\023>}}\217\275\001\341&>\000\250\235:\003/\003>\376+\217=\016@\234=\223A/>\356\211\375\275\240}\311\275\222m\230=\373\2730>~p\354\275c\263\227\2755\202\006>Z\277\253=\300H\374\274\010\r!\276\306^\034\276\000\210S\275s9\306\275\300\243/\276\326\343\340=\352\307\343=\302/\373=\220\037\036\275`A\233;@\314\021<6\272\347=\342\276\'\276h\365\327\2756\031x\275\364\223\017\276 \353\345\275z>\346= Z\240\274;p&\276\247b\335\275\0060\377=\230\036\215\275\207H\315\275\010G\312\274\211\217\033\276\220\331\375\275\240\026\314\274\334\202\223\275pn\r=*\256\340=\310f\022\276\324\357\036\276\300\356\027<$Rp=\370N\005=\314\022\036\275\246,\027\276\244iK\275N\211\355\275\320&\270<`4\365\273\0009\205:\266\300\255=i \005>]9\027>\210P\310<\017\035.>6\360\n\276\375\344\317\275\356\371\252\275\010\006\261<\310e\203\274\302\214\013\276{\306\010\276\230U\010=D\312\204=\210\024\n=$\356x\275b\031\214=3\3753>\300\014(\274\032\360\376=D\257,\276\366\022\365=\252r\360=\310\004\357<\301\177\021>\005T3>\014\272\200=\260^\223=H\371\017=\252\340\206\275\217\226\263\275\306\325\270=\306\r\305=.5\300=\230)\300\274\033\311\005>\3202?\274\374\tv=\032\267\353\275m\035\324\275f\325\373\275f=\226=\"\005\370=\031\035\020\276P\240}\275\000\327\220<\236Q\345=\340 h\274_\265\036>)\r\017>z\020\377=\010w\315\274\343D\263\275;\324$\276\023\333\264\2752\221\267=r\024\206=X\024\264\274\025\271#>\372\010\367=P\035\234<t^\034\276v(\"\276\215\206\203\276\220#t\276P-\203=\364v-=\324\242\'\276\356b\332<\032\363g=Vtz>\240\360\376\2749\276\275=\r^\342\275\244r\005=\256\202\217=\010ka=6\340\n\276\263,+\276\302\014&>\240\254\350;`\220\315<\033\336\303\275Y\317\004>z\003\232\275\354\251\346\273\255\337\211>d\nM\274\324\231\277=\013\326\035\275\353W\223\2751\006-\276\352\221\334\274\262\221l\276\225\004\210\275N-\014;\330\"\222=8\030\351=\310\2460>\274,\275=\223V?\2760\337\037\276>A\213=}\343\004\2765\035\250\275\216\357H>\337\007!\276\223I\027\275\340\277\215=\240\215\266\274J\332\025\276\010\020\030<\334\252r>z\352\300\275Zd\344<\027\022^\276x\244K\273S\345\025\276|\311\245\275\270\227Z\276\230\326\033>\203&@>\034\245\">\251`\336=\230\251\243=H_L>~%k\275%\217\206<$\037k=\254\242\037\276\214\250\363\2756\3062>\355\031O\276\'\017^\275\251\022\036>\333\'\014>\3274!\276\356+!>#\002R\275\2240\314\275&\027Q<$ \024=\223\220\303\275b\373\242=8=u=\220\201\025<`Y\035<\320\026\245<\266\315\241=\363B4\276\342\r+\276\241\023\016>\240\374\301<>_\323=\002\261\377\275\332\374\361=\3251,>\260&j\274\265\001\331\272\016\327+>\230IT\275H\016\265\275\265\010[\276\337\361\353<Ee\323\275<V#>\177\306L\275T)\357\275\272\\@>\321\241\r\276\331\340(\276\034\217P\275x\366\240\275\0007\261\274\035X\t>\037\355+\276\376\266\301=\204v,=\205\260\037>0vE\274\326\342\321=\000{\311\272\272]\200\275f\252\232=\020u\020\275Rq\273=\230\016\353<^\302\353\275\210\273\347\274\206\345\371=\216\265\010\276\220\333+\275\306\232\372=\320\246V\275\344I\006=\n\235\317\275pPw=\230\345b\275F\360\256=\022s\321=@)H;*\364\204=\254\212\225\275\357:\017>\000@\020\267\346\375\363\275\205\357\005\276*\272\303=`\327\331\274\217(\013>\014dB\275c\177\">\351\337\007>\037\302 \276&\366\311=o[\313\275\000\275\215\274\037\207\036>h\273\017\276+\306\r>\223,%>|@\374\275\226X\017\276\037\025\220\275nT\322=\374\002$\275v\014\271=\215\3154\2762\307\267=`,\207;\024\3430=\200;\321:\300\227\365\273\340a\330<\300\346\271\273\326q\366=\234\0373\275\334\301\004\276\030\370\000\275\350i\253<l\321f=\212*\226=|e@\275\\\313\025\276:\007x\2752Z\312=\254b\034\276Lc \275g)\266\275Q\264\031>sc\035>\224\030\363\275\350\310E=\305\030\001>\302\302\334=\230o-=@j\356\275\230\371\226\275X\302\354\275B\317\263\275ff\344=\320q/<!\373\035>\351\222/>H\337\242\275r\034\243=\304\314\021\275\336p\277=\212\210\337=H\034\245<\003Z\314\275\365&\337\275\3228\320=\346$\355=\214\371s\275\341\343.>>\230\006\276V\321\021\276\000\033\":\235\237.>\032\n\217=\276\204\222\275\030#J\275sB\023>\300\246\372\273\231\214!\276\230\303\234<\240Ll=p\361$< u\364;\353]\035\276\200r\312\272\346\335\t\276 9\032=P\325$\276\3367\247=tZ<=\370\316\033\275\306 \322\275\351\223\324\275\371g\t>n\305\324\275<~\220=\344\230$\275\240j\326;\272\362\277=\254\312\024\276\022\252\311=\310\330\203<3@1>\025^\235\275\2744\033=\372p\257=\366\352\254=\236\227\241=\272\201\314=8Bu=\240\365\204;9d\204\275$7C\275,\352P>\200\001J\273\216\331\205\275\230\000\371\275C(\342\275\235\3566\276\314\222\247=KL\323\275\013\245\002\276\276\023\034\275d\0303\273\210\314\270\274\360\243L\274\002\"\332=\346\214\304\275:+L<l\352\016\276\340\217\312\275\342\226>=/\005\374\275V$)>\336$\231\275\335\237\017\276zdL>\310\327\326=4Z\206\275s\307\212=<L\247\275\016\334\207>\225\276<;\037\036;\276x\321V<9\331\236\275\234\034]\275\270\342\027<\2640\347=\376i\217\274\226uN\274\316n\236\275\246\343\000>\307\266\204\275N(1\275\240-\214;\020\016I=\014\3673>$j\031>\261\356\364\275\333$\020>jL;\276Y\314\224<61\320\275O\273\001=dL\312=\371\007z\276\220T\256=\033\351\021\276\244$l>4\035\271=O}@\276\236<\307\275\000\214\224\275\214^\364\275R@\027\276\377S\033\276\\O\027=`\300L>Yv-\276T\217\267\275\024j\342\275\212\344\302=b\263\254=\222\274\254=\300\234\030=\005\206$\276>\314\330=l\025\206=\230\224\005\276 W\261\275\002\335\365=\007\033\027>\327a\033\276\340\323P=~oY\275;p\364\275\000\016\270\273\251\025!\276J\356\313\275\244\177@\275\022\344\264\275\020\241\306\275\201\244\013>]\3642>\200\351\343\273\212\214\306=\016\352\272={\017G\276n\224\207=8\032\300;~\345\264=`\256\322<\206j\357\275g\350\r>\274\3453>8\225\">`Y\363<\304G\327=X\202z>\305x\017=`\365I<\304\224\031=\221\253\021>x\000\206\275@/M<\177\373 >\334\317r=\303R\034\276\360\242\035\276\211\212\274\275v\236\275\275_\032\r>@\311\014\273\362\233\211=r\371\002\276\255\004\036>\026X\367=\200#K=\336\242\273\275\351\264\007>Ic\361\275\350\231\370<Doj\275\335\315)\276\352\261\236\275\272a\227\275\026\201\325=m\362\255\275Y\317f>\240U \276U\315\016\276\0037&>\372\223{=\354\333S=\222\332\253\275,=Q=\244\234\261;\022\201\254\275\232Nj\276\340]\272=kc;>\r\216\245\274h\177\350\273\"*\003\274\334\230\220\275?S$\276\307\234C\276,\203\033=\334]\034>Q\2474\276\020\017i\275n\373\230=4\203&\276\025V\333<\314\340V=\220Y\307=\326\200\336=\007\222\003>\272L\355=x\223@\276`\007\222;\360\225\253<h\251|=.v\227=\250\033\322\275{\231L\276\320\277\013=0/\215;\014\207`\275\341_O\276\020\345\312\274\'\' >F\312\263<\346_d\275gL\206=\320\004\014<\036\002m\275p~W>\266)\204\274\006\230\333<\244(\252\273\3343\253\2750\010\246<\215+\276\275#\026\006>\314O\002=DR\"\2766\224\251\275\177\345\355<\372`\306=\302s\002<\236#\204\275\367+\256\275\254\235\n\275\027\'\364\275\262S\337\275\240 &\276d\355\021=/\250\332\275\365;\024>\376\267\253=\032\350\231\275\226 \325=xC\232\274\334\325_=*\310\355=\312\200\211=\002\341\350=\2379\n>f\005\265=,\263\030\276\010\310@=0\0032\276HT\263\274\224\214&=\313\025@>6\316i>\266p\220=12%>J\233\234=\000\373\036\276\020\261\300\275s\205\001>\231\266!>\027-#>z%\320\274\000\336\252\273\242\007\375=\200\313\224;\337\3072>\256\014\241=\"2\344=m\332\327\275\000Y\341\273\310\315`=\020z>\274\304x\305\275:\375\020\276\276\375\343=\000\212X\272\350z\312\274\274Y>\275\207(\370\275\"\214\220\275P\341\273<\224\230}=\026\341\263=\361\022\000>D\343c=\254&\212=!A\232\275\305v\036\276\303\274 >\210\205\331<<\224]\275@\214-\273\204.\r\276.5\235=\302^\337=j\352\211\275\335O!\276\240\232\276;N}\204=\213\031\032\276x\245E\275\373f\003\276F\036\301=\000\032\007\273\250\220U=\177\026(>\312W\254= T\017<\340(g\274Pt\205\274\340g\035\274\3451\032>\222\332\372=\222\375\253\2752\032\274=\231\240\317\275\024I\275\275x\030\242<\216O\223=\225F4\276\030X+\275@\277}=8P\203<\300G\303;\340\037z\274\000\270R:\002\230\216=\200\314!=\200\234\021=^\'\267\275\026\t\222=\014\033\030=\210\013\213=`4M=\364\264h\275\342\347\254=\r\3700>\264\0371\275Kg\200\275I0\264\275Fx\244\275`\037\210<\256\022\001\276\200\365\277;\340w\320\273 no<\000\230\276:\000\257I<\032`.\276\264w\202=\220K\003\275\240\263\"\274\346B\226=BA\354=\215\227\036>\246\276\316=\314\004A\275\370?\207\2757\265\224\275\200\211\357:``T=\276\304\277\275\360\315?\275\020o\026=PQ\262\2742\036\211\275Ys\202\275\221Q0>|\271\002\276\r-\007>\250st=\025v\241\275\222\350\323\275\200\241\304:\000\312\246\272\022$\335=\\\0361\276P)/\275\366g\020\276\256\253\252=P\227 \275\235\307\211\275@\211F\274\177\312\r\276\244\017B=\270\236\027=\270A\361<~\273\224=~\352\264=j<\302=\2413\026>(%\200<\342\272\247\275=\321,\276\016_\010\276p7\224=A\224)>\310\3470\276E\371\262\275\3506\244<`\026\221=\036\375\354= J\370\273-+\007\276\000 \3129P!\331\274\ng\354=\005\177!\276\n\373\307\275\230\311\355<0\020\324\275\230\203\374\275T\301]>P\326\345<\330\377\022\276\312\371\321=\300(A=)\335R\276\240\220\324\275\224%\034<\344\245\231\273\240I\332=\210\312\362=u\243\037>|4\010\274\377P\002>\n\247\260=\320\331\001>1\270P\276\3540B=\033H\001\276,\306\020>\202\373\351=d\202p>\030Z\016\276\212\245\007\276<J!\276Y|:\276\346\330g>*\213\271\275\000,\026=\376@C>\000\250\206\276\232\246\204\275\025&\215\276\nl\344\2740\3026\275\324x\030\274l\230R\274|\032\271\275\201\026 \275\314\343\016>\014`5\276\332\002(>Os2\276\367\374l\275\301\263\324\2743\010\300\274\366a\221=\265!\032\276\250w\017\275F$\324\2751\341#\276`+\003\275\0203\233=-\235\342\275\007\023\007\2763\355x\276\346\301\331\275 \312\353\275\340M\251<>\272i\276,~\310\275e\337\324\274He\300=\276\213m\276\227O\327\275\220-3=\370\260J\276\323\260^\276\n6\267\275\326Mo=\217`\014>[\320\204\276H\002\314\274j\245&\275\353\226U\276\322\305\253:e\263\346\274\220\261\360=\000M\205;O\275\343\275\240\267\230\275\240\310N\275\002\203\312=\024\n\370\275C\211\241\275@\355\235\275\020{\037\276g\261\020\276P\256\316<\000\234Y\271\345\3232\276;J\336\275\376;\213\275\224\200\266\275\020\211\037>\0170j\276`J\225\275XX\317=\\w\036\274\322~J<\377\363\035\276\315\366\t\276\307\031\014\275\220\300\324=\215\337\277\274\305\333,=\026\254\220\274\254K\026>\270\365M=U?0>\337\032\034>\360\274\020<@(\020<\211\333\240\2758\276m=\240u\206;\362)\315\275fx\313=$\001O=\241c\014>\250\210== \034\236<\302j\240=eV\022\276\000\337\304;\020\367\216<\3225q\275\014c\002>\224x7\275\213\225(\276\250\245\240\2753\346\000>\264\'\001\276\355cO\2764-\003>\275\033\304\275\005\243\372\275rH5<\346P/\276\254bY\275<\224A\275\177Z\001\276\354\203\003\275\324\002\253\275\320AX=Z\271\260=r;\311\275X\001\252=le\362=\320\034m\276\274\363!\276\t<\007\276\365\026\200\275\376A\222\275\274\301\354\275\351\277\311\274\260U\352=\336<u>p r=X\333R>h\027\215\276\034\027\356<\216S\347\275\267\022E\272\320\230~=\260|\005<\002\226@<@\343\213=u\370d\276\234\365m\276\\\273\034=x\223K=\004\364\214\275er\337\275\010\177I>n\262~>eb7\276\254as\275\346$s\275\272M\324=\022\2213>\241\336\343\274Z\370\035>\001#\021\276\234\2546>\37145>h\233\025\276\370=s=`\2020=\022I\325\275V\273\223\275XCJ\276/\324\321\275\016\\\033\276\276\315\\\2764\263X=\374\314\300=u\261\201<P\244w\275\352\277=>\275Q\250\275\350#_=MG\023\276\260\253\'>\376>\023>\303\337\256\275{\370\203\275\240;\307<\312\023\315=0\235;\274P7\001<\300\372\363\273ji\000\276\030;\200\274\366\343\376=\006E0\276\270\320<\275\200x\277\272\020\2665\274\342T\026\276\243\021*\276k\360\025\276w+\202=\306\031$\274^\253\204=^\237\345\275?U3\275\362x\t\276\030\363@=\214\346\037\276-\"\265\275\311G\007=hR\220=\030I/\274\326\234>\276\034|\277=\244lC=\242F\023\276\343-0\276\273\231&>\372\033\356=\345\"\022>\033\001\275\2757\007\013>*\307\346=\240\030 \276J^\342=\031\2703>h\327=\275\214(\224=\243\247\024>Wg.\276 s\372\274\3428\255=\357\343\250\275\323\205\207=\214\327$>\\`\031=\022h\010>L_\235\275\303\342\017>0k\327\275H\366\">\360\230\374\275<\016\337\275\302\373o\275!\344_\276\350\246\252<\235%\006\276@\366U<\212R\271=}Q\223\275\310\223|=\205\317\032>\236Nj>\273#r\275\306\203\265\275\000|J>\332M*\276\222\332\255=\353s\301\275\317\200 =\200\226\363\2758\272\n\276\311\003\031\276l\226f>\360o\371\275\205\177D\276~\314\367\275\314c\273\274\261\r,\276\000\313\341\273,\322\037=R\034\365\275^\277=>\350a\245=\277\375(>,\377\216=\242\t\227=\264\321\023=\272\337,\275\242Q\002>\262\250\327=\000\317G>&\350{<%\274\270\275eT\007>\320\237A>(\264\305\275\010\241i\275D\020\254\275Sa\036\276$\016\226\273\034o,\275\301\006c\276\032\237\305<@\003\022<L\317\374\275S\242\013>\325\256\">v$\360=bZ\026\276ik\327\275X\023d:\270\302%=\220\250\262=JM|\2743g\233<\230!P\275t\202\215<\254\242{=@\364\311=@\032\206;%K=\276\260\322\345\275TWd=\310\3443\276\245\230\240\275\314\206==\311\035%>\014\265\n\275\233P\034>\352\323\375=\036\025\225\275.\253\317\275\340\371\271\273\2703\261<\342\302\t\276\374\3767\275B\306\033\276\266\256\254<\313]\022=\000\235\306\275L\010b=\306\273\365\275\306\323\313\275\007\022\230\275\354j`\274\330\226\310\275\202\276\236\275N.\304=\360\350\201\274\000\026\202<h\366\305=\200\t-\273o\202\024>\335\271\014\276 \370\350\275@\304\356<\2165\327=\217\030#>\346\370\001\276Y\363\027>\347\234\351\275\020|\340<8\364\365\2742\246\257=p\374(=\304\274\314\275.\013|\275\352\323\014\276u)\010\276\037!3>\014\222\303\273\032\201\224\274\304\265:\275\273\325\014>\340&\302;\373\240$\276\216R\211\275 \233\315=\330E\236\274m\023 \276\342\356\273\275\0206z\274\331\'\253\275wC\333<\370\314\030=F\272\246=\256\004\007\276\344\371)\275\200\337M\275\322T\207\276\306\250X>9\035!>\374\'N>\224\363\"\275\310SY\274\231)\210>\240-\024=\236\210\302\275}4\343=d\tO\2755\363y\2763\" =\354{J>#\"\230\275U\275\020>\200\215R\275\353\312\375\274\n(\314=$:2>`\325\347\275\264lL\275\024\\Q=\206\201!>\365\365\003>\003\333)\276\244C\000\275\241\372\t\276\377\330\377\274\337\311\262=R\270\277=\332\033(=\335\221\013\2764G\207=\301P\203\275\2003&\275\033\223\226\275\300\330(<\302\361B>L\274\272=\031\334\321<\210\311w\275A~\334=\300aN=\336\t$\276O\273\034\275J*\266=\365\355U>.\327\365=\t\220P=Z&\274\275v\032F\276\034\356\251=|\032\260=@\334,=\322\253\221\275:\346\324=\"\203%\276\207\353:\276\375\311\262\274`\346,\276\251E\024>\3634\270\275 \253\223=\227(\003>\375^\334\275\310i\306<<A\212=\323\337\301\275\214E\005\276T}2\2759\340$>0W\032\274\270\000\t\275\375k\005>b\252\321=5n\313\274x\312\302=\322H~=XB@=\241\264\222\275\267\215\037\275\rW\215\275\343!\376\2740\003?>\366\316j\275rUF\275jNk>\t%\305=\376\273\300<x\310==W\3470>\314}\013\276\240\242\032=\352\373\246=x\313\204\274\332\273\352=\270\352\347<=\025\206\275\250\266\006=\332]\301=\336A\365\275\304\305L\275`!\256;\310\013\350<\305T4>\362\261u\275\236$\247=\000G^\273\360\r\274=\251y\273\275\301[S\276\324\277e>\367\300\273\275=}\213\275\350x\255=;\373\035=\370\rR\276\346a1>\035\327I\275\177\201\004\276\247\266\036\276f)B>N>\226=~\014\222\275\333\236\004\276\325\215\010=P\036&<`\361\355=\352\226R\275\364u$\275\3200\023>\360\033(\275\014\3742>\320\212\232=\360al=3K\210<\300\206G=\036\002\013>\002KE<h\356)=\377\237\326\274e+4\276\277j\234:\034\035\273=\374\361\346\275b\032,\276\324@\364\275\226H?>h!@=\222\217\350\275WY\303\274\230\326\314\274\352LC\276\010\365@=&S\"\274\354V\327=\000_\260\2750\037F>\020\201B=\205\357v\276lO\305\273\036\217=\276?\377{\276Do\036\275\017s\261\275\022\270V>j,\334\275\335L\016\276(\324\363=\372+u<\257i\021:\324\260\033>\025\205Y\276l\255\006=\251\203]\276\332A\354\2750\366\347=\264\2655>\200GA>(\363&=\323\274\211\274\321o#\276\357\205\035\276\231\205\352\275\200E\316\2758\017j=\252\214\224=0\340H\274z\031\270=\355:\022>@{.;\306\000\203=\236F\337=\302\236\231=#\034\205\275\246\016\234\275\361>$>T\220\r\276 \333\237\273\374\221\023\276\017\232\036\276\274Y\255\275\351\361\023\276@\212\273=\276\201,>\347\256\204\275(Nu\274\177\001\367\275[/\254<\241y:\276\001\004\210\270\250\313\037=h?\334=\260\206\017\276N\"1\275\227\007%\275\250\251\013>\271c\217\275J\267\016\276\035f\301\275?\2510>\246\322\344=\342\333\035\2762r\316=0\243N\274:\223\370=}-\t>:p\252=yu\016>\357\t\310\275 dl<\2320\201=\364\214\354\275\004P\005=4\373J=C\005\004\276\250\227\315;\310Q[>\322\360)\276\3400\220=\222\377\014\276\361\343\213\276#\2466\275\254\001\226;4XJ\275n\341V>\010\252f>\302A\203\275*F\270=\272d\016\276\374K;\275\300\377\343\273X>\007\276*\321\232=\242\311\230=\n\006\364=\213N\200=\231\256\352\275\230\263\235<\362>s>6\010\266=\000\357\315:9\341\353<x\313w=\247\005(=\001[\217\275HN\002=A\204\'>\r\235\300=\270a\033=\254\373{=p\3550=)\224\3458 \232\234<\001~&=@w\002\276eD\027>\017\003\020>\236\217Y>\3728\000\276\264\307i\275\202\257\177>\017>\267<$\030\024\275\376\3676\276\323\316\036>f\375\216\275\020/\255\275\272\324\252\275_\034\t\275\272aX\276\020D0=\336Y\344=\020u\215=d\263\321\275\274\373\030<\320\235:\275z\036\026\274,\3060\275\276\323\225\275<\274U=?\221\000\276,F\345\275\320\253\266\274\355\0218\276\004\377\214\275;I|=tr7\275\000\331%<\316\257\244=\372(j\276@\350\364\2741\254v\2766=\365\274\352\342I>b\340\232=\360\232\030=\311\305\024>lA\006\2768\344\006=\205\315\027>\367\343\341\275\217\\\031>\343\177\">h\223\332\2742\271\206=\254\022\005\276Y\0234>\035%3>\300S==\350\351{=\016*\374=p3\213>r}\327=\000\212\026\274|\204(\276\032a@\276@:\206\273\235\331\234=\306\023:>p\275\330<\014_\222\274\000\324\202\276J`\204\275\344\253)\275V\215\250=\247E\202\275\022\247\351=\301`\025>\224\231w=\200}\374<-\323\365\275\210V\334<\305?\024>FT\301=\033@\006>\252\263\027\276\222\275\203=\320\300\243\274\220\362\272<\345\356\002\276\350\241\211<\010\374\327<\0329\344=X\3470>\314\344\257=/[&\276\201S\340\275\\Z\027\275\270\030@=\337d\313<p\202\203\274\245\327\240<`\035\324=\230\037\361=\322\265G>\024\210#\276 I\267\275\250\314\313\275\307H\225\275\214\237\350;\340\261S\275 \013\361\273\202\210g\276\243_\035\275\252f\344\275\314\030:\2753P\316\274#\324^\276\030m\241\275G\214\313\275nk\304=\277\276\253\275\263\230\374<\010H\222=\263@g\275r\337p\276\336\331\252\274:\310j\275\2361^\271\313\224\343<s\250V\276\220tv=\354nr\275\3444\251<\304B\205=\021\344\257\275\376\313\267=\270<\221=\222\317\350\275\345\273\207\275\202\264\'>\t\362\261\270\326\014\245=\234\'\315=2\264[\276D0\375<\004a\010>\270\027[=`z\347=\010.\031\276\344\311\306<\227t\351=\267\315\370\274z\214&>@E =\256\340 \276FZ9<\343\202{\276h7\201=\340\026\032\276,\376Y=\324\235\n\275\342\243\310\274^\3640>\364\221,=\031\327\014\276\211\t\034>\024\314m\275u\215\354\275l\275d>4}\312=\222\024\375\275\004\223\033\276\377L\034\276oC.>)\005\215\275%r,>Vh\225=\335\326\n>\235\206\034>Xz\225\2750\221\347\274h-\375\274\335\033\005>\211v\315\275\n\223\372={\344/>\"\206\326\275\206\271\345\275;\020\251\275\217\237\251\275\236\031W\276\207*\244\274\332\336\177<\327\373R\275\343\353\322\275\030\362d\276\276\275\300\275\r\313U\276\243\271_;\215\216\025\276Yq\026\276\227\210\373\275m\320\264\275\273\330\000>\320\304\326<z\242\244=J!\346=\350AS\275\267\2244>\360\305\r=\234\315)=\252<\032\276\244s\357\275\320\346\327<\354\232<=.\000\310=@\247\006\274\302\215\'\276\226\263\216=\037z&\276P\034L\275\266\337X<Ai\343\275~E >\266c\267=\331\324\200\275\025\033\372\275\374\234\271=\360\026\032\2760t\266\2758o\n>Y\251\322\275\206\003\325\275\277\250\256=\014\215\023\276\240~\302;V:\377\275\r\370 =c\357!>U\265;\2760O\323=J\227\361\275\242\262\003\274\326\207k>H\340\343\275\240Pl\275.G\\\276\315f\264<\310\222\225=\234\265\r>\231\260a\276\247es\276\022\010\r>K!c\275^\007\036\276\'\355q\275^/N>\341\325Y\275\003\274\026\276|\352K>\2663\252=b\331c\276\275\"\007;P\236,<\201\013\362\275\344\272V\274$H\310\275B\324C\2768\227\327=\024\353@>\226\033\205>\3236b\2765\342]\276\034%c<\220bd=7k\024\276H\003P=\264D6\274\037\354X\276\324Oy\275K\220\315=\356?\303=@\306X>R\276\302:\036\230m\276x\366\013\275\231\030B\2762\234p\276H\353U=\\z\375=:t\211\275\227R,>>\3660\276`\326\316<\202\255\217\275\334\372^\276\2516\252<\322\346b\276\245\316\222=\007\262&\276\312\243\367=\272?_\275\220Q\213=\002n\030\276J\351n\275\275E\023>\035\001\036\276\356\350\237=\027\373*\276\200\245 =e\271\213\275:\236\221\275\023r\000>lbW=\010E\312\275\021\2743\276\266i\302\275\212\246\361\275\355\246\237=i\315\'\276p^L\274\321F\206\275c\245\020\276\301\310\361\275\202\3364\274D\024\277\275TyM>\352s\302\2740R\025\276\347k >\030\2354\276g\307\000>\260E#\276bu\263=\3007\226<D\006%\275\245\245%\276\272\201\354=1\262\333\275V\317x\275\000\003\366<%7,>0\2145\274(\266\027=\300\010$<\324\376]=\355\370\254\275,\347\022\275\003\2466\276B\006J\276/jd\276a\331\314\275\334\023X\275\346T\206\276\266d\250=\200AR\275\341T\203\276\370U\307<r\234\344<\265\230\005\273\001\336#>p\312f=\225\203\'>\2775\001\276@M\225=\003\272\035=X\207x=l\0017\275tto\275\270D\257;\264\371j\274\306\013)>\271V\031\2761\202\000>\004\210\013\275\317\307\372\274\325H\202\276\245\216B\276\240{\336=P\001\245<\320d\256=\233%J\275\251\216\027\276c\272\302\274\0040\234=\017\274\363<\3409P\276\300Z1\275{\2331\276\253\236\036\276/\034R\276\232\210\207\275\rF}\2767\321\212\275\211h\307\275Z\215\361\274`\002\214=\337\311\217<Pje\275S%-\276T\035\003\275\206\323\017\276\260bh\276;\272$\2761\234E\276\213q\367<\265\270\030>\346L*>\230\315\030\275\254\216\336\273\266\347\020>\256\322\266\275\302\255Q\276\233\203\030>t\257$\276\206jJ\276\210L\223=\340 7=\275S\270\275\203\021\347<\372\321\310=\260>\n=H\\B>\210$\024\276\204_\016>\023>\003>\002\357\254\274\021\221\002>\020\363\222\274Dn%=\240]N\275\364{T=m\303\213\275Fw\027\276\340\241\215<.\254\375=\324i\005=\220\252h=I5(>\037\341#\276\2359\226\275nS$\276\352y.\276\200jQ=P\322\360\273p2z\275\356\240\204\275q9\221\275\010\307\271\275ad\204\276\036O\023>\263\004V\276\213\200Y\276X\227\021\274\316\346\303\275\016\362\204\275\230\327p>\034\200\002\276]\251\025>\356fW\275\364{/=\353\346\353\275(L\263\275\214L\006=\210B\005\276\357*\025>\260w\270\274\262\317\250=n\257\266=\252`\013\276`\317\242;\222$\373=A\2273\276n\357\233=\013\027\371\275\234:\352\275\306\224\305=\310\354\233\274s\220\r\276\3236,\2764\227\006\276\233\267\000\276\362\026\233\275n&u>\3005\302;,\204\232=\264\234J\276\270\230\334\274\372P\"\276\257P\332<@\201>;\252\351w\275\247P\036\276h\321\345\275\'\302\253\275\263x\214=\320\037L={\010%>\332\252y>\3630.> \210T\274\364H(\276xo\207=\362\031\315\275\3008B=P0\235\275\303\232V=`g\035\276\\\202\t\2760gD<\314\217\034\276\202\303\256\275\230a\320\275\330\324\224<\241T\034>\036\234U>\316<C;`\010\271\274f\330R\276\tk\306\275\006\331\003\276\336\3461\276\02040>\226%V\275`J\327\275\322\264\"\276\363`\030\275~\276\313\275\026\022r>\346\\\202\2752\264\375=\232g.=X-\265<,:\021\276%2\315\275\tAN\276\340 \342<@O>=U\254l\273\024\020\231\275|\264\026\276\310r\026=p\350\n=jH\244\275\250\213F=\224\177\277=\260q\014=+\202\006>\360\014y>\224a\010\275 \215\323<r\023\303=dl\332<OS\013>e\362\205<\n\323\335=\372 \243=8\346\312<\"|\235=\000\251o<\262 \372=\342\361\236=\032+\324\275 \214\377\273\000\323 \272HU\022\276x\247)\275\220\234k\275\016T\372=\247\"\006\276\3136\307\275tw\221;jo[;\312\232\357=\350\232\335<c\234\270\275\206\336o\275\024-\322\275\254\331\013<,\317\345\275\246yi>\272 \364=!\363.>\320\"\326\274\032\266\212\275\262\237/\276Z\271\245=\310\355\006\276Un2>Pb\326\275\340\236K\274@\023\016\274vnu\275\246Q\206=\252\013\347=\177r\r\276\334\277K\275\240BF\275\304\335M\275\327%\263\275\266\325\245=4\232;\275\026S\316\275\274f\006\276\030A\221=\344$\342=\270h\354\275j\323\367\275\224\000#\275\270x]\276\200=\304\275$\303\257\273\207J\202\275x\375\370=d\326\300=\245\332\205\274\334G\333\275\307\242\016\276&&\226\275\223/\017\276\254\007\030>\372\366\367\275\370)\303\274t\346\311\275\217\247\321\274X\200\013>\036H]\274\242\371\333\275\301\n\035\276\000\333H=\312i!>\224n\221=\2171\016\276RE\n>v\207\275=w\322\206\276\"y)>\303\037B\276\350\016 \275U\270\200\276\nQ\227=oC\021\276yR%\276\342\242\237\272\346\221\006\275%+1\276(\316\376=\352i\254\275mD\204\275h\256\356=.2\031>\236\360\016>T$\220=\r\010_\275 