node {
  name: "x"
  op: "Placeholder"
  attr {
    key: "dtype"
    value {
      type: DT_FLOAT
    }
  }
  attr {
    key: "shape"
    value {
      shape {
        dim {
          size: 1
        }
        dim {
          size: 24
        }
      }
    }
  }
}
node {
  name: "decoder/conv2d_transpose/Shape"
  op: "Const"
  attr {
    key: "dtype"
    value {
      type: DT_INT32
    }
  }
  attr {
    key: "value"
    value {
      tensor {
        dtype: DT_INT32
        tensor_shape {
          dim {
            size: 4
          }
        }
        tensor_content: "\001\000\000\000\004\000\000\000\004\000\000\000\010\000\000\000"
      }
    }
  }
}
node {
  name: "decoder/conv2d_transpose/strided_slice/stack"
  op: "Const"
  attr {
    key: "dtype"
    value {
      type: DT_INT32
    }
  }
  attr {
    key: "value"
    value {
      tensor {
        dtype: DT_INT32
        tensor_shape {
          dim {
            size: 1
          }
        }
      }
    }
  }
}
node {
  name: "decoder/conv2d_transpose/strided_slice/stack_1"
  op: "Const"
  attr {
    key: "dtype"
    value {
      type: DT_INT32
    }
  }
  attr {
    key: "value"
    value {
      tensor {
        dtype: DT_INT32
        tensor_shape {
          dim {
            size: 1
          }
        }
        int_val: 1
      }
    }
  }
}
node {
  name: "decoder/conv2d_transpose/strided_slice/stack_2"
  op: "Const"
  attr {
    key: "dtype"
    value {
      type: DT_INT32
    }
  }
  attr {
    key: "value"
    value {
      tensor {
        dtype: DT_INT32
        tensor_shape {
          dim {
            size: 1
          }
        }
        int_val: 1
      }
    }
  }
}
node {
  name: "decoder/conv2d_transpose/stack/1"
  op: "Const"
  attr {
    key: "dtype"
    value {
      type: DT_INT32
    }
  }
  attr {
    key: "value"
    value {
      tensor {
        dtype: DT_INT32
        tensor_shape {
        }
        int_val: 9
      }
    }
  }
}
node {
  name: "decoder/conv2d_transpose/stack/2"
  op: "Const"
  attr {
    key: "dtype"
    value {
      type: DT_INT32
    }
  }
  attr {
    key: "value"
    value {
      tensor {
        dtype: DT_INT32
        tensor_shape {
        }
        int_val: 9
      }
    }
  }
}
node {
  name: "decoder/conv2d_transpose/stack/3"
  op: "Const"
  attr {
    key: "dtype"
    value {
      type: DT_INT32
    }
  }
  attr {
    key: "value"
    value {
      tensor {
        dtype: DT_INT32
        tensor_shape {
        }
        int_val: 1
      }
    }
  }
}
node {
  name: "decoder/conv2d_transpose/conv2d_transpose/ReadVariableOp/resource"
  op: "Const"
  attr {
    key: "dtype"
    value {
      type: DT_FLOAT
    }
  }
  attr {
    key: "value"
    value {
      tensor {
        dtype: DT_FLOAT
        tensor_shape {
          dim {
            size: 3
          }
          dim {
            size: 3
          }
          dim {
            size: 1
          }
          dim {
            size: 8
          }
        }
        tensor_content: "IT\361\276 \330\310>\252C%>lH\217=p\034 \276\364\375V\275P\035\230\276 \2317\275\302\361\017\277\232\"\000?\232c\225\2766\230\211\2764\264\000>\027i\337\276\263j\205>\361\374\304>(\\5\276\342\346v\276\232\301\371\276\002\033O>\204\224\020\275\315\374\310\276\004\256\010\275\355\366\227\276\305\216\223<\250\034\021\275\205\332\200\276\367$\t?q\n\024>\363\375\026=IV\231>\307\230E\276\021\221\013\277%]\233\276\314\313\226\276\232\263\247>\212\222\341>R\003\307\276\037\343\271>\370%/\275\324\206\376\276\241\354\'\276\035\3271\276\360\314\337\274\031Xq\276\017\326J>\236\014\034=6\203\023?\2306C>\203\201\204\276\356\351\300\276\026\272\215\276\306y\236>\037J\177>\330\000G>S5W\276\033\300\252\276\315$\246\275\355\'\252\276\244y\204>\213\217\017\277\262\273\341\276/\361\034\276\343\3048\275\n5\221>n\327n\276,\304->\376@\025=\024\236\236=\333\362\354\275MB\377\276\330\276\235<"
      }
    }
  }
}
node {
  name: "decoder/dense/MatMul/ReadVariableOp/resource"
  op: "Const"
  attr {
    key: "dtype"
    value {
      type: DT_FLOAT
    }
  }
  attr {
    key: "value"
    value {
      tensor {
        dtype: DT_FLOAT
        tensor_shape {
          dim {
            size: 24
          }
          dim {
            size: 24
          }
        }
        tensor_content: "MF\264>O\003\364\276=\334C>(\237\360>\322@\t\276\254\372\023=\3324\006\274\217\000_\276\331\304:\277!\230\000>4\323\353\276\0107\257=\332\220\372=~\016\030\2764\337\321>l-\014\276<M\346=Hm\205\276[\310\210=\263\010\371>\2300\014\275\211H\016\277k\216\245<\\\033e\275xWi>y\022\026\277\374c\363\276\304N\371\276\023\"\200\274\302\240\241\276bSE>\340D\200\274y(\301>JcD\274\3728f>\256P\210=\340@=\2759b\306>\310\302\025\276\236\244\266\276n4\211\276\340\212\027=~\016\224>\250\327\016\276\326\326\327=\323\310\274\276Vq\342>\2629\235>JL-\274~\337\362>\252\3362\276\024\"\314\276\206\310\235>\371\335m\276\250)\224\276\314\207\237=x\000\030\277\313o\'\275\302\t\014?\211x\021?\375\261\276\276eE\341=\225\362\020\276\004pT>\251\000>\276\000l3\276I\317\375\274\323\223\273>\340\201&?0Q\216=\274\302\303\276\220\021\023\277w\271\201\276|(\275;\250\326\226\276\0307\337\276\003R\327>hUy\275L\353%\276\335T*\277dd\232\275\332\027\004?\213\"\334>\262P\002?\026\260o\276%\0133\277@\352Y\275\316\260Q>Ej\266>\023\342)?\353-+\273\327\351\234>\356F\354=l80\277\267\230\321<\257\256\336<\273\001\235>YY\275\275\226\247\323=\202\307\001?\222a4\276\253t\302\276\025\245\277>f\333\356\276\\g}\276\037\205\315>\243x\257\276p\225\000\276:s\021\276\2005W=\362\356\264\274\374\033T<+\251\334>\020\366\317\276#\256\346\2744w\305;\251\026&\2752\250;\276\375\022\252\276\320p\032>\255\013\264>J\246}\275T\241\254\276\010dJ?\260\202\034\276\255\001\262>.\206\212\276,\245X\276\244\220\376>z\030\202\274\005ai>2\t\202\276\225\372\243\275\217~\363>\352\272!>\32778\276\216\025F\276\366\235$<\204\273\366\276\335\014\337>a\256\301>\205F\276>\030E\035\276a\345\237\275\033\227\377>#\361\030\275&|\024?W\177\033\277~}p>\005\323\261\276w \364>\256$ <`\353K\277\026\237\242>\374[\030?\225]\201=\250\276\t=3e|=\007\333\030?\317\210\331\274F\372\347\276JS\203\276\325\tY\276;V\\\276\342T\263\276\370>c=\256\247*\276\314H\024\276\363\022$>\211rt\276H\013U>\333\202\375\276\232w\025\276e\260\037?=Y9\277!}\034\277|\317\320\275\276\2264\276\2239p>/\024\373>uI\214\2768\223\326=\270\201\210\276k\267\232>H\374\361\275t0\207=\345\202\357<\260\035\372\276+\"\032\277uS\204>\227-\317\276\374\260\322>0\217\036\276j\370l\276\206\266\353>t\216\266>\025j\304>\341\333\030\277\2176\300\276\252\034\345\276\000\344\275=\330\377-\275\227\352\357\276\001\220G\277\270t}=\3441\270\2720\205<\276\344\211\n?\274U\303\276Q\261\203>\025W\206>al\236\276L\004P\275\r\371\013?\357[\206>\354\343\261=*\r\353\275gcT\277\223\3734\276\323\377\243\276I\226\024\277K\361\373\276\316Ib\274k\377\204>5<\241\275E\347\004\277\360{/\276\330\252\'>/\353\210>.\224b\276J\037&\277\320\367\r?\304\326\353\275\205\203\026?\314o\002\277\271\314\006?\300|\t?\266\273\013>*\243\217\276-l\010>hO;\277\022r\205\276\314Pf\276;w\241>\006\326\333>\257g0\275tS\275=\374\264.>\341\266\325>\372\203\356>T8S>\257~\234>\337\265U>\026q>\274\340\322\307\276\305\016\355>\223Id\276O(\007\277\354\027\237\276m\177\030\277R\253\235\276\342\006+\274\262\032[\274\217d\304>`\313x\275\202l\017\277\350\247\361\274\226Q\'?\000\245\023>\234\023\361=\333\333\270\276\007\027\201>;\315\210\276\217t\225>Pu\377\276\240T\n>z\221(\276\215\321\321\275\021\305\266>Z=\010?[\201\201<Rp[\276w\"\220\276\317\207\022>\250`\262\275\034\211p\276\225\376\277<\216=\217\275;\213\314>\224\325\010\277\271J\216\276k\326\332>\000\021\002\276\247\343\005?R\272\312>dpu\276 \325w\276\226KF>4\214\273>\217s\307\276K\257\223\276 \262\177\275\036J\234\276>\0342?\237\020\277\276`pZ=+\025\305>\030\361>=\200\273\244\276\304Ux=\235\344\211\276eK\033\277\276N\246\276n\223\305\276\034#\024?\024In?1\002\212\274\345T\237>DN\033\276\375\243\344>\357\247\016\277\300\037\341\276k\226\315>h\264\032?\265\306\022?5\375\215\276\226\267\036\277/\336\005\277e\355\347>\276v\031\276D\304\255=9\322\300>,\006\266=\363\216/><\376\263\275\260\016>\276\330\023\272\276Z\327\037\277\370\256!\274U~.?kF\034\277\205\361\320\276\3245\305=\205\322\353\276\352\343\277>\026\022\n\276lwN\276^\307s\276G i? e\234\274\344\345\332=|s\356\276\r\\\237>Ok\247=j\034c\276\034K\001\277\024x\243\275\247r5>\032@\236>N\020\r\277\004G*\277\006\323\\=}\203\247</\301\330>=\351\312\276$\r\306\275\264\037\314\275\025\251\263>\364\001<?u\335\035\277\376\200\227<\374\0376\276)\200\335\276\300\027_=\267\371\317>,\373|>\320w\202=M\364\207\275\214\301\357=c\037\233\276\254\375\271\276\206&\337\276\014r\263\276\224\370\226\276r\2607<\225\347\324\274\230\334\254\275\207\375\226\276\302`\203\275Id\276\274\210\222\035\2750\213c=\327\313\243\274\302l\260<\320\301\202=\343\331\007=\274\253\235;\360\t(\275\000\361\246=\026\036\233=\222\014\021>\230\241t\274\260\232\225=\244\352\\=\263\356a\273\304\204\257=\272kY\272X\236e=:\364n<\224j\263<\340^\360\273\205b!?\004|d<\352R\343<4\246\220\273Hk\005=\200\242-\275,lF\274\010\204\t=+\276\030\275\374\232m\274 h_=C`q=\024\344\006=h\325\317=N\252\005<\320\264O=\320\026\235\275(\320\335<`?\246=\224\311\362\273\3006\202<0\221\203=d\221D=)\315\267<\177Z\242>\340b4\275\210U0\275\3320\t\274\207\215\372\274(b\264;\224]@\274\204\347e\275\360\260\220=\214e-9D\010\260=XP\302\275\321\323\335=\216s\313=\315t\306<x\207Q\275\344\"\260\2735M\007\276\034\327\200\275\222\020\346=\240\177\010\275\025x\242\275\310\356\346\275\212\306\007\275AM\252\276\236\n\032>x\337B=r\363\n>\330\017|=\234\202I<\230\326\003\276\340X\243\2754>Q\276\260\013\242\275\245\327\255<\344\022\261=\211\217\020>\366*\035=\370\346\355=\220\371\266=\230G\345\276s~\006\276\363a\021>\021\257\222:\264\260F\275<\242\335\275h\344\002\276\275^\364<p\362\304=\231{%>\321~\256=\003\032:>p\223\212\275F\210X=a\211\332\275\340L\353\275W\222D\276\034 n\275\014\024N\275\2464\n\274#\350\206=x)s\276\020\345\212=B\217\220\275\"r\316\276\227\016_\275\374x\237\274()\205\275D\214{\275\251\362\304\274i\231\241=\371\237\240>UuT\277\345\302\241>\022\377K>\r\001\260>\322\037\211\275\350\366\234=\333\346\026\276\324\323\257\275\245\0036\276K\236\206\275\245CZ>F\006\310\275\300Y{>>\232I\276\255\236\230>j\022\364\275\270\022w=\213y\320\274\212>\017\276\273\2718=,\327!<\010xO=\177\305?=k\366\002=\367\312n\277\263\010\026=c\323G=\224J\362;%\304\331=\301\331\217\274\304\267%<\003w\347=oD\313<@\362\027\273\274|\027>\236\254\037>\264\275G>\205.\247>\254D\031>:\274\">Y\032\006\276\271\344\211=jP4>\t\257\222=\316\353\331=}\200\305=an\345<\021\203\016>\3079]\277|\311\314=\241\220f>)\3123>\320\240\324=\020:\222\275\\L\037\274`\332\306>l\316\265=+,\316<\225T\321=\257N\271>\316\304\240>\222\235\216>\265\331\277>\004>V>\t#\314\275\256\307\220>\030\262\003>\3304V\275/\032\346>"
      }
    }
  }
}
node {
  name: "decoder/dense/BiasAdd/ReadVariableOp/resource"
  op: "Const"
  attr {
    key: "dtype"
    value {
      type: DT_FLOAT
    }
  }
  attr {
    key: "value"
    value {
      tensor {
        dtype: DT_FLOAT
        tensor_shape {
          dim {
            size: 24
          }
        }
        tensor_content: "f\022\003<&\240\t=\230\370\202>9\034\031\277\321\215\027>\337_\007>CK\352=\337_\007>\025\025.\276\335^:\276\202\310\207>\211\315L\276:\352\225=\233\025\214=N\025\014=v#\333=\367\231\231=~F\024=\243\255\372=\343u\340\274\377\2068>\3254\000>\033\326\347=%\240\t="
      }
    }
  }
}
node {
  name: "decoder/dense_1/MatMul/ReadVariableOp/resource"
  op: "Const"
  attr {
    key: "dtype"
    value {
      type: DT_FLOAT
    }
  }
  attr {
    key: "value"
    value {
      tensor {
        dtype: DT_FLOAT
        tensor_shape {
          dim {
            size: 24
          }
          dim {
            size: 64
          }
        }
        tensor_content: "\3303y=%\332\201>Q\007\205>x\r4\276\376\337V>H_\360=GA}=\341#\206\275\333\001\001>\0307\227>\030\003\310>\214\274%\275VQ\226\275\022FC\275\252\334d\274\374a\034>H\314\257=E\275.>\256\220\354\275\316\262_\276\214\337\357\274\242I_\274_\301:=\335:\210=\304\003\300\275\314#d\275`5\342=\210@\332\275rj\376<\206\254\325=\313\212\221\276\377\014\246=H\037O=D\220\224\274[\340\241\276\303DY\275\360\354q>\214{\212\275\254\"\303=\036\210\275\275\220+\256\273\322\246\261\276\035\277S\276\303\031\300>\306\267\237>\274\3133>\325>\327=\352\224\034>\220=\027>De\">\304pr>\006[r\276\303\243\323=|\370\302>\247\364\231=\251\252\362\274D\234)\276\245\252\346>m$\222\275m\027_\276\333j8=\270\205K><l\226>\212\253I\276\017\336\236>\256=R>\276\331j>\271^\023>\200\205i\276\320\374$>\230\2545=\022\372d\2760v\225>\252\351\335\276^\276$>!5,>\263\275\006?]\212L>\034\304\036>j\237\215>\n\322\032\276\3120@\275S\315\215\276\322\257N>\214\237M\276\252\231\213>LT`\275d\010t>\317\246\242\276\305\037\000>(\366#>\364\237\177>\206\353\214>XA\324;d)\246=k\350\246\276\235$\023\276\001\341\224>\335\352\317=X\254\020\275U#\265=\245$\260\275\247\223\301=\261\017\210=\345\205\031>X\207\245\275\372\324\034>\271AF\276\354\3623>V\001\236<:\t\021\276\267YI\273]\367\247\275\226\220>>\230\245<>h\3150>I\240\200\276\372]]\275\2611\004?2\333\023>\025\251\026\2761\257(>\014x\375\275bU\275>\200\000\022\276f\310\216\276\0242\275\275\352\245D>8\"\006\276\254O\245\275\204\310l\275\006Z\242\276\247\317\265>3\252{=\312\352\016\276\254\335\221>8}\247\273\356&\335\275\010u\276\275\304`\277=\225PR><\307\236=\026x\340\275\271\262\261\276\275\247T\276h\021\215\275F\026\227>^*\353=4\017\235\275\225\341\257\275J\307+>0\350==8\241\236\275R\214/>\226\330|=\376\302R\276^K\014\273\300\001[>\022}\034\276\375\027\203>nk\010\276zb\312\274\240@\336\275LmI\276\205M\266>\014\356t\275\031\0050>\321\177\005>@\010:\276\2001~>\310\351\362\275\226 \334\275\266\235\002>*{\262\275\030^u=\021K/>!\204\266>\276F\360=n\352\r> \026\302\275\366g\201>\311\327\347\275@\211Q>FxZ\276\200x!\276\000\002\254\276\272B\222>_5\270\276_\355\217\274d\025g\276l\240\341<\267e\024=\t\207\033?Y=\363\276\365!N?8M>>\236_+\276\212\275\002\277$Q\346=\374N@\277Bb\177>\000p2<!1\344\276\325\227-? \036\374\276-/??\215Q\371\276\3153W?\223\030\302>x\323\010=\030\311\024\277\210\315\234\275\365\021\274>\316\236B\276\360\337\204\276Z\002\373>0\251.?\374\206h\275\t3G\277\256\252S>\314\231\001\277\210\251\276=\214s\000\277\002\266H\276\033\214\332>\276.\344\276>\374\t?\203)\365\276\247.0?\352\016#\277e[9?\2279\361>\024\337|\275=N\312>h\257\371\276\252\246\372\275\353\352\257\276\3013\353>\354\325O>\230\026@?\353\243\316>\326\233P?u5.?&m#?\035\265\325\276\032ft>jW\200\276C\331\007\277p\360<=\034\251\034>\341\345\263>\2775\261>\366;p>\300>O\275J\371\004\277\322\323+\277[\301E\276\365\371)>a:B\276\027\025\031=\204$\247\276\253\366\343\276\305o\274>\322x\323\275\"_^\274\204\274J\276y\362\016>\010\2551=(\371\001=0\366\213\275/\250\253>~\366\205>\264\346y<(\301\221=\364\222\332=\203\211\207>\202\231\032>\014\032I\275\320\211\014=\235sp\273\240\025\206>\376\313\205\275Dd.\276\310\r\005=\n\030&>\254y\033\276\340\214R=,\006\003\276\300\237\211=\373\3478\276V\237\220\276\220\036Q\275[\252\342=r\252Y>\225\377\010\276L\3445\276\323\201\203\276\273\024\215>Q\341\000\276X?Y>\343\030\361<\204qT\275F5u>AQw\276D\333\242=z\315\177>\362\332Q> \271`<\300\351\001\276\305\017`\276A\234\214\276<B\334\274\024z\314=\216`\253>&{\303=\300\356<>\246\327\346\275\326\2222>\265\346\213=T\257\204>\200u9\274\332\301r>9N\374<\037;\314\275\254\313\311\273\304\374\005?\341IF\276\001\331\250>A\000i> \273\351\275\360\276\264>\211p}\276Z\335\177\276$\261\010>\301\014\224\2764\331J>8J\312=$\303S>+\367\224\276^\251\267\275\316+5>\336z|=\021\250\241>)U\377\274L\010\307<L\362j>\263\'\272>b~s\276T\356\005\275\270}\353>\035\316\027\275\177\243\021\276\021\336\211\275\214o\215=3\342\016=&\037<>^XQ\276\000B\334=\222\257o>\250\256\016<\033\240*>\344\363\361=:\256\217\276F\345\327>\315\255\230\276RT\334<0\014d=\246\177[>\314\002\355\275\254\371I\274@\311m=\360G\373=\334\223\354;\276\246\261<\324\315 \276\350\200\'\275\001\004\335<\300\001f>\243ui\276\314H->\234U\320=\3725\262\275\230\014g\2764\212\306\275\n?\255<\250\373m>\250/a>c_k\276p\\\322\274 E\322\274\244\330\274\273\362\331\032>\315#3\276\331\276\231=\003\252\267\276l\217\035>\274R\035\276^`\031>\370~\322=P\251&>$\037\237=MQ\232\274\244\203\254>c\371\223\276W\261\341:\350\365\266=\241!B>\234\2744=^\315\013=\377w/\276@\250\251\276o\326\323>\261\236\202\276\222\240R\276\350@\">X\030\360\275\340\256Q\2751\231\234>\321\035\236>\374\274\311\275d\265\030>_\023\364\274#S\315\276\310\255\014>9\353\027\276kX\256>zT.>\020,\021\276\261\276;\276,\231s>B\2161>\301\314\005>\2548J=\271\365S\276\226\371c>\316\024\237\275U\343\306\276\034\355\356=`&\334\276G\260\240>\014\310\034\275\030\204k\276\000\365\206\275~\361a<|/e>4\237\001?\210?\217>}M\002\277@&?=v/@\273\020B\252=B\177I=^\317\311\276PAo=\225\227\240\274p\356\215\275\3008\262\276\270\252\013\2760UA\276BTe>\224\0366\276\314\013\321=\272\t\202\275\310\233\351\276Y\352\256>\342\374V\276 !\244\275\253\277?\276\230\253~>wa\245>\244\200\250\275\t\214\234>\361\010T\273\335\302\246>0\377q>T\n\024\275G\255\267>O\034\n?\177#\002>4\027\340\273<.7>\032\376,=\032\211\366\275B#\004>rf/>O\016\347<\357\224\367>\265\226\251>b\250\370=\004\2365\275(\323\274=\274\335z\275~.\021=\264\370#\276\306\305\014<\245\333\275\274\300\203D>\320\005\207\276\"\374\027>\016\236\325\274\316\334\022\276\004\345{\276z\312|=\311i\014=\243\314]\276n@\210>2\367\223>\324@&\276\274\362\217\275\3412\226>h\030.\276\226q\225\276\333\377\212>/%^\276\250\355\022\275:\321\266\274\243;s\276X\033\220>\213\0274=\340\317\327>h\270\324=\216!\235\276\231$\031\276\3012\356\275\300\371\317=Yi\022?\327-\230\274&\236!>9\017*>e\263\334\275\302\205$>6\273\320>\312\311\232>K\005\004?\022x\205\275@\247\210\276\272\343%>\327\037@\276\326\245^>\321Q?\276\314\304\r\276\250\323\037=t\373t>\226x>\276\370\336\251=\363\221\007\276\270\347\204=\245\270}>;\334\t?\374\217o\275\\\240\311>\022-\020\276W\032P\276\330\223\277=~\264+>\310\315\256\274\\_I>\005\231*?;w\234>\323\323\243\276\007]M>\3458\336\275\340g\315>\355\347\247\276\005e\220>\314E\271\275\343\376k>\035\221\260\275D/\017\276%\362\267>\2158A\276\232\031*>\327\274\332=\\D\263=\r)\n\276\244\237\307\275Fy\273\2764\336\264\276\200c\227\274\024^{\275\222^+\276\014\275\202;\213M\330>Z@_>\362\346\235>\332\346\335>\023\311%\276^\r\377\275\231,\200\276\331[K>\302w\016\276!\212\255>N\007\014\276t\370\370\273A\320\310\276M\036\247=\251\215\252=/\315z\276\355\327\304>2+\020\276\\\"\212>\321\250\275\276\337F\006?\230\255\344<\014p\230>\020rx\276\017\356\003\277\206\277h\2763Q\002=\332\322A\276\220{\031\273\337Q\263\275[\033 >\232\347\241>d\0145\276\21000\275\305C\024\276U|Y>\030*\036\276|\000c\275|\200\004>(\001\025>F\010\247>\000\322\270=\177\207!\276rK<>\340mM=\014\355{>\317p\213\276\023$\210>\217>\374=\270\235\244=t\373\r\2764_o>\020\202*=k.b>p\316\203>\343\203\004\277\352\002\375>h\345\031>g\367U>n\212;=\374\315\216\276\0002~\276\300\350\236\276\t\232\207<\006!\217\276*\244\260\275-\334}\276L\267O\276F8\341<G\357\247>\006F\016\2739\216m>\005\230\206>\353\2636>\210\376%>\316\026\014\276\337t\230\276<\025C>o\234r\276SQ\366\275\343g%>I\002F\276P\\\302;\314<\334\274%\367\210\275E\266\030> \231{=\265/\001>.\035\264\276z\032\334<\367\360\320>\251:\235>\000\030\202>\251\3256=lW#>4Z\313=\354\364\307\275\351q\245\276~\256\330\276\022\246\353\275\303J\221\276kH\223<\037\037G\276\213\275~>\312\201\222\276,\255\321=\352X\234>\307\t\232>\024\320\300=V\327\205\274\302\245\275=\201\324\246\274\001\205\235\274uv\'\276\202f\351\275\232\361<>\344\327\270=\375\353\216>z\020\024\276i\361\021>\032^(>\223\314p>\337%\207\276\323\235,>\213:H\275\374\312\023\275c\314\373\275\273/\207\275K\357\253=U\233\273>L\330\n\276A\033\236\276\252\275\263=\205z\210>oB\231>\236\363\354>T\'\272\275\007\032/\275\034me;66C>\307*\014\275@\246\212=\357s\225>\323)r\275cYh>\230{\345>\206t%>\307\212\322=!\032\227=\0046\253>\362v\\>\005M\252=\277\236{=\324y\023\277\363H\200>\024\024_>\327\006\216>\210n\377\276@\353I=\016#\032>\341D\307=&\"v\273\026\005\253>\247\313\353=v\030$\276\243\370\226>yH\224\276\223\025V>vp\200\276\000YL>\261P\203>\224Q\362>\024\321\230=\212\034\254\276\000*\007>(/g\274e\"r>\330\212|=\311\3123\275\005T\016>\177f\215>\326y\">\021D\255\276\220]B\276[\207\357\276\326\371\355\275<M\362\273\270\230\331=\034\006n>,\025\351<i\025\'\276l.\207>\334\333==\005\365\332=\266\237u>bJl\274\375\366\201\276\204\252\254<\032D\303\275\317\275\252\276\233G\252>KZ\310=\221\320\272\275\372a\272=(qo=\352\354O\276T~\304\275\324\350j\274\257\330\033=n\232\021>og\211\276V\370\022>\000o[>\272a\'\276\022%\326>\032\364\250=\345\210\214\276\212\330\t<$t9>\322lv\274\036rw>\224>\253=\357C\201\276\261J\211\275t\222\241\275\305b\216>\326\345f>B\204\301\276\217\007\004\275w\001\206=S\t\001>\217\351\206>tw\355=.iE>\364\022\223\276\202\276(>\307\210\207\275\372\273\271\275\352u\004\277Z\201\332=\342L\014\276\363\001M\276\"\345\264>\330\034!\275\037\020a\276\017`\n>\030\2257\275\333\214Z\276rb2\275\237\256\034\276\000\030\003\276kE\007>\320\355h>\013\327>\276x\372\240=8\030\033\275\360Z\302<\034\306j>\340\332!=\316a8>\240\246j<N\014\326\275b\3637=h\320\370;\364\370\261\275K\022g\276L\261\016\2760\326\334=\005\025\273\274x\367G>\230\206\217\276\272^K\276\300\334\201=\310\2613\276z)\016>\316H\201>=B\201\276\201\340<>\256>\004\276\207\033#>F\211u>\340g\201>\027\350\272>)u\221=\360\254+\275\273{\260>4\210\224<L\265\237=QF\271<l\036(>\374,g\275\336f\035\274\026-@>\222B\206>\036\323\245=\343hq>\246G(\276\2625d>\200\'-\275D\001\306=\255\0008\276[\225\265>\260\\\322\275\241\244\255=\377\240\212\274,\277\362\275\266J\236=\252\035J>\322cK=\242\t\005>\374%\265>\204\302\370=\257x\202>\270*U\275t\263\240>\237e\271\275\344\304+>\254\377z<||\207>\203.\215\276\250y\321\273\022\237|=\355\360\265>H#\037>\310\213G\275\321\022s\276\\\\\301=\260O?\276\3345A>\244\313@>LZ\316\275$B\005\276\224\345\317\275<\235\014>#D\033\276=\212\234>^\345\271\274\260o!>h4\322=\363D{>x\004$>\330K\274>(\216\n<\227Ag\276\020\345\261\274\\\242\004\276\030\227\"\274c_U\275n\2768>\234\267\330=\236\313\306\274\270\2056\276\361\340\214\275;\304\232=\250\026\254;\350t|\275\024Ks=\t\003\212=V\344\030>d\037\035>S\024\372>\312\211\027=.\344->8\027j>\311\024\004\275\030\371p=\013\372\t\275\356W\214\275\031=\220=\264\242\013\2742}c>\226\307:>PI\253=\344\342\325<]\224z>/\"P\276~\247]\276\206A\326\275\276|\204\276\202\356\274<X/\273\275\020\377\245>R\305\022>\233\270\034\275J\271\002>\2006\r=\004\236n>\340\267J\275Fi0>\330\326o\276\330a3\276\317\356}\273\034`V>1\253\010\276\250#\202>\\\214M>\010\322\302\275?\241\213\276\035\237\267\274\336\3617=wF?\275\360\313\235=\355\233\005\276\027\250%\276\002>\027>\375C\007>)\327T\276\250 \316=\277\245\215>I\026\020\276\247\010&\276\337\336\343\275`\360\221= \200H>h\325{>b\300L>T\003\271\275@\325\206\275lb\n\276\360\242{=,HG\276\257\347@\276m \214\276\240\336.>\236K3>\233\034*\273\220-\013\276\234k\201>jnf=\353H\007\276P\252\275=\366Q0\276:\277X\276\311\020\301\275h8?\275q\233W\276\004\037\032\275%\351\247>\014\030.\275\\z\221\276<\325W>\030:\312\275\200\354\365\275\210\230\035\276\325\202C\276?;\025\276\345\310\246=\254\341\327=\260~\005\276\242\320\002>r\246\016>rP>>\200\332B=\360\224\020\275 2\226=\270\300D>\200C\333\275\000\032\346=\006S1\274?\0135=\2603\237> \371\330\275>\263b>\3367/>/\022\205>4\274]>\234o\036\275\366\017K\276\024\254\207=\306\013\330\275\244\264i>\202\n\202\276\350\252\277\275~\302n<@\014\240\275\374\352\216\276\035r\214>\tG\245\276\344\353\312\275\356\336\220<\340\022\316=@[-=2\343\\\273\010\254%>\226H\003>0\306\214\275T\233\234\273\252\316[>p\373\322\275\000\317\235=\330\265\346=79)\276\274\352\220>^*\205\275\306se\276\374\343\302=\004\303\270\273f\375\023>z\3327=\270rK=S\037\221>\\\332\325=+xu\2767\002\226=\276&F>\366\032;>\022\221\326\27546\203=\014T\335\275\320\226\n>\3128\360<\264\000`\275*\002f\276\004\210\376\275\306\314\323\274\244\344\033>l$\235\275\372\342w>\316\334\004>Z\3630\276\373&\214>\264{r>\252\324\206\276X\351\272\275\273a\234\276\200T{==G\223>;\334\033=\370\033s\276\252.o<\257P\204\275\r\340\006;\314\0260>V\352\215\276\241\317\201>\275(\231\276\334\233\337=\334\267}\274\334Mc>\357\373\232\276J\017\350\275j\264\212\276.\272\n\276\330\225\025>{>p\276$aW>\332\321\266>\216\307M\276R\346\245\276\333\322b\276\033\033\320<\363\367^\276\036\252\006\276\034\353_\276\241\017\357\275Lr_>\345\273T\276\236\352a<\274\177R>\037\010\264>|\236\245=\026\373D>\250\325\355\275\023L\222\276\304\213^\275\214\242\315<\260c\247>\257\3002\276>EE>%\375\020>\314\224\375=\361\222!\273\251\313\203>\264\221\232\276\235\240\202>\303\227\006\276\\\230\021>\262\366\313\275\344\027\231\275\240+0\275\tL\203\276\234w\255\275}r\300>\317\373\204>B9e\276\214Q\207\275\261\302P\276d\217\220>\017\362~;\035\220\201>;J\245\275p-(\276\230n\245\2758g\347=J\021H>\360qm\276$q<\276\230\305\017\275\003\'\211>\2562\271\275l\352<>\022\200\206>Rv\320\275n>\213>\304\371\321=\004R\236=H\333\220=,!\033\276X\374\314\275\030\034=\275\351O\000\276\023v\037>9\010\216>\254\364\352=zUg\276<8\315=\333]G\276\326\033R>+o\227\276\017^\243>WYY\276\306{<\276\016x%>\217\3634\275\004}\222<\024\303\321=\252\355c>\035\215\203\276V\037\224\2764\341\271\276\242\3037\274\252!\250<\247\336\353\274/\216g\276\203\231\234>c\335t\276\200\210\226>\247\356\201\276\021\305F>\333\246\214\276\006\010\366\275\326\'G>\211\236\302<\324\002%>nG\200>\230q\251<\250?\364\275\371\206\234\276\207\315\365\275x&)\2751\251\227\276\243\247s\276}e}>E\344\264\276\332\345\212\275\277\255K\276\264\336\270>\021;\206>\302<2\276V\311\n? \016\020=H\323\211=\\\023\323\275\232\215\365\275\002\362F\276uJ\352>\230\261\256\2764\335\303\276\343W\311\274\257\004y\276\237H\235\276\360-\013>\006\025\200=\220\201\237>\251ra>\310\361\203>\254\240;\276\311\345\360<\350\024\037=G\357\236>\264\366\252\273O\364\232\276\201Rf\276H\322c\274Fp?;\353u\r\2770\251\031;c\235\232>\030_\n\276\217_\257=\267\320E>\370\213D>\274Y\250>v\247\254>`oP<\363^\312>x\273=>\376\350\331\276ZH\">G\375\204\275\004\273\364\275\036~\235>0%\r\275V7\013\275\006-\006>;\354\233\274\236\214B\275\207.@=,\334\313;\304\346\367\275\372=\312\274ATw>\204\320\303\275\347\351\204\276$-\336<\215\300\231>\310\1776\275z\234\207\276\212\313b>\266\275\021=c\337j=\355\312\201>\016np\275\240g)>\243Gb\276\340(i\275\034\306\236;0\271\332\275\3706\\=<M\241=Ct$=\260[\274\276zf\022\276r!\005>\327\370\215\275\363T\230>\304\231\224=\210\317\240=\235\232\224>L\251\273=\276J\017>\273\370t\276\374\"U>\275\241\211<\223\217\023\276T\274,\276\270)\363\274\032w\031\276$\324\202\273\036\215W>\214\255\007\274 \330\232=\234Oh=D\030\360=x\300\301=\004\347\265\273\272\260m=\006\353L>m\334*=\365\341\t>\274\021\257\275\034\316\205<`\'\262=T\323E>\354\304\316=\025\033e\276\252\325\324\276\203\3136>\0203\205=$\001\234=\345k\034\276\250\254\322=\312?\301\275\332\350Q>\303\202/\275dM*>p\273A\276T\215\305\2763\263\247>\312\031\005\276u\213\213>\264&\235=\316\376s>\231\335\322\276\033Bi\276f=\032>\024\311G>\006\367D>(\233\320=\")\254\275R\177\014\274\r\250\r>\346D\344\275H\227L<i\251O\275\355E\226=P+z\275f\017\341\274\026\256%>\276i\002\274\346\371R\276\246\235H>8}\366\273\020\260\001=\236\236\016>\020u\027\275\264?\266=@\2632=\024\322\207=\343\264\257=Z\237\310=\336\365\026>\214\353\304=\224\200\374\275\3266?;\260\365\246;\003\343\250\274<\357\217\275:\201\231\275B\2459\276\320\005\321\275N*\225\275\252\347\367<\240\371\305\276r\2126>h\342{=\371|\240>%\304\245\274\264\221\247\274\213\302\275>Y*\217\276-\021\311\276\020U\234>\030\2362=\314:`\274&\014\027<n\345\357\276\217x\222>\314\032\230\276V82>\00271>\204,\010\276\266\342i>\362@\326\275\230\340+=\000\272\345\275\220\035\000>\244@\324=\024&Q\27523\250\276\350j\277>|\205\315=\252OI\275[\225\001\276zT:>\330\203r\276\"\010^\274\226\243U>\325\307\211>\240\275>>\"\216\242\275\214\316\242=\222\"\327<\236|W>\374\021Z\276`c\222<\271\342\205>l4\303\273\230\375\310\275FTr>\260\n\005\276\237\332\264\276\336~\211>nNT>\320\267\036=\305\254\234\276\033\270|\276\267\203g>0;\223>\200Sd\276!p\n\276\357\347\263<\202\243}>4\370>\276qM\"\276\317\347\257\276\036\221\007>\302}\260>\007\221\223\276y\370\\\276\355\027\220\275\263Z\032>c\327\360<By\274>O\352\023\273i\205\036>\256\203\201>\340l(\2762\236a>\010)B\276ut\214>\214\254n\275\000\345\257\275\272\336\377\275\237aq\276\256\204\201>bk\345\275\314|2>U\337\272>\016u5\276!\214\362\274\232\003c>!)\304\276\022\223D\274\0326*>\356\301\257\276\324t]\275\206\331\\\2764I\245\275\n\353\036>\356\246\205>s\256\215>|<\372\275\000\007\220>\n\313\231\276\246\t*>\220\014J=<\332\363\2730I<>\213\361[=G\334#\276\t\300,\276\203{\002=\341\002\273=\246:\244>\352OR\276\227~l\276\373\267\323<\346\244o>b\254&>}\202\350<yH\235>\\\221\274=\366\226#\276CY\010=\014bh>L9\204=\212\027>\274]E\223\274^\224\030\276\274\315\364<p\274\332;c\322\215>\244\250v>"
      }
    }
  }
}
node {
  name: "decoder/dense_1/BiasAdd/ReadVariableOp/resource"
  op: "Const"
  attr {
    key: "dtype"
    value {
      type: DT_FLOAT
    }
  }
  attr {
    key: "value"
    value {
      tensor {
        dtype: DT_FLOAT
        tensor_shape {
          dim {
            size: 64
          }
        }
        tensor_content: "\004\267\321\272\20694=\326ZS\275&\240\t=\373:\001>\376\317U\275\007\247\350\274^\373K=\006\036\'=\027\212\260=\005\214[\275\211C\213\274o\302\206\275\017\316\252=\273\314\314<\266\241V\275\246\3620\275O\256\330=\243\321\221=\007/\335<\370\346\214<F\204\236\275\333,\324=\007\333\212=>yi=\350\355k\274\030\267Q\272\305\253-\275+r\212=\"\222\355\2754P|<\336Ms=SU\301=\233F%\276>\235\000=\253\215\227\275Uv`\275\316g3=\253\373\313\275t\322\336<1\277\216=\317$\227=\246`e=L\361t\275\017\316\252\275W\241\370=?Y\206\274ft\265\275\346-\020\275.\\\017=G\204\236=%\200\267\274&|r=.pN<\3208\347\275\036\300l=\236mE=\007\333\212\275_\201\225=\323\265\204\274u\322\336<,\240\211;\217\262\235=q\342\307<"
      }
    }
  }
}
node {
  name: "decoder/dense_2/MatMul/ReadVariableOp/resource"
  op: "Const"
  attr {
    key: "dtype"
    value {
      type: DT_FLOAT
    }
  }
  attr {
    key: "value"
    value {
      tensor {
        dtype: DT_FLOAT
        tensor_shape {
          dim {
            size: 64
          }
          dim {
            size: 128
          }
        }
        tensor_content: "\014\327\022\276\031K\013\276\021\027\357\274\177>v>\303\363\031?\245o\204>\007\t\356\276\262\177\357\276g\230<\277\237s*>\312\005\317\274\314\326\017>\367y >6\257O\275_@\243=\266]\352\276t\026\210\273\361\030+=R}\302\275\207J)>\303\274\250<\251\271\000>.i\347=\314\323\353\273\nt\302\274r\234\034\277\020A\206=\234\246\255\275&+>>\037\025\010\277\306\373\307\275\374\023\202\274\246?\035<\034\345\344\274\276!\322=\322\343\222=-\000\372\276\000\230-9\303<N\275\013\354\340\276P\213\361\274\316\177\254>\302\265\344\275\334\212\032\277Op^>\347\364\230>*\211\214>\260c\354=\230\302_\272\030\363w\276D\007\030\277\317_\347\276\232\305\017\276E\204=\277\247\245\'?\211\361\233<\024\031\334:\272\2051<\251\203<=|\336z\274*\352\330=\036\354\303=Q\242\036>\303\202|>\216\363\333\275>j\223\275\373\303\264\275\322\247\t\277\026&\300=\337\233\313=\030]\363=\311\006\010>I\032\007\276\246\3572\276\t\036O=\010\3007?FD\314<\246\004\240=\266\304\235<\250\375\370\275X\240z=\347\375\r>9*\004>\262R\216=\360\230\204\274(\001(=\353\307\'\276\262[q\275\300\302\322\273\214=!\276b5_\275\331c\037>\036|\234\275<\364\276\275\214\323 \276\240\2727\275x}\324;\323)\035>\372\240n>f>\317=\"E\227\275ha8\275\347=\246\276\330Q\355\275\252\222\370=\264\203\023=\221e\307\275\347\246\356\276\343^1>\350rl=\346\244\320\275\n\202\266\275~\331\256\275\242H\013\276\360\307\216\274\300G\215;\254\371m=\324\271{=5l\001\276\024\305r=\236\232\300=\230E\'\275\212\352\235=Hl\001\275\020\2402\276\370\254\242\274\201\243-\276\200Ms;/|\271<\376\336@\275TC\017<\374 \032=?\332#\277\021\037\305\275\225f1\277\242R\376\276\n\246\032\277R\327\210>\224]\214<\260\253\376\275\017\2721>\364T\016=0^m\275y\230(\276\306\214\225=\334H\"\275\362\357\363=\300B\261\275%\237\212>\356\230\326=\262\357):V\213\246\274\276\372,\275{6\024\277\\\215\037<\307\361\"\277\356O\267=\364\001?\277\352P\214=\206)\264=\272\227\230=\036\214\322\275b\025\312=q\215\003>\017d\031\277|G}\275\357\266\025>\222\222*\277\356\262H\274\230\023&<\266h\207=\320H\034\277f.\373\275v7\320=\r\024\004\276\345\264\264=\367\271\230\274\217\221M\275\227/\005\277l\203.\277\233\3754>\3400\004\277\356\327<\2775\030!\276\225\255)>\344U\211\275~\006$=\276<\346\275\271eQ>\225\313\321=\242\277\227=\r\266]=\305\244\003\276\300\246\357\273:^\002\276QI6\277RY\003\2745\020;=6\354\030\276p\315\304\275X\300\304\275\315h{>\364\037\262\275\357n\350\276h-\225\275T6D\275MNq>H\366\304\275\341\3131>H\3654\276*\343\301=v\025#\276F\316\364\275<\014\030=R\207\230=@\212\267\275\345\303\006\276.J\235={\340->\314L%=\250\201\242<\314;t=\307\261\026\276\240\030\270;/|S\2752\320\266=\273c@\276\350i\363<H\351\252\275j\204{<Na\257\275I\334\377\274 \314Y\274\305\257*\277\253\343\035>\262\3403\277\340\306\\=]\347$>\253\202=\275\313\234/>8f\240\274\265\253\010>p\031\017<\244z,\276\242d\025\276Y\004\365\275\031\267\322\275\360\222\273\275\362X\352=\'/\024>>S\370= \220\352\275\246\322h\275X\343\207<9.\001>$+\346\275\025\263\006>\254N\r=V\356\222=\014\207\211\275B0\333\276F\346u\274\3657\366\276\005\314\r\277\343\034\001?\270\204\373=\344\355\240>\0054%\276 \246\356=\366U\026\276\311\366\213\2761g<\276\374!\264\275Z\246\214\276A\322\213\275\265\347A>\217G\001\276^{\341<\020\254\370=\027U\031\275\205\241\307<!R\323\276\3402+\275\247\3456\277\310\244\356\2737\251\014\277\020\312\374\274q\234\324>\263\234\035\276\202\313\252=\312W\233=T\315\303\276\310\313-?\272\021\177\275p0~\276z\005\024\277l\300\215\274\025\353+\276\3268\263=Tt4\277?\203\233>\236\205\310=\027\347_>6}\224=\020\207\250\273\030\366\260=\246\"\t\277{\326-\277\320S\303\2756\266&\277\nbA?W\235E=\336\t\246\274F\267\253\275:\033\323=\204h\260=\264\355\020\275>\365\201\272\206\346\236=\216I\226\2751&J\276\362\'\330\275\265\\\202\2761\n\233\275\333N\244>L8\016>\361\257\333=\221\017G\276\236\264\344=Y\274\022>\302\t\220=\357J=\277fu\332\275\371\020\001>\324\304\022\275\324d?<\n\230]\275KT\023>y\"\316\275.\356\335=J\320\316\275\234\350\021\275\366\207h\275Dy\375\275\311\334\t>\266W\367=4\201\n\275\204\254\023\276b\307\245=\322\242\205\275\347\305\347\275\200vp\273n\370^=\220+\323\2763}\343\275g\023\200\275\340\311\034\276\373\316\240>6=\303\276\210\301s<\306BL\275\201p1\276\3543\321\27540\025\277\352\247\337=g\241\330=Em\230\274\246\300\201\276\342\211\271=\310\315u\275@\241\342\275d+2\276\375\214\034\276\000\214j<\036\375\276=_\333(>Y* \276\340\330*\276\3668\241\275|Y\211=\252\253\334=\023\'\024>\347\023\021>\214\177\t\275\207\0263\276\346\325\374>\356%\232>IX\253\276\033\2369\277\241\276\233\276=_E\277:\014\037\277T1\333\276\025\332\005>\215\214\222\271\032\033\203\276\310%%\275\362\351\005\274gY\n\276\207\326\021\276\214\322\n>\013\230=\276 \241J>\306\275\375=\360\242P\275\0131\263>Z\252\213=]p\375=\373\202\300=\2554\017>_\225y>\204!\014\275\324\337K\275\370\371\006\275\332\010(;grj\276\004\346\260\276\367>\034\276HR\236<\333\303_=\246\374\343\276\340\254\333;L\250\212>\037\241/?\320\251\001=\022&\322=\"b\234\275\350\334\376<\272o<>t\223\033>\245A\213\276\025\226)=Z \262>\334M\256\276d*\004?=s3>\240g<>>\366\004\277Pgs\275\277\240\t>\023\252\007>\337v\002\275\317\n3>\345\215\336\274I\331^>K\242}=X\233\254<,\302\213\275 m\260<\250w\217\274\231.\360>\350\370\222=\242P\036>\004\256\227>4\001y=/Fb>39\327\275\251r\223=,&\245\275\277\346=\277*s0<7d\307>*\036(8H\365r=D\214\035=V~\341=0_\204\275\203\257\037>\2602J<\240\036\010\275\212\305\257=\231e\n>\353a\336\275\357\231\020\276\344\245\205\275\242\314\033\276\\\245s=8o\235<\352\254\270=[\354*>\252L6>w\301\n\275\306^\332\274\212\220\004\276\377\364\247\276Q\323\226>\215q\204\276r\274\256>\256+\371=l\262H\275\016\205Z\275\206%\013\277H\263\263;\306\254\267=\375\353\255\274\004@$?+\000!>\372s\367=\370-\273<\300G~<?=.>@P\202;{u\013>\255\331\323\275/\3263>\324\3050\276\373\r\241\275+1,>P#\252\274]Z\005\276p\200\205\275\321\032(\276@\271\340\275\256|\202>\026\036\327\275\320\r\341\274Qy\274\276\365}\377<\246\355\033\277d\253\006?\372\023\244\275\276k\302\275Q|R\276\264)\327\276\307\320\331\2751\305\211=N3\250\275\364\346\022>\204\271\227>\304\356X\2750\002\214>X\253;\276\224\364\004\277\037\362\262>Y\311 \277Q\000x\276\230\004\227\276\024\254\352\275\315\322\226>\211z%\276\376\240\204=#\233\377\276\274\222\204\273\364yN=\272\325+>\3537\215>T\324F<\3630\264\276\266X\'?\252\271\265=\206\265,>PxE\277\226\340\\>\254\031\276>\237\277G\275\362\303\366>\3337\242\276\000/\372\276\241H.\276\263\224\n>HK\204\276\257M)>\345y\271>\224\304\013\275MS$>C\300\031\277\007kB\277\034\235\377\2757\271?=\370\245(\276\342\020\232=2\036\350\275\243\225\315>\"\3678>T\225S>\021]d>\217\022\033\276\200\217\352\274\260\004\272>h\317\246<7\321J\276\243>&\276\353\337\246\276#\023\246\276\305\031\336\275\251\303\210\276B\013\266\275tz:?\346\264\340\275\355\323\200=\300\320[\275\265`\013>\177I\301\275\220\305\200=\177\n1>G\310$>\2007\025\275\200\373\253\272\261\220\261\2758\244\270\274\361\304\032>~n\370=\300\257\007\274\002\325\341=(\315\030\276@\007\006\276m\251\036>?/\010\276\232\300M>\007s\250>\037\244\023>\222\302$\276\031\212X\276\345\335B\276\016#i\276% S>-\036\265>P\362\033\275\376\016\214=wL.\277A\322\311<\030\026\037<\013\'\017\275fwA\274^l\033\276\272\247\335\275\324\357\022=\367\260\267\275\244(>\275\001\0160\276\270\034\210\275\220\343\373\275H\235\220\275\324w\026\276\240\341\026\275sv1>X\031\320<\347\205\006>\377i\036>H\275\320<J4\332>0\311\001\275\251\212#>\230M\203\276L\352\375\276B\337Q\276.\222 \277\370^!\277\270\321%\277\366\027J\276\306\020H\274\262\212\326=i\202\002\276\373q\250\2755r\310\275\340R\346\274\n\010\305<4\002P=[d\027\276U\310L>\312i\200= 9\340\275\324\021\256\275=4*>\236\3105=\014\177\007\277\221\3113>\n@ \277{\340\241<\016\211\330\276\0064\300\274\217\364V\276\\\215R\275\236\271\273=\201\342\224>\'2H\275sKD\277#T\004\276<pV<\305\352\336\276.\226\251\275\222 \301\275\223@\355=\3576\001\277A\206b>W\"m\276?\t]=\343\0306>\305fB>\243\025\317>\320P\007\275\000\302<\277\206\214U>\366K\034\277u\356\004\277\330\257\223>vK\032\274J\370\367>BR\243>\323\245\345<\357\304\016\276\345\036i\276/n;\275\353\031k=\301-\255\276\371/\265\275?\331S\275@\023.\277\3626\255=kr\212>n\002\242=\0175\026\275\204\002\366\276]+\227\276/\010Z>\266A$\277e\355\217\276\357\244\270\276Z\323\001\276UT\023>\343\222%\276\275i\037>\022\246\246=\327+\023>\216\262\260=\340pL<\006\354!\2761\262\005>*\302\323\275\320;F\275\222\337\377=\005l\026>\355\223/>\375\027\034>A\307\024>$\307\001=i\004B>\210\251f\2742\311\256=\372\211\212\275\376\\->[#\000=$\223~=Mm\313\275\240B\263\275QL\005\277B\263\010>h\264<\277\205\337\214\275\000\333\032>H\3350\276\304\326\364>\0344@\275\013U\033>\371\006\021>!,1>\340=@=p\210\002<`tA\274 \275,=Q\320\036>\262T\251=\004K\203\275\001U1>pm\204=R~\006\276l\026\024=o\030\220\275\363\022\020>\025\207b>\273uo>\006~\377=f\311\033\277+m\236\276*\351\007\277\2601\r\277\277v;\277\346\272\232\275\274\220Y\276\253\325\217\276\361\330\027>\320b\344\276\264\207\007=T\220+<C\310\n>\271q\211<\nNx=<J\030=>\006\374\275\331\373^>\350@W\276\326\004\316>\356nD<\006\214\355\276\254,l=Z\0063\277\234\n\005<\310\256\014\277\034\364\314=K\223x>@\307\327\275J\232S\276qU\013\275\036R\263>\303\323$\277m\260\031>\302 \276=\014J-\277\013\255Z\2756\"\220>q\'\225\276r\031\345\276$\002\345=\264\013\260;0/\251\275r\354\363\275\2270\202=\032\310\326=\002\241\260\276*%\337\276z\034f\276\323\365C\277\022\307:\277)\220n\276\350\230\234<\234\257 \276@\210\361=&p\324=z\346\023=/\317\317\275\214\n\221\276o\332\260\275\2602\306=\270\310\277<\324Q\005\275\341;4>\233~\263>`4\336<\262+E<\'\021\036>w\377\336>\177zn>\033\327#=\033\025\365\276\007K\352\2764\344E>\353\0132>\326\222\330=\324u\274\275\304\347\341\275\3007Y\274\366\365\370=\366\375\327\275\3023\315=>\235\333\275\217e\035>\306\rY\275\270\"\222<V\016\245\2750~)=:\243\n\276\352\345\250=W\225\321\275a\355 >43L\276\261\362\017\276\024\260$<\003\234\r>p\330\314>\227\273\244\275\271y\241=\316\013\314=\203\224\t>\241!\003\277XZ\246=]\300\005\277\364\373\355\275d\036\250\275\204\271&\276\366\322\036\276T\362\335\275\235T.>\221\313\377\275;\316\354\275\033\307\017>?\301\030\276i\334&>^=\332=\312\237\312=\010\370\301\274\3660\371\275>&\004\276\036\314\324=\270\217\346<\n\005_\275\232\204\265=\027\215Z>L@\024=\260\3762\274d\360\003=9+\016\277\341wY>E\343A\277\004\244\022\277cp\013\277\374h\333\275\202\342\215=d5w<\372\210.\276\213\243\033>/\200\355\274Z\014!<\256X\"\276\315\232\325=\245\362\027\276\233\226\031=\324*\\>\177g2>\2126\003\276\302\001\231\275\352\370\177\275.\263+\277\010\032\277\275f\343\021\277h{8<\373\032\334\276\272\013\201\275\312\333\361\275\000v6\274\363\013B=\314E6=\203)G>\360\023\353>Zr\301=\240\310%\275\22191\277P\262`<\237T\242<W\232\'>=:\n\277\214qm>\224Y\220;\351\314\306=\\NO=X\017\177\275\204G\014\275\035d\345\276\333\270.\276\366\314\272=\177\374C\277ZK.\277\270\312l=\026\201\366=Bbb\274\264\237>\275x\022\005\2769\227\t>\013\345`=/7\002>a.\024\276 F2\276\005\3452>\n\324\250\276\000\033\034\272\202,\316=\017\312\221<\\\037\312\275#;\324\276\371y\377<\314\271\305\275\252<\225=Q\017\014\277B\211\032\274\013[\353\2759\227B\276\263\322D>\364W\001\275\010\230\221\274#\361,\276L\013\n\275\312\340\323\275\301\336#>`v\t\274H\006Z\275\203\211\036>\002\346\247=N\363\266=\000`~8\311t*\276\354\262\206\275\000\272\022\276\350\364\r\275\214\030\276=)\177\230\276\317e\'>\010\305\005\275L\006\212=\274SM=\243\332/>\224\010\216\275\004=V\274k\363$\277)\373T>\306\237\007\277\000\\L\274\006\317\013=\0221[\275&\235\202>8o\034=\200\017\240\272;3\232\275\234\353\267\275\260[V=r\267\256=R3\002\276\371\306\211\275ua)\276\226\r\230\275!\203\030>~J\233\275\352\177\334=\222\267\365=X\310U\275vi\327=\306\267\256=\314\363\245\275si\024>\\Vh\276\322\251\353\276)\310\250<%\263\345\276-+\323>\212\2369\277w\366e\276fU\345=\233t\254\275\272\323h<\212C\336\275K/\302\275\323\320q>,+\376\275{}\257\274LJq=\245Z\202\275\223\016\263=\257;+=%\004\352\270?]>>0Mx=t\215\304\275\226\276\261=0\240\237\275\023\230\017>\tL=\277/\216<\276\367z\275\276W\247h:\263v\243=\017\317Z\276\206\022`\275\372w\027?\364\007\030\276p\204\344\274A\341\000\277\270%\314<\3279\301\275C\004\210\274}\3130\277j\253\347=&\t\215=\r\003\032>\217kE;\332\317\200\275\254\356\244\275\362\010\361\276kf\306\275\362\254\315=4e\376\276f\355\024\277\007\357\222=TU\r\276GS\\>\"\317\263=\037\361\014>)\237]>\202\3075\276\255\r\024>\336_\252=8y\265\273\000\214\244\272}?\010>\310\3477\275\216n9=\322\342g\274\234l\360=\223n\002\276\n\305\335=\002I\327\275\316\310\264=\244%\031\277\256\225\203\276r%\274=\264\031L=\227_m>\224#(\276\371\376\006>\324Z\036\275\273d\002>Wi\010\276~\203\361=\300\314[;6\374\375=\021\0251>PY\332\274\273\371\000\276\221\010\037\276\321S*\276\343I\334\275\246r\273=\320\266\027=6\256\261=\354\"\177=\024\305k\275dLh\275\345\256\320=f\t\304\275\240\316\351\273s):=Q\337\004\276\253G\022\276%\004\030\276\322\rD\277\204\"\263\275X\016\350\275\301\274\355<\235i2>\320\333\334\274\"\343\303=\336\224\t\276\340\220\237;l{q=\0360\350=\032i\305=Ff\326=x\305C\2752\240\247=\334\202\001=\260\305Y\274\237\203\t>\013\212\347\275\236\361o\275\201H#>\"t\314=\353\302\251\275I\330L>\030_\006>\\G1\277\203\227\307<,\373\337\276\215\271\366\27624\035\277d\374\375\275\302\256\260=.\337\306<\274\336\t\276x\364\225<nS\272<\245\206r\276\252\327\357=\217\311)>\032\243\003=\201\225\210\275\\\251\331\275P\231==,\323y\275\034\203\030\276\271\017\\\276\000%\266<\024\312M\275\356n\n\276\000\215\210<F\244\332\276\322C\335<;v7>\'=z>\266|\343=\314pq\275\276\301\207\275V\344\023?\370\277\210=J\314\200\274@\234B\277\177\257\001>\"?~>j\027\255<\333\276?\2776\350\230=<\344\376\275\342S\266=\014v\024<\346\317\326:\374V\354=\010\324\340\274\252\346+\277&\272\372\275\265s\346\276\"\215\341\276\300a\312\274\327(\232\275\305\004m\276\242s\353<?.X>\301\362\214=h\257K\273z\226\200=Dn<=9\344\377<I2\033\276\263Hv>@\242\351;\312\'\227\275\3336\261\2745\336-\276\226\242\304=\235\020\200\272\303\2376\276\030g\214;\372\254#\277$,u=\201\245\000>U\332R>oF\216>|\265\007=\312t\016\276)j\003>\346\233\326\275\272\274\014\276\326d\336=\2162\231=}4\037>\351#\260\2750\0330\274\321\245\017\276\006\253!\2766\271\334\275\220\026\276<\352\r*\276\346\347\361=g,\027\276\334;\322=\020\326r=\034\034g<\023\205\261=5\205\226\276:\000\274\275\0360O>\373\307\363\274c\237&\276\027\030\310<\013\320\005\277\023.K=\236\216&\276\322%\243\274\230\nZ\276D2&\275\320|\377\275\235\353\035\276\026\216o\275P\211\030=\n#\316=\371\303\003>h\212\242\274\253\302\252\275\210\316j=\263\'\031\276\254\360L=\364\333|=M\335$>\\4\273\275\230DM\275NH\036\276\226^A<\n\374a\274\360\033\n\276\343\3172?E\261G\276g#F\277\321\207\365\276\301\323\025\277\304y-\275\020\024\237>\302C\220>R\026\373>\322\023h\275\322A\272\276\212\255\341=X\003\271\276H\370\004\276\262\272\r\276\213JY\276\245R\304>\253\217\327\276B\303\241=\033+d\273\245\272\222>\200\247\233\274\0030x\276\256F\322\276[0,\273\241\001,?XQ\306>P\266\326\276\n\343\265=v\273U<iD\270>\266}\262=\302\0179\277\006\201\266=\330\351]\276cU\360\276\242e\244<d\316z\275w\017|>!N\036?\272\367\225\276\n\033\246\275\033\032\220=\030\007M=\367_\001=\362e\332\275k\304\214\276\345|\374\276\216\237\t?49\027\277\272$\003\277\242\203t>\270\327M;\362\346\223\276F\036.\274\003\024\024\275\341\2744>\202W\030\277D\276\032\276b\343\361=\345\301\245>\330\301\230\274\"hS>cA,\277Tr\267>\375\350}=sC0\276\313\272\220>\226\375~\276!w\025>\241\206+>Kv5?\354\016\232>\234m\016\275|\275\021<HM\336\2756\201\221=\356}\327\275\000x{\271\213p\010\276TQ3=\353u\020>;\236\010>V\031\341=\334w\237\275\210(\016\276\233J\247\275[{\r>\224\277\224\275\365d\024\276\320\005\217\274\356Sb\275\264\234P>\357\023#\275\341\364%\276\236\t\370\275\260)\371\275\022\353V\276\265\335\003\276^\223b\276D\222-\275:L\277\275\nne<\'\032/\277\365i\316=\036JB\275\\W\262>\320\010\265>\200h\324<\201\233\033>)^\033\276<\016o=\316\311\272=\201\210\004>\277B\002\276Lg\004\276`\235\317\273\244\013\024=\240\204\\=7\243\237\275On(\276\001\357\014>r\365\300=\361\t\203\275\312.\306=R\307w\275\332\217\356=z\000\344\275~\346\007\277\330|\253\274\304\r\t\277u \000\2778\212\341\276\255+\001>\364\247M=\375\204\240>A\270\026\275\332\350F>\315\204\023\276^UF\276gf\014\276\3759\r>\317X\277\2745W)>(\320\007\276p\362\272\275\246\324\337\274\212y\376=\374\320\344\275\020\212\270<\356[\213>\304\375\002\277EG\001>\200\020c\273\022\200\325\274g\265\002\2766\371\370=\310\263\275\276\233\207w=2\217\201\276\235\376\364\276\353\346\264\275\270\235|\275A\306B\277\200#\206\276j3;>\270Yf=;;\033?\377\361g=V\352\217=v\307>\275\020?k>\206\215\235\275\033\004\330\275\344\340\013\276\220;&\277\341t\";|\260\341>r\000\311=\016\003\277\275H\235\334\275)\000\362\270\333D\224\275]b\233\276\347\3379>D\025\203>\230j\r=z1Y\272\364\214@\275\256\032\264=\023\362\267>\031\242\033\277\311E\274\274\016\264K\275\217-t>\nD\225\2753\365(\276\247\230U>\246\243\312=\210L9\277\000\372\235\27416z>\276\003\244=P0\216\275\017\0350>\202b\342=\312*\030\276yx\337\275fD\363\2754\2626=?\3060\276RR\315=;\372!>\377T\034\276n?\204=R\031\341=\227J\221\275\245\341(>\265\334(>\236\201\230\275v\344\240>\177Hj>+\366\271\275h\312\022\276\005G\354\274\t\223\210>o\356\001>\t\021c>\311\357J\276e\324\006\277\264\020*=O\230\315\276\257\255>\276\252\227\260=\376\215\330=h\275\312<n\356,\276>f\357=@\211\037\275\260t+=\357\235\014\276\360\376\216=d\274\025\276\212\305\330\275\352\243\235=.\330\300=q\265\347\275\030\260$\275\002\307\265=>\370\325=!\255\034>\260\007\005<\270G\262\275\363\355\251\276\203\n\021\276.Q\266\275Yp\347\276\306V\324:\364\245\030\277q?\016\277~\227\023\277\\\010\341\275Z\240\305\275/ \276\275K\332D>|\023\305=\276w\331\275\334]q<\245%\215<\264\342\265\276\202\026\020\275\027\204\023>eU\006>\0042\002\275\014\354/\274T\370\"\274x\033z\274\267\371\027\277\031Z\317=\204v\t\2779c8>\272o\002\277zi\023\274\025z\224\276V?\216=\310\372\002\276\252\233\346=\244\274\203>]^B\277\200\223!;\203cd>\3610 \277Q\270\274\275\266y?\275G\247\341\275.i\335\276ls\231<1X\014\276~\306\214>G\352\234=\310\035\212\275\204>R>\236\371\376\276G\207\000\277H\337\204\275\207\260\010\277B$\016\277\372\331\326=3\310\217=s\362K\276G\324\255\275q\332\370\274\210\033j\275Z]N=\006\337\232\275>I`\276\2341\037\275\323@*>B;2\275x\340\017\277\000a\354\274\254\350\004>X\260\366\273\247\025\217>\350\260\220>\372\352\206\275*G\227\275s}-\277\240:&=\004\261\320=\007\225a>Ui\036>0\031?<\222%\274=\301\317\255\275vJ\262\275\2701\030=\010\017j=a\002\266\275\376L\343=\214\336\346\275c\0324\276{\255\251\275?k\t>S(\024\276X\0016\275i%(><\316\027\275GB\354\272\252u1\276\257*1\276\254i\353<T\243\361\275\037P\013>\333r\004\276G\307\033>x\024\251\275\372\0255\277\212\032\226\275\225\223)\277W~<\276\320Z\256\275oQ\025\273\242\270+\276\003E\260\275\032]\253=\316\351\241\275\330\005\263\275@\272.\276D\352\032=\277\032\013>\320n\243\274m\212\017>\300\305~\274\263\257\336\275\250\230M\275e#\'\276\360\326\007\276\014\207\025\276b\033\216=\226\230\335=\356\226\252\275\276\355H\2760\010\312\275\353\017D\277\320\215\251\275{\364\030\277K\001*\277\316\307\030\277C \">\301Z\026\276#A\005=\375\016\230\274rc\377=\204cw<\357@\304\275\206k\331=\205j\003>\234b\332\275\212>s\274\250\264\010\276\"\226\020\275\373/\r>j\205\'\276\270R\251\275)\276\014\277\260\316\245\275\360\007\007\277*\211\331\275\200\251\"\277\n\214\303<\214\343\222\275\201\252\014\276,\220\220\275*V\216=\227\361\032>\020\207\002\277\216T$\276\230\307h\275\326hB\277\016\256\373\274\027\217\017>3@\014\275\202%\014\277\037\t\215=\206~\332=\2332\037>z\353#=\030Z\216\275\037\372\014>\"w\357\276\216Z#\277z\233\202\274\220d\037\277\347z?\277?P\014\276/ \217=D}*\276 \301\314=\333T\320<r\351\364=\233\007\211>\344G\267\2751\344\370\275\204\004\305=\230\250\324\275;\273\302\275^\0373\277\245\276Z>\230\001V\276\212\016\256=g\241\004\276\352\033\325=\004(\t\275\027\224\025>\033{\350\276\320K2\276\376\2660\276l\373I\275a\336\203\275#\351\324\275\354\301\220=Q\036.>wK\">0Q\275\275\340\023+\276n\037\242=\226\363\237=\324\236\010\275vr\372=\000&\317:_X\010\2763$\006\276\\ H=\203y\001>\264\302\n\276\253J\016=\335\262)>\252\355\350\275\316\314>\274\372\202\344\275s\252z>\036\230\315=\236\254\244=\027\223\037>\332!\002\277R#\312=\355\001\376\276|\324\374=/\2740>\261hG>\037r(>\330\346u=\000p\237\270\265H\274\275\222\205\210\275\276@\260=p-\373\275\000\315M;\215\315\202\275p\223@\275Z/\252=@\021\236<[+1>\206R\247=h@\363<\310\276=\275H\277\215\275\357@(>0\304\321\275\352\340\337=\010#\016\275\016\234\032\277\007\315b\276\351\023%\277zN\t\277X\2258\2778\2334=8>b\275{\360\n>\345z\301\274\262j\375\275\277C\304<\210\336g><7h\276\032\034\211\276\035\364\016>\255\260\007\276\374!\200\276\343?\232>4\301\260;\211\343\202\274\276\242@\276\246\'\352\275\316t\t\276\373/7\277\'2\224=\336\301\014\277=\222\024>\272Qp\275\253\203\333<C\362q\275\3178\022>.p\326\276\2223\370\276$\'x=#\022\274\275h\372\364\276\322\354|=S\223\t\276\227c\266\275\277\367\003?hGT=\026\371\241=zA\345\2753z=\276\306\246\311=\331:\264=\261\005\242\2767\271\033\277\245t,>y\371\371\276\267\366<\277\357T\213\272\t\024#\276\277\224$>\032\202`\276,>>=\374CY\275\007\267R\276\255\252\013>\305/\202>v\324\010>5d\035>\220\275\254\273PYB\277\352\242\373\275vV\333=\267\033\343\272L\325\242>\030\374\326>\224O\273\275\227\301\226>1c\021?\023d\024>\273\264\275\274_7+>4\224\032=\376\233\373=0S\213<\252\000\247=\360\216]\275X\026\343\274\014\365q\275\320[\022<\220y\002\275WE\032>4&p\275\316m0\276%\\\001>\250\237I=\200\363\'=\004\250\r\276\340\317\334<\207\263\212\276\231\3534>\267\013\210>\031Z\006>\002\331\325=\325\343\250<\353\375$>\310\000\251>\266\333\312\275\035)4>d\032\321;\1773\000?&\355b\276\035\020\203\276\305\353\255<\035\3675\276\250P\263\274K\341\031\276 \024]<\366W\323=o\355\343\275\354\365[=b\362\326=B\016V\275p\315\022=\007\2002>\372\334\353\275\245j\010\276\327\243\351\275\212`\271=bg\221\275A\246\313\275$L\205>Z.\026>\212\006\302>\315 \031\276\321\351#\277\r\270\263\275\226\036\033\277\262\201\316>%\315\365\276\265\264\246\276\344\340\313:\273\267A>\347\177\201\275\032\256c>\300\177\201\276|!\331\273\230\022\031>}~\324>R\230\232=|4\235\275 h\t=\027\264\021\275\307\300\266\275\2007:=\r\246\345=jN\010\276\312\270@>\354\356\337\276\220?\204<j=\024\277x\340\032\276\326\301\316\275tp\'\275 \025\253>\217\372@\276Qc\367\276<\'\026\277T\341\037=\216\336\213\276\204^\363\276\000\311D\275\370{h\276CeZ>463?\355;\223>C\246@>\244Z\265>o\374\010>\027\rb>|XX\275\204\246\326\276\212\237\336\276\356\350\317>\221w8\277(\330\327\276r\3264>\3679\245>\207\n\325>\216\302\035=\211\303N>\223\203\230\276#vi>W\361\031\275\310\033z\2752 \302\274\216&\037\276\367\237\026>+\223=\277\364:\231\276\006\364V\276\220\221k>\240h\034<\222k0=\246\312\327=8\242\"\276\304\2139?\203mV\275m\213\200=JT\277=\223S~=\371\337\001>\025\253\010>\360\360\351\275x\214\002=@\002=\274tNr\275g\346\007>.\005\326=)q\312\275h\031\013\275x\177\301\274\244\210(\276\337\2313\2766\227\t\276\204/&\275u\0002\276\315\243\206\276c\203\322>\213\246u=\352\261-\276\206\201\202>\006\335\r\275\343\277$>\234Z\234>\377Y\014\275F\014v\275NV\351=\\\274\037?Z\000\264\276\231@\000\276\003\227\366\276\220\007\202>\252\225\364\275<\0262\276?5\n\276}]\030>\204\2640\276\340<t<\033\360\005\276\206\253\315=\352\357\337=J\366\337=\357\234\">\322Q\331=\217x\255\275/a\364\275H\211P=\010\347\375\274\245*\n\276y=\254=_\000X\275\266\037\013\276\315-\322>-\301r\276\265\346\034\277\354\214\016\277\331\316\036\277\013\300T=\233\235i\276>|\231=w\2645\275\273\236\204\275H\261\004=X\374\024\277\241Q[\276\022)\312\275\264\246&=\350\221\033\275\346y\253=s\2769>4\242Y< \030\272;c\213\335<\360\257\004\277\326L\037\276:\325\311=\310o9<k`@\2778vH>SbI>\340\314,\274\000\264\240\275\213\227\013>\332s\232\276\315\027\026\277\250.\205=D\\H\276\205\263\037\277\t\273\014>\302\205y\274\244\210\307\275\026\355,\277\347\267X>\234\023\001=\n\320\244\276\364!X=\203|i>\235S==?\213\000\276n>\205=\312\205\323=\032\3166\277\235\245\013?\033\225\256\275\376\020\326=\224\345\275;m\035\026>>\233w\276\"\274\203=5\335\263<6#\227=t\276\370=E\322s>H=\264\275\267\271\023=7z\002\277\2274@>\203-\035=L\271\251\276\276\311\361=7\361u>M\031\315\275+\021\253=\272\321D\277\376H\241=\322\366o=y\324\205=&\217W\274\034\372C=\244\264\317\275\200+!\275\360\207B\275\014\n\006\276\000\263r\2741\267\035>\206\242\313=\302\257\322=\001\3344\276\300\013C\273\310`\220\275=\3532>\342g\342\275v\311\266=P\242:\274s\340\347=\344:\300\275<\240T\275\'\315L\275Cj`\276\350-`=\306\240\036\276\300|D=\030\256\351\275\216\344)\277x\265/=\242X\310\276\305B\265\275\033q\352<\0241\177=\177\302L\275BU\250=\330O\215<z\207\327\275h\202\261\274 \326\207;\0211)>\2325\355\275\232Z_\275\224sz\275iw\234\275\274\332\021=\355\223\030>c\2222>T&\t=\212B\020\276\200\207t\273H:\341\275\215\267\213>\364}\341\274\356\373\260\275>\255+?\334\206\r\276y\3247\277Z\201\004?v\363$\277Xr=\276\320\214P\276\202\214\333=\327\367\311=\275\3276>\245uL>\360K\210\275*-\244=P\323u\27594\n>\3474\216\275HH=>\311\005\255\275\264S\036>~\341\215\275\350\317_=\350\331\037\277T\022\200\275\300\000!\277\357r-\275\356\247\006\276\010n.\275\266W\177\275\276Z:<H2\242=\252u\273\275\374\334/=\261\203-\277\277\255\034\276\346\226\237=\033Y0\277\204\'\233\274\324\025\001;\224\366\225\273\204<\371>\324\001x=PH\305\275\022\000\310=\320e\224;\204\005\274\275\375,\253\275\241\245\315\2768X\001=\364+\250\274\374\270%\277@\354P\273p\025\325=\316\252\031\276\275\253T\276\232\365\352=\027z\200>\377\374\021>{81>\343k\367\274\025!;;\2602\360\275&\200\020\276\237zK\276\240\353d\274\013\323\032>\367m\027\275Un\004;\370i\242\275\027+E>$\270\306=\006\202\222\275*\372\357\276|d\023=\347w\035\275@\024\263\273\367V\271=\367\314\037>0[9=s\311\033>\244\034#=h \024=_\356\034>\326\220\023\276i\302\234\275 5H\275\\\236\351\275M\315\032\276.\302\341=\001\206\274\275;\031\036>\320\rZ\274]\3640>\263\212^>s\330$>\344P\377\275\032\300\277=\231\347\356\275\225\264\360=?l\014\276\002*\036>\370\363i<\264\002\321\275\214\212\t=\365\005\000\277\277F\270\275\236\223\003<;\2724>\217\233\001>\240r\r\275@\312\314\273\360:\177\274\300\275\213=d\013\t\276k\021\024>\257\310\032>\207\207\n>\0306G\275nY\033\276\250\035==\033\213\000>b\022\261=\360L\243\274b\205\014\276\206\365\374=`\345\274;_\267\204\276\017\335r\276p\227\276\275V\200\025\277\031\367\024>o\037\342\276S\277#\277\221|\036\277\256\256\205\276E%\005>\213\260%>\332\236\001\276\\@\352\271p\263U\276\372\021\307\274E\371\217\274UF\207>a\342\034>\326`\253=4\362\232<1\234z\276^\363Z\274\005\331h>>\353\225=\'\332\340\276;m\025\276m\365\033\276\017F\017=7j\032\277\"\004\255\275\210\335/=U\020k>v\203\335>x\031\334\274~\024[>\252\250\347>\246\270\311\275\335\302`>\177W(\277\252\247\260=\271\265\252\274uYp>\2479\014\277\336\257\304\276\303\025\342\274\004\370\306\2748\202\225\275ZE\227=\246\367\031=`\366\336;s\241\032\276\256\364\332=\214n@\277/\0043\277\206KN<\344\ni=\036\375\364=z\254#<\231)\033\276e\2409>\227\235E>\242\245\367=Yz\317=\301\213\013>\202\243\330=\031)\334>W\255\003>\r3\211\276\336\304z\276\213\300&\2767P\n\275B\316v\276\221n5>\343\345,\276\200K\013\277rJ\314=Yw\331\275\242\314{<\204\333l< x\005\27482\236\274bE\330=\004v\021=\300\241\010\275\340\370\300\274\226\273\342=\010\337[=\0009\242<\327J3\276f\251&\276\032\313s\275\306\255\332=0^\240<\372\241\206=x9\365\274+\016/>\362a\321\2750\031\277\274\275\325\016>\325T\036>\033\240\001\275\211J\001>\215\260\202>N\232\216=\326\254\335\276\022\331\311=\317\245\n?L\2672\275\316V\265=\374\026_=/\375&>\034\311L=\270x\037\275Hj\032=\313-\026\276\026\223r\275\000\376\362\273M\301%>`\350\221<P\262\362\275\323\230\005>7\327&\276\200\202\200<\216\013\353=3\307\256\275K\273\034\276\314\243]\275\001\263\252<~\215\332\274\255\2507\276:0\324\276\222\377??\242\337\263\275\2035\035\277;\322\032\277H4\347\276r\013\032>;\253r=\261\3551>RD\202<Q\236\214=\223\330\006\276\347e\002>\324~v=\373\225k\276M\312V>\376\026\014\274\261)\201<\233\230\247>c\304\232\275\257\351\024:$\317Z=\251\"\027\277\tj\266=\241\232\363\276\353\022\266=\330L\006\276\302\371n\276V\302\242\276\343\327\215>{~Z>\264\264\322\275\036\014\007=C\312\005\277V\327\240\275\036\201\376\275\350]\020\277\324Q\275>\371V}>k&p\275\0164,\277\000^\200\276Vq\331=\347h\001>\222W\017=\340\263\003\276\210\347p\276\356 \264\276g6\023>\270A\367\275\322\003\036?\200e\n\273\014\354\376\275\354\350k\276\235{B>o_\225=\313\275+\276\337\247\355\274h\231d=0\307\264\275q\364\n>\276\032y>\000\013L=%rO>D\260\365\275\315\244\010\276\026\347\016\276}\024\">\373)T\275\350\"g=\2442\\=\002p\362\275T\275:\2775J\277<\016e\304=\224\202\244\275\240\031M\276\370\263\322<\303\310/\276h?V=@\272\007=\254+\031=\333\263\253\275 \265\233\274\202\336*\276\360\255\237\274\254\376$=(\305\266<\314\265I\275|$^\275\303\340\002\276\034\321\037=\312\257\343=\n\217}\275\341%\370\275\200S\322\275\014\250\377=\377\026\177\276\340@\316\275h\3669\275R\322\302\275\322!\273\276A\251\225\275\246L\262=\321\2725\277\247\345d>\340\036\367;X\037\264\273\024\337!=\332o\273=\327\272&>\330A\210=r\313\364=\204W\021\275\364\260\010=\345\346\021><\3437\275X\327\235\274\236\210\225\275un\241\275\225\243/\276\003\263\254\275\370%\315<\232C\336=e\207\n>=\337T>r\313\242\274L\021\344;\320\'3\276E5:\277\360\216h=\016\'\t\277\312\037\024\277\202\234\336\276\020\371\030\275PBw\274\310\000\002<\214\n\005=\200\2231=H=\205\275\333\t\303\274\312\203\005\2759\014\302=\326s\223=\257a\347\274\024\325\235\275\234\344W=\362\346\t\276\036\273\230=\255\272->A\001>\277\177x\005>/\006\334\276\032\311\273=\251\272\'\2772\233\363=\214)P\275F\347H=@\375\000\275\275\301\314\275\367T&\276\026\313,\277\367\263\037>A\245\217\275\362\347\"\277\223\201\202=\326}r\274\362\026\014<\007b1\277\317\263\'\276uJ\306:L\304\333\275\352\021\234=t\300==\216\232\021\275\274>N\275Lv\002\277D\3117=\2058\345\276\364\362\037\277\336\035g\275\300bL\275fU.\276\274\212\252\275\343\370.\273\300.;\275\034\227 \276\302\355\373=3$M\275\r\227\r\276c\200\037>=\250\023>\001g/\277 \377e\276\300U\337<\026\330W\275\032q\311\275%{.\276\237\372\203\272*b\177<\367B>\277a\224a>\207\004J;\375\014U>P\237\027\275\247\352\010\276\000\253\217\274\326u\016\276\200\034\257\273\3419!\276)\252\372\275\325\270.>\2747\t=\336\320\352=\034\306\325\275\322\221$\276J\025v\275,\2560\276\033\013\n>\0036\321\275\022\223\354=\204\303\'=\316\024\342\275\266\307-\276\024\004\267\275\353\007\223=V\032\245\275M\005m>\013\363\220=Wr\235\274\327\003\346\276\312l\010\276\363\2422\277w\261\257=\225\320\007>\325\201g>\362\274s>\030Y\221<\32173>D\271#\275\354\2542\275Q~\215\275\237\032#>\351\036\026>\000\313\276\273\360\270|<\250\260\"\276\217n\232\275\232K\366=\232\005\013\276.\255\315\275\354\252\213\275\203@\r\276r\250\360\275\330\266p>\214\013i=/\214M>Z\327B?\2130:>\301n%\2775]\006\277\304\357\337>\340\217A\275\314\255k=Fb\322=\232qX\276\270\271(\275\217\023-\276\327{\207>\023\022\357<\200;\210>\221\257\010>h\205\324\275\001`\032\276\303\014\006>\366\316h\276&\023\205>\324\213C\276\354\331M\275\374w\033\275\031\3636\277\007\222\232\275\371U\366\276\372$><\274V\241\2767\215_> \312\370=\034k\214\274\035/\232\276\214\036\343>\245\035\014>\201\030a\276\216\357\353\276\n\317|\276\365\005\212\275\220\303\236=Si\t?k\226\001>`]\257\275\353\300\212>\373X\"\276\345\211\227\275\024A\341\275\334\253\031\277w\0220\277\367\244h>AA\022\277[\177\337\276G1\225>.u\006>JI\231=B\2426\2756\272\222\274\367\231`\276\004*F\274\332\236.\276\217\221\237\275\334g\311=\310\006\007=\3524N=\004.R\275H\246b\275DA\351<=*\276=\374yh;\354K\320=\253\3048\276\311TD\276VT\024?\307\335u\275o\322(>\326\331\031\275\310\274K=>}\374=Yf\002>\330\251\346\275\333\326\016>\314\305#\276\322\352\272\275\243^\037>\361\315\344\275V\244\272=p \371\274\374\0324=@1\276\273:\327\272=x\216\032=\026\031\240=\200]\305\272^tr=\312\026\367=\323\243M>\376?\032\275\252\351\365=Pm\347\275\207\334\020;\314\361\372=1\334\">\200\237\267<\002\333\312=^t\330\276\3363\233=\315\'->\347\345\372\274nZ\n>\3576\202\275\300/\216<\022@\334=K\013(>\301K%>\013\004\026>\372\337(\276p\237P\274s;\300\275O\010\001>=\231\276\275\006.\261=4\313 \275\246\243\302=|\251\265\275n\034\200=\037}=>\245M\225>J\'\366=^\302\240=\177\303\342\276\274Y\256\276|\322@\277t6+?\272d ?\202\354\321=&n\232=\204\354K\276\316xt\275\021\0040>\320_\217>\340\364\251<\021\017]>B\356i>\370\323:\276\363(\005\276\354M\034\276\221\374\335>hXM\274\340\"l\275f\365\025\276H\037\363<\030\031\023\276\200\331\356\276~\365\n>\025\256@\277J%\243\274\017\016\221\275\243\212q\2750\253C\275\353[\351\276=\322o>\274\215=?\010\206\320\275\240\205\231>?\361\002\277\324Tz=Ik\255\274K\"\"\276s\226C\277\237\302\302\275+\240u>D\033%=\237\0371>Ezd=DJ\345\273\377c\255\276\253\356\036\276\327\"B\275g\261\000?\266\257>\277\000\2108<\346\211\267=-\234\007;:W\242=<$\322>\020\361\002\275\273\250\213>\007\026\035>\320\037.\276Hp\317\276-\036.\276\206\321\326\275z\347\264=\367\303*>Q\240\020>\254w\245>\343\364\205\276\326\347n<\327\363\356\275\274\364\034\275PYC?\360\013[\276\354(\036\276\304\241\020\276\243\234\205\275D`\004\275\r\022\251\275\004\356\377\275\251\206\021\276\347t\007>\374\357\003\276p;\024\274\344\312\323\2752\357\006\276UQ\016>\'\365\005\276\304Y%\276Hj\035\275f\266\225=U\261\023>\216/\321=$o\\=\365S\020\276\204J\265\274\306\321y>\276~8>/\312!\276o\321\243>\306-\241\276\3253/\276\257\270\220\275\016\222\366=\345\032\027?j\214X>5\326p>\000\360\016=\2359\324\276p\234\257\274@\353\245;1S\035>\266HX\275X^\347\274\2008\251;\320R\213\274k\233*>\323\333.>\306G\223\275q\350\006>\322\265\'\276\2116\265\275X\211~=\340(\r=\250P+=\230\276\276\274vo\177\274\327\002>:\241\234\262=\364/7\277\242\010g\275t[\034\277\227O!\277\361\347E\277\322P\235=\031\217O>\320\341\022\276R\255\252\275\t33>\274\'5\273}\215X>T\001I=\264vj\276\364\2235\273\362\230\236=\242\026\251\275\251\216\313\275\350\307\337;s1\246=\312\312\242=8\314\r\277\316\331\315=%R5\277vHD\276\336\354\035\277\340\371\375=\272\310\023\275|\031\n\276\\43\275\023\245\025\275\3419\004\276B(\035?\234f~=\304\033&=\314F*\277\"\3457\274B\274\316=\232\2776\276\221\346@\277(\360\034\276\310V\020\276a\036\200\275\324\223{\275\024JE=T\345\266\275\313n\314\276[\321\004\277\267\234\035>\234\343=\277d\001\037\277\217G\204>\2231\t\276\336\373\022=q\023\013>v\034\215=z/&\275\260y=\276|\211\021\275z\230X;0\036\035=m\004+\276\010\343\331=\\\r$\276\256@\341<\250\230\334\273M\334\307<\001\200.=\t)\036>\326\355%\276+[\335<\325\027:\277Hy\204=\r\346\234\275\237-\336=\364\372\315\275\225P\344\275\236\"\341\275 \r\022\274\220\220o=\210\323\310<\340\034\241\273\227\241+>\006\211\032\276?\274\006>\262{\317\275\222\002\366=\255\242\037>\250\3247\275\000\004W\274tR\346\275\243\363,>\262\206\036:3Y\n\276*O\226\275\370\376\243=\004~%=\n\260\375=\014\007+=\244\340s\275\216\276\271<\354S\034\277\212\273\275\275B\353\334\276\324\322\313\274`\237\373\275\211\014=>\365\316\014\275@IC\273\304\"L\275g\225\353\275-1*>x?\201\274{J\004>\2432\034>\200\016\275:\337\221\331\2752\323\031\276\000\210\254<\371\217\232\275\020\342C\275\241|\000>\026[\247=\306\272\205=2\003U\276\2125\n\275\330\221\265\275S+\256\275\220\265\021\277\020\242%\276\352 \003\277\3314\352\276C\225\005\277\332\321\001=5\014\004\276P\336\210\275\350\233\321=\325\275\321\275\264\373\030>\372\022\344\275\342P>\276wk\234>\010\233\224\274q\303b>\267\020>>Y\022\001>\266\337\264<\255\206\'>\220\025\230=Ax\024\277j\016\305=\323\247\351\276\344\027\000\275\014\r\023\277\352\307\016\275\357u3=R\227>\274b^\254\275\023\323,>,\351H</U\'\277\362\300\317=\324\213\220;fl3\277SA\213>N\311\245=6\t\241>\260\272\026\277`\264\306\275\020\312\210>\355\014\014>~\222\257=2\320\277\275lfi=b\033\030\277\373U\001\277\327\n\320\274\010\1777\277\247\021B\277\356u\246\276w\327H;\033\313.>q\212\216<\312%\201\276\225i\021=\327\206\021\275\3066\345=x3i=\207\210\210>\260\233:\275\237\026\245\2748\226(\277\tt\022>E\202\216\276\203\272\211\276\2136\377\275\241M\020\276Z\351\212>\262\265\254<e\001\333\276\260\346n\275\307\001G\276\344\233!\275\273\330\022>\\\363\020\276}\2610>\375\340\026>\224\256\026\275\264\347\032=\010\346\214\274B\035\243=s\222\017>p\342\265\274\227M\034>\252$\374\275\'\312\022>\000\244\337;\340R\372<m0\267\275\350C\224<\222\273\242<\314/w=2\036;=\3166\324=H\313\262=\001\034\273<U\026\007>\000@\205<\357\233g>\203X;\277\243\344.>\367\203\023\277\216Y\253=.\215\226=\355*\036>\356x\316=\230\037\371\275h\021\254<\264\367d=\306\\\367=jg\240=\317F\341\275\316\337\321=\222\371\312=\256I\342=\304\266(\276\330e\031\275Rb\266=6:\314=\247\227/>\250\202k=0-\244<\362\377\366=8\277\341=\360/6<\206M\n\276\375\004\275>\321>\342<\301\014\022\277\344\370B\277\357j\370\276\221\250G>\204 \010\276\344\301\001\275\352\355\233\275\310\263\320\275A\254\252\274\362\\q\276\274b\212\276.\330\311\275@\352\002\275\376\374*<\261\216\025\276\230\233\275=/\2110\275\242\034\330=\234\001\302\275\030\263\245\275\0209h\275\224\031#\277\202\335\346=\322\332C\277\272\014H\275\245%\240>\2759\274\275O\021\006\276\270\177\251>\241$\244=\356s=\277\355\220\210\275\313w\230>\373\326\013\277Cr8\276\313\331q>\215.\325<~$\004\277Y\353\225=\227\306\215>\375\010f>A\242G\276\330Z\317<\'V\177>Gn\000\277\313\224?\277j\262\223=\006k\350\276\\a\375>\200C\222=fAh\274B\016\">n\222\223\275c\212#>Hn\030=G+\316\275\251[\000\276\3701\362=~\266a=\354\256#=\2528\014>\001\337\006>J\033\315= x\302=0\035\262<\240\305\220\276\'p\'>\313\322W\276\253\246\375=\366\006\032\277|\306\377\275\177\344\004>,W[=\257\204\022>\266s\000\276\3358->\245\232\003>\316\241z\275N\324\347=\262F\005\276\300Rh\274\016\211\246=p\215!\274X\253\263\274\247\372\222\275\216d\335=\250#\204\275`\033v<\276\371\357=\272\335\367\275\276\235\250=K\205\010\276\202\177#>\257\304\177\273D!\002=\257\004{>2\375\237\276\033^\021\275\226\226\210\275>\324\370\275\026\306\377=\303\233\365\276\370\027N>\276\264\024\275\311\346\034>\335\207\200\276\000\230\0259\021j\007>Q&\007>\377c2>\224\243]=\364\346t=\270\317\201\274\330\035w=t2\342\275\360\265\007\274\306R\330=\004M\377\275Pr7\274^k\240=\363\326\036\276\244\014\001=\360z\314=\274V\037\276U\246\274>M\276\366\275\017N\337\276\245/\301<\355`D\277\rj3\277\377A(\277m\320\030>%\020T\276>*\356<\020\210\250\275vt\216=\223\371#>\203\361\'=\272jT\274aWT\273\n8\245<\3570?>\276q\331=\305\220\374<\366\031\311=\343\2138\275\336\343T\275\212\372\020\277\270*\254\275=\304<\277\226p\021\275{\243)\277\250e\212<7;\364<-W\002>m\004\366\275w|\366:M\213Z=\006\250\327\276qL\315\275\260\\\245\275\331q\341\276\216P\257=\004\'&\2755\331\006>\022\037\344\276\036\321\005<\350\021\255\273C*B\276\3561\203>P\207\227<d\375u\276\365Y\317\276:3:\277\021$\231=\021\372\027\277T\007\014\277\252JA=\013\312\033>\030l\301=\304\362|=C\037l>\277z\n>\340\273\240\276\177\315:>\360Y\316\275|B\212\275\000\244\377\271\213!w><\2369\277\214\312\251\273\014\304\006=^R\320=?@\023>sM)\276d\365\213\275\271\274\305=P\223\370\276\245\346\006\276\254;\232\275\"M\336<M\343%>\214_\036\2765\013$>FD\257=l\354\032=\373#)>\240\320\312\274\336\003\230=\017\363\036>\256\235\275=\010\027H=9\371\010>@\261?\275ho/\275\220\362G\274\223\376#>P\233\204\275\305\007?>\273Ne\276\350\246H\275=\341 >\320*\262<\241\205F\275;\2260\276\265\301\030>\245\354\217\276\036\033\013\277\3644\312\275\024\273)\277\323\346\020>\314\"-=\353\026\020>\247x\310=P\017k\275+\257!>\246\020\335=\267\350\221\275\300d\010=\272\362\017\276\215Y\010>\200\317@;\214\356I=\260|\205<\017&\020>s\"\031>)/+>\375*+>\224hP=\306t\344=\026\317\251\275\272\343\313\275\330*\n>~\370\361==\256\333>\311\244\264=\240\265<\2774i0?;P?\277\003]\246\275C\327\250>b\345\251=\017\232-\276\372\225\333=\n\335\310\275\270W(\276t\321\376=Zm\"\276Q\006\330>\325\331\255\275\024`\246\275m\267\211>\226jv\276V{\237\276 \206+\277\202\356\325=&\265\231=U\000\005\277\340\3752<\253 ,\277\277\376\023;\277%P>\\:d=a$U\275Y\211X>\021o@\276\177\223\014?\2026\225=<p\211\276\240\220\364\276\262\276\257=d\250\004?{Q\'\276\214\027=?^\252Y\276\031\216g\276:\312\204=>F\005=`Yf<\026\350\217\2764)\034\277\364\3709\277\263\306\216<\262\200$\277\301\035=\277 e\014\275{\316G=8\202\267>r\204\037\275\251e\203\274?\242|;\216\n\316>\361\313\217\274{\032<>\375\024s>\330\220$=\016\n\274\275\370\337B\275\006\344\257=\370\360\321>\304\373\265>\n\231\207>\214\2434>\203\006E=%\020&\276\034c\363>\246\010\270\275j\017\027\276\277\244\316>\027N\240\276\010\306l\275\321\0244>\356H\007\276tuY\275[j,>\360Ql\275\020\226\022\275\222c\322=\177\277\006\276X\230\253\275{3\235\275L\000\341\275\240!\344<\326\006\256=\200\n\220\273\336\335\215\275\264\273\023=Yb\016\277A(\251<\334\232\362;K\203\213=\247\237v=\013J\014=K\267J\276+\232+\276@\320\212=\277\365D>\034\345:\277xp\033\275\312\320#\274\277\"1\276\240\017\372\2747\027$>\220@\301<z\212\234=\2608s\275\030\177\257\274\314ln\275\023\r\010>\361}/\276\367\206\220\275H \357\274bH\306=\376B\330=\221\313\342\275N;\372=\260\241E\274(@\027\275\322\342\001>\351\264\020>\214Cl=\334\375u=k\223\025\277G\262q>\023\020\032\277/\341\340\276\006Z)\277\355\262\014\276\273\017\032>\370c\334\275\010\235)\276\264\204\201=$0\252<d\316\031\276\253\274\016>\204\256+\276\214:\216=|m[=\007H\226\276iV\"\276\204\245\017=\312\374\352\274\364\233\344\274\214\371\033\277\320\371O=\3070\371\276e\272\005>\000\273\r\277HiE=\336\260\372=\271\335=>\310\376E\276\032\274\352\275\321m\240\276eY\013\277G\372\321\275\215\201;\276\244I\r\277\254\277;\276\272[e<<Z}\276\211\3314\277/0\010>\370\356\235=\243\2641>\003$\220<.g\316=\347m\311\274\340\033\246\276b\375\"\277Aq2>\262\3703\277\253`\004\277<B\231\274\366]8\275[c\014\276e_+>\3173\014>l\367\200=DS}\275\230?\314\275\227\201\036\276\316H\305\274\t*\367\275>],>\330\373\334\276\320\023@\275,\217O=\030\370>=\272h\265<\213?\031>vd\333=M~%>\357h$\277\3321\333\275\220,\252\275(\270\002\275\330\032$\276\353\233\322\275\2226\211=,\377\030\275vW\321=(\261\264<\236J\224=\366;(\276\215\342\023>p\003\366<\237p\025\276\233\0172>U\222\006>\270z\200\275bb\352=\364\272\016\275\226\366\244=dO\312\275\261!\371<\234\234\220\275\204\305\365\275\352\211\247=\370\343\274;\224\377\014={\017a\275\036\326B\276:\3366\277P\'z=\006G5\277Nk\240\275\270\273\355:\240NO\275R\221\232=\362h\367=\350\331\"\275\266\025\345=N\250\267=P\372\322<]\3152>D\250\031\275\300\246H=\236d+\276pt-\276[A\200\2759\351\'>+S\022>\316,\246=x\321\r=\350\362\373<I\332\312<s<\003>\247\314l\275\232A\365\275m\311\n?\216\001\035\274y\006\004\277I\245\r\277m0)?\201\331\002\2763\351\265>\357.\265>\221\340\026>\367\373\315>\360{_=E\363]\276\n\320\243\275\267y\313\274@\032\204\274#\212v>s\205N>\030\020\363=\252\212\264=\252\017r\275\216\247M>\310\251\022=\021\2334\276b\336\332\276\304\375\377\275\337\371;\277\230c\224>&\205|>\276\021?>b\211\370=\2642#>Y\206\306=\\U\314\276?\325\030\276\232\310\336>\357\334\020\277\373\227\217>\271\265\372:\343\227\323\275\314\016\006\277\256\250\345\275\303\233?\276\024\361\201\275\005\332\227\276\031\t}>|\220[>\2775\310\276\376\265,\276\316\220G>Y.\006\277nB\024\277\254Z\262\273\3719\003>\253Hs\276\010\351%> tm\275\261LD\276\2159\233\276ge\017\276\324\n\234\276\n\032J\275_\306\216\275\210\202\024?\254Ad=C`5\276$\205\236\276e\212\363\276\276k\254\275{\'\252=\326\216u<\277\201\031>\022\312-\277\311\272\334=M\300\206\274\371\023\263=\305\331\307>\2054\n\276\366\216\214=\276\357\247=L\274V=h\256\010\276X\371\006\275Vo\362=\026\251\234\275\232q\213\275\033\337\303\275\"\003\271=\321^\030\276\225$\036>f\347\327=\260\037A\274\035\325\036>\322\254\304\275\353G-\273\372\374\232=\014\331>\276\353\037A\276\330\232\007\274\374\275\031\276\027\313s=\233\210U>\243\n\013>\323{\036=\226\0023\277}\\\035>w\020\231>l\364j=t`\225\276\002\200\326=b\232\247=\251\036\000>\247\277\260\275\020\331I<\215\202\006>\200\310\355\275\272\t\212=W\234\013>\036\233q\275C\361\024\276\204\241\013\276%\241\242\275\332,\224=\202\005\016\276\243 \002>\270\234\013\276\021\010\022>\0368\257=\306\252\034=\253m\021\277\266\204\227<Xc\371\276\306\017(\277\312\231%\277\300I\222\276d\303h\275\366W\251\275\246aM\276\\\274B\275\365\336Y\275\373\344\246>V\304\227=\3429\337=VH\310=9\030\013>#\353\316>\224\231\\=o\357K>\272\303\330=\371\264;=IY)\277@\260\213=N\3410\277:\372\202\275\347\'\005\277\341\262Y>\245\203&>\200o\312\2744aE=\274O{=\360\321,\276\274\261\017\277(\t3\276?\203?\275J\240\024\277\332\313\333=x\210\262\275\364\201\325=\262\2202\277\354\224\203\274O\034\241\276\312$\016=8n\311\275\022\350=\276\030\354k=\351\343\031\277\216\326\004\277,\210\001\275\261\037\r\277\251\2169\277\264A\032\275\220\340,=\242\362f\275\374\\\332\275\351[K>,Y\244\275\327\016\014\276\216\204R\274=i\255<&:P>\000\357K;w\366\004>S\302E\277%\242\231=4\363^=\204\270\316\275i\025\001>\301\244\016>\2643A\276}\204n\276\301\370\014\277b\0328<\302\002\264=|zq\275*Y-<\310\210(=\340\353\331\275\202.\220\275B\205\266=\021\246\001\276`\226\020<\310\273R\2757\032#>\\/Q=\331\316\024>\346\302\321=5\275\200\275<5\316\275i*\027>\261_0>vx\227=\367B\341\272\317F:>\302\033\206\275\212\246\344<\264Tn\276\300\026W<%\310\237\275^\035i>\3073g>v\215\337\276\026\026\025=?;\001\277\336\247\367\275\303M\217=\313\220\002>u\350p>\017\375\010>\242\242\276=D\375T\275 \375\034\275\233\345%>\241\213\">\310<\320\274-\200\037>@\\\200\273%\017\352\275N\312\270\275\232\326\014\276\020\r=<\271D*>\226\361\337\275\031\030\204\275\372MI\276\356\"\236>9\306.>\2342\006\275\205>\003\277V]\316\275\017\372/?\3002v<\231=\031?\007\353\025\276\305=\215\274\353p\032>P\323s\275\240\023\325\275x@\245=\316\241\222\274\264\300\245\275\236\306\020\276\032\023\021\275\224\214\221\273\230\250\302=\027%#\275\312\274\032\276\306\004\356=\254l&=g\337\002>:\306\257\274\250\340\007\275\340\3331=\216y\240=\370_>\275z@\202\274\331\223L\276\335\\\025>\373\267\355=Kh\305\275\021\200&?\207\217\024>S\0173\276\205\240\374\276\370 \204\275>\265\223=\245\003\267\275\366d\373\276\321\033\244\275\226\264\273=X\215s\274\022w\020\2748}L\273\242H\313\27583-\275\263g\036\276\334k\006=\274I\t?\310\323H\275D\202\302\275*\366$\275\245\354\023>\363_E>\332\350\335=\340\247\277\275\222\225\345\275B!\320\274\274\265\027\275i\034\023\2758\3327\275\3316\216\275\000\203E\273\310\261\031\276\020\315\212\276\335\3371\276o2G\276\177\022&\275\314,\264=\257#\023\276c\357\351\276M\336)>+6\277=\354P\274\275\026k\262=\323B\206\275X\0011=\310\377\326<e\337*>\222\0310\2766\334\234=\314\023 =\251+\007>\332\256\207\275\035\t\r\276\230m\346<tb\022=\212O\263=)?\024>M\377\033>\254\304=\275u\372\n>\256\n\322=\323Sl\276C\025\211\276\322\335\366<\002w^\274,\247[\276\277\201\373\275(\357\354=\366:\367\275\270>f\274\241[2?\034m\016\276k)N\276t\350\335\275\216\321\371=\240 \313\273X[\264<\254\022x\275\250\206\016\276\366\265\006\276\340\225S=\346\361\254\275\302\273\327=8\301\233\2753\360\347\275\2542\005\275\361)\005>\004\237\026=\263\367\031>\340\3705<\370O\257<g\356&\275\0171\006=\020%\307<\376*\307=\016w\026\277\034\3366=\035\355\031\277\211\030<\277\211\006C\277\326A\302=\371\357\245\275\337\3316>\312\033\314=\265\363B>\365\352M>&H\221\276\212\245\276=6\263\207>\020\026\035=\010\312\354\272\251P\344\275\244H\361\275a\215\204\275Z\344\366\275\020\010\274\273h\001\000\276\262\354\316=\317\323/\277B\200Y\275\227q\027\277\322\355\316=\345!\\>\302\003\340\275\263Q\205\275\243\024\023>\206W0\275\346\240\373\276\177\2614>{\374\275\275Y\2747\277h\267\270\274\247\332\216>\353\234\020\276\244\214\020\277\025#q=9\221\020>\311=\201=\374\222d\275T\317\331\2752\267\223=\025<\253\2767\243,\277+\016\034\276\347@\t\277\322M7\277.\243\235=\354\237<\274\370\276\252\275\230\372\033\273\020~]\276i&i>L)B=\264i}=%\250X>\262E\217\275\006\336(\276\273\227C\276\237w\022\277\317E\303<\212\346q\276\030;.=\002\357\320=\361\004\222\275N\037\025>\017\242U=\227\026F\277\304^T=d\024O>~\342\341=\202\205\324=h\376\200\274\000\272\317;^\225\r\276q\241\026>(\214\323<`\363\002\274\234+i\275\n\240&\2760\215\316<\230\t\014\276d\324t=\030\013\240\274\260~~<\0009P:\276\n\253=O\217\304\275\325\221\214<\227T\222=\234\334\334=\302\356\266=N\276\325=\373\217\367<\"\321\227\275\313j\265\275\222\315d\274\266\223A\277\350\352W\275\245\375\315\276\362\320)\274\242\213\225=^\313\242\275\307dE>\230Z(\275Vv\357=\327\301!>\245\331\036>\340U\352\275\206\n\301=\300\221\327\275\200\234\246:\234\366t=\302\"p\275\362q\330\275\3245=\275u\2651>\230\336\034\276\000+\021\276\333V\002\276\204$\330\2769\330\263\275\326V\320=\211\376!\276HJ\005?\347\326[\276\"\004+\2776\370\376\276\254W4\277\320\300\374>\320\022\n>V\201\334=J\320\003\276\361\016\233>\000\220}\275\211c\030\276p\271q>\026&\017\276`\255X\275\371\325\231\275\376N\370\275\034\225\207=\342\n\324=n0\006\276\201\215\353\274\020\177\201=\031S\356=\340\330\262\275\341\360\264:\272#\371\275gd\333\275t\302\202\276\n\331\245\275\370]\266\276\014e\240>\355\360f\276k*\"\277ju\004\276\033bB=:\375\356\276\311-z>\254\221f>\304\214\337\27587\370>\272\347\361\2740\276\217\275\363\027*>\301\215\027>\332\033G<\364\177\256\274\205\366\326\276]\241\006\2771\270T;\344\270\004\277-\300\332\276t\207\221\2758\333\002\275\276\021O\276\005\315\210=\303Y\226\276\316\322\212\275\0068\252=s\345\333<\354\366\034\275NXD\2760\255\361\274\346\201 ?g(+\276E{\316\274S\245k>\224#\235\273\275\264\265\276\354\342C>e\305\037?\2321\343=\232/\333>\211\274L\276(\305\354=\003\r\034=pu\276\276_\025\212\275\202!\342=\366\371\326=^7\204=\366%\230=C\350\240\275\367%\343\275@\014#\275\032\212\366=x\232\303\274r}\364=6c\341=6!\265\275\324\276R\275F\371\344=\000Hs9_W\"\276\2744^>,\375\027\276\211\017Q\276A\206j>\233\r\002\276Yr\215\276\212D\336=\340\206\314>8\032h=6 \304=7~;\277\273\344\207>\200&8\276\317\177\262\276\302\230C=0xh=wI*>\200&&=Z\234\272=\360-x\275\3505\360\274\315\212\232\275`\334Q\275\200\310i=\024^\242\275\364>+\276\346\271\276=\340\366\177=\200\314\214<N@\275\275\014\232\304\275\237\321F\276h\302J\275\225pj=\270t\373\275Z\377\021\277W\226i\275\r\226\017\277Z}:\2772\213\035\277\024K\017=\t\177\240\275\353\202\253\275\247\274B>K\337R=(&\373\275`\027P\275\372\"Z;i-\362<+T\300\275b\037\234\275\330\177\356\275|\326]\275u~F:J\000\300=\205\317\025\276\225\r\344\276\310]\033=\031\224\004\276\271\240Q>\271\332\023\277\005\264\027\276F\250\323\275\260yn\275dUO\276%\254\3318\332\232m=\357\277\346>\030\226e=\237\241\260=\370\337\352\276\335\345\265<\177\236\306\275MH\221=\250\336\005\277\376e\006>\334\230\274\275U&\203<\330\003\336\274\202w\225=Qv\246=\350O\235\276n\014\276=x\035\373\275jG/\277\341\242/\277\264H\024\275r\220\344=ng\222>\031\251\007>\n\271\343=D\377R=0m\321=\334\026\302=\222QX>\237=R=N1\321\275\027h\313\276\304U\337\276\264\361\t=\r\215\037\276\217\313\221\274\370u\350\275zZ\274=\010V\232;*:g\276\375b<\277/$B\276\014Y\201\276\316\353.=\210\274\200\275&w,\276\323L\031\276q\303\026>8\026\352\2759j\227\275\0240\350\275\370\237\n\275L:\177\275[K%\276\300\236\311\275!\221\334\275\360\2018\275I\230\010\2760!:\2755{,>F\256\210\275\225@\375\275\304\245\t\275o\034\227=\016\304t=\001q\200\275\377Q\023>Y\203@>\263\202\217\275\204\306\204=\356\340\010\277j\017G\275\020\320<\277\230\343\371\271\243\0249>f\344\342\275\3618\027\2760\366\007\275<\322\t=\331\3002>\303X\026\2762`\352\2755\212\n>\330Z\317\2742\255$\276\212\325\265=\343\337\017\276\2401\300<\027\265#>Q\271\017>\013\2574><\323\346\275\356\371z\275\206t]\276\004\305\235<h#\214>t9\205\274\3304\026?~W\225=h\203\373\276M\373\350\276:!<?:\245\202\276o[\241=|\204g\276\276\002\311\276\243CF>\303\336\246\276\277\310\210\276Y\353A\276\324\032\277>\312\320\017\276\2404K>\366x\231=D\221\204\273\036q\341=\250\t\220\275&\232\374\275\204)\'\277\374\221\003=\214?T=\005[\215>\3610\n\277T\315]>_\351\217>\025\240\346\276\372l7\276\256\365\025>Y#\300\275^\242\351\276<3\246\275n5\037>\010\016B\277\302\370A>\245c\243=\346\275\243= \316+\277J\314\225=\006\235\351={s\220=Q\033\210\276\272\021\263=4\214\323>9m\220\276\237\312\000\276\274U\246<\212\247\033\277-1)?\022z\363=\334\227\006>~O\335\275v\340K>\244d\202\276_\006i\275Q\026G\276v@e\276\035 *>B \223>\331\335\266\275K;\335=\306\226s\275=\377y\276\301m\327=q\3761>\255\005\005>t\207\274>As\232\276\306\277\357<\002\254\n\277\370^\257\276WY=>7\177\343>\310\252c\276\220\014\001\275\332^\034\276\212&\331=\367_\030\276\364\364\325\275\322\233\234=\312PZ\2754\241\031\276\346\311\312=\327\260\013>X\214\323<6\216\334\275@u\363\275\240\240\256\274\027\251\250\275\262r\341=\372\206H<\n\262\247\274#\343^>a7\257>\271\255\202=\274t6>\304M+\276K)\236\275\026\003S>\266\004\310=\001q\365=\031\341>\277(\337\200>\300\265\374=~\177\273\275\021\242\372\275ac\003>\246\320o\275p\006\247\275l\261\301\275U\2552>\347~\001>B\243\300=`9\250\274\274t4\276\373:\031>^C\245\275\355\320\026\276\223\377\261\275\035[%\276X\257(\276\323\251\325\275K:\361<\024H+<\334jj=\362\261\232=@\260)\277\010-l\276\247\2119\277|%;\277\353-\343\276\340\312\202>\022\023\275=\345\275N>Mzc>6\336\202\276y\357e>cp!\276\252\327\376\275y*\257\275\n#\340=\234\030\365=\212\270\036\276tt\017\275\0141\220=[\006B>\266\001\361=\'\354\t\277Ds\r=\325\211\002>*\237\023\275\2649\375\276(s\314=\362\316\232\275@8\343\275kQ\037>\360\202R=\214\013\006>\361\335D\277\323\303\036\276\342\275\221=\2439$\277z\306U:}\035g> \241\361\274f\2060\277D\377\t\276\200sU\276\320\262\341\275\274\035>=\000\024:\275\210N\035>-\314\270\276\260\022\204=(\366-\275\234\371\002\277<\227A?\254\252h=7\344\002\276\244\336\004=\006\222\205\275\302\003\027\276\344\212q\274\256\t^>\226\252\n\276f*\237\2755,\222<;\037\205\275\245{\202>\244\360\350\276\325\222\t>\010\247\027\275lJ\030\275\262\023\353=R\005\333=hdP<\256\320 \274#s\357\276\354\\\007\276\305\267X>\266\227\355=:\324\351=\216\265\333=LYS\275M\363\225\275\330\177\010=V\336\224=Vc\274=\304\013\021=\313\376\376\275\177\246\220\275\255x4\276,=\253\275\210\253\237<\200\206\370\272r0\316=\037\355-\276h4\010=\300\224\\\275\342I#\274\336\210Y>sy\031\276P\353\225\274\177\307\311=-(9\276\017\353\004>\367\222<>:V\021\277\251\266\346\275\016\210\007\277\333\245E=\235m\023\276\272b:<\232YI>\304\231\021=(\303\214=\355\\\032\276d\340\022\276\370\213\037\276\250\364\342\274\212\203\375=\366\220\265=\00041\275\271\017\">\310\225C=x\217\207\274`\237e\274\207L\212\275pA\024\274\370\016\227<\201\002\212=\020\377{>X\370\303\275\376\277A\273\003-\022\277\034aw<po\335\276W\321.\277\214#\004\277uN\264\275\334nB=4\t8\275\242O\322=\032\255\310\2756\246\242=\306\347T=@@x=\220\021\260<\205\0103>\004\2249\276\220\207\t=f\320\276=\n@\312=\0356\003;\207\336\201\275\220K/\277E\314\">\032\362,\277\276\322\261\274\3445\037\277\300CL\275\332\361\366=\344k\325<\303\205/\276\265\010\033\276\325$\271\275\005^\373\276X\367\036\276\004\243S\276n\371\367\276\tZ\2618&\036\377=\002\277\315\275H\360*\277\244K\300\275\234\013\275\275&>\317\275\267ZK\273n\004\307=\356\201\310\275j\207\371\276\014\n\034\277\322\213\325=?\2415\277\261\r$\277\317\364/\2769q\030\275\360\240\217\274\n=~=j\321\335=n)\370\275o\263\002\276\365\220I\276\013)8=L\346\002>\332\245\251=S\375#=\222\333\371\276\304\200\302\275\264W\025=\005\324\365<b[\347=h-\217<{\334\010>P\332\031;V:\005\277@ T<\\\324\335\275j\315\013\275\247\036\034><R/\275\204\007\326\275\300G\205<\337r\002>\344e\027=K\004\216\275\351\013\306\275\000HW;\300\210\013<\241\006\027>\213M\033>7\320\030>\372\232n\275\000\307\010\275e\200\017>>\302\366\275\213\202&>\033\026\216=\214\006\312=\230}4=\304OZ=vI\263\275\202r\263=\236>\240=\376^\215=N\034\036\277\352\010\336<[\010\005\277\005\013=>\024\346\016\276\020\273\310=\273\370k>\216&p\275m\205,>\214\331c\275\244\342\014=)\335\010>\235\275\036>~\005\267=\346[}\275\300f1\273\330\310V=(H\365\274BW\032\276\244*\000\275}F\032\276\016B\232=0T\213=\277\360\314\275>-\374=!\034\242<\303\251\373=\343\030%?\366\326J\276\210\206\004\277v\340D\277\005~\377>\004|X>zm\253=N\234\030>\2142\353\275\316\266\206\276}>\327>\2223O\276\244\355\275>\344\221\001?\223[$>b\301q\276r\020\320=\016\023\377\275\206\374\367\275\337\275l=r\315\331>\205_\020\276\376\221\022=0\307\034\277\224\230\307\276-\025%\277W}\004\276\314\335\037\277\255\203\017>\027\346\207>\243k\206\276\353\2742>\2314,\277l\364s\275=\343\204>\341\323!\2770\327\247>~?%\275\217\342\240\275pv\017?\362),=\000Y\220\276\326V\311\275\216F\263\276`\325_<\026\363\266>\332J\220>\235\037\334\276\306\031\020>+I\023\277JJ\n\277\242F\277=\202\242\223\276l\216\027=r\017\373=P\037\316\275\363b?=\360\303-\275\036P\223\275\3145\220;\332m\371\275\\\233P\275\361\310\373>\200R\263\275\321\266!\2777^\357=\316\267W\276\\@\310>\016b\307\275j\240\364<\003z\203\276\311\022\352>;|\261\276Vt\371\275V\0266\276C\024X\275\020\230S\274i\3433\2767\\)>\030\202*\275\326p\300\275pK}\274\3064\271=\262\234\370=J\236\322=\032\363\241=^G\265=#\227\033\276\010\031\377\274K@4>\232W\304=\"\033\030\276\374\250\317<\264y\n\276\247\374N\276p\n\255;\230\336\266\276\017\363\313>\373)\253\2754\024z>\023g\335<\206\027\307=\217\364t\276\242\237\032\277\375\215\213\275\320?}\275&A\355=_|\345>\246c\210=\372\203\323=6\316\364=+\211\"\276\360\233\024=\230Q\200=\240\256\301\273\323\2620\276\360R\224\274j\177\217=\260\310\232<\250\222\270<T\311/\275J\353\237=F\323\037\276\242\264\351=\272&\252\275\034]C={\233P>8\346\213=?\370\345\276m\257&>e:\005\277\"s>\277\232p\036\277QC\354\274\022\215\n>\375\360\037\276\224\225#\276\332N%=\357E\213\276\327X\016=Sd\374\274|\034\312<\354\026\246\274\314\343\257=\3445%\275rT\251\275\225:\021>\264\307\317\274\332^\377=\373,?\277V\210\315\275\270\210\312\276\232uP=\005\260!\277\331V\036>pa\325=\301\307\013>\016M\016>\037\315\024>$5\315\275\221u,\277\'S\017\276\240\254\337<q(6\277\314\261C=D\275\027\276\226V\002>n\\\373\276\034\\|\275\252\331\370=\260\371\211=\241\233\203=\354\241&=Xp\245=\320\327\002\277o\0131\277?\3308>\327\n1\277J\006-\2776\270\257\275W%Z>W\301K>$\254\342\27586\216=\242+\'={\323\216\276\006t\316=&\372\277=\270P\324\275\352\013\037\276\346\236\202=0\0212\275~Y\337\275\'\016?=\236\352\t\276\t\016\323<\212\255\267=\212\025\334\274\316\023,\276\350N.\277i9\220>\324\254\001\273\231\001B>+[\376\274`\343\212<;\300\024>\366\361\255=\025\340.>\002\353\275=X;\r\275Q\r\376\275f\212\n\276`\r\235<\225\030\221\275\000\302>< Q\216\275D\210K=Pl\247\274\313\245\005\276U\210\025>\001\371\256<\241\371\'\276\245\347\356<\303R\t\275\341A\205\274\004\037\230\275\243\202#\276p:\036=]ys\272G\225\010\277\341\310\002\276p\202\017\277w\213D=\272O\220=u\010\315<\366\007\317=\0079\033>\350C\035\276A\354\330\275\210\305\353\275\020\370\214<0\372\016\275 N\317\273\223\335\026\276\247H&>>e\241=\200\302:\274\303\276\001>\363\251\013>\271W3>\336\\\221=\260\225\356\274\340\245\332=\357|`>\331c\233>\237*\031\276x]\314>\275>\366\275\327\334\007?K\216\013?w\255B?8\277\031=\360P\003>L\223\315=/\202\331>\222`F>\017\312\267>=\t->\234f\016>\274\213\300=|\266\206>\340Z9=\216&\034>*\333%\276\340\027N=\3021\223=L\312/\276\250\351M\2755\276\274\275@\2137<\373\214\017\276\200\213o<\274\221\347<\375\276\222\275 9h\275 &\303>*Ur\276\013\333\257\276\027l?\277\264J\017=\354w@\275#\033D\277I\236\313=\350\336[\276(\202M\276\016\251\033?l\347\010?\234O\023\275\377<\260>\"\366B\275\031\264S>\310\342\020\276]\2273\276\244\006(\277f\004\247\275\323\021\">pv\\\274\363\016\222\275\033v\227=\360d5=\337Q\204>\027\277\335\276\256\306\374\275\334\232\">\220[\314<\"\222\005>.\210\264\275\240*\371\273\224\354\n?\3646\027\275hf\014>\311\262\211\275E(\310>[\341\345\276\367\014\220>L\363Z>\206e\032\276\312{\366>\325\273\222\276<\033\022>\242.\232\276\340w\'\275FM\217\275|\350c=@\211\036<\364\022\200=\236\227 \276\260<\320<\212\266\210=\210@\315\275\370E]=\330\366\360\274\264j\032\276\345\211%>0\3711\2752\230\200\275\314w\201\275\324\203\276\275\026\366\035>\360\303,=|C\004\276\350\240^=w\207\366\276\235?\301\275T\006\270\273\373\350\000>\026\2764\274\005@\031\276\276g\016>\030\014\314>(f\365=\374z)\274\314Wa>\200\270#\275L\276\272\275Z\377\347=@\355v;`\372\017=\215\253\017\276\300K\334<\3427\337=\236\327\235\275\010\274\034\276l\351\n=\320\026R\275\340\207\027\275\340\341%\275\315c\017\276\216h\214= \010\357\274\356<\241\275\303\t\244\275\275\341\321\276\201\005\013>{\371\027\277\224\366i=\331g/\277_\202 \277c\273\377\276\366\362\227=p\202\230\273\213)B=\270\363\n\276Q+k\276\357Q\261<\315f\313>\200x\313=\237j\035\275\240r0\275XIb:\200_\251=M\301\304=\023\257$=\273I]>\242\316\254=\210\247\330\276Z\374G=\002\020\377\276\210\244\r\276p1!\2777\002\252\275\344\314\017\276$\260*\275N\262^=<^\325\275.\264\303=\373\377\020\277\324\365\224=\372p\376<\034\2261\277W\257\025>\021\325p\276\273(\321\2754\226\375\276x7\207\274JO@\2767I%\276\201\203y\275\362\372\350=\014\252\242\275b\357\344\276\335U\'\277T\271T\276\264j\t\2772\237:\277\245\336\233\275\037\243\037>\232\214\232=c\365K=\216u\003<\005+\206\2753\250x=\314\363?=\243\264\247\276j\237\303\276\221k\333\275@\324\203<k\202.>\347\3512\276\324\220\022\276r\245\213\276*\220H\276kc\024>\\\222\033=\336U\255=e\230\363\276+\004\264\275\302\277\231\275D6\356\275:\002\260=\342\243\243=\324B\005\276\337\235\020>\363r\312\275\241\004\003>\347\371\005>A\377\025>\210FE=\257`\356\275`\336\235;\005\001\374\275H\273\001\276\351P\035>h^\256\274:\035\303=d\026\003\276\313X\221=\265]\235<s);>\377\344\'>$\324|=\274\221\\>\337\327D>\317\341\035>\366\322\265\275\\\241\034\277i}\013>\303\"\346\276\2753A>\275\215=>\302.\301=[5D\276\334\r4=8\361\334\274\220\300r=z\240\303=@Y3\273\314\037.\275\211I!>\343 \014>\270\261\360\274\303&#>G\253\031>Rg\330\275&\335\241=t\006\213=\317S\361\275h\243`\275Qa\252<\200\335\250=\026\276\322<\315\2768\273\325^2\277J\216\370=\024\3677\277\210K6\277b\307;?\330\314\241\276\230(D>i\300\004>ui\235> \323\351;\264\016\016=\261(\264\276\370\225A>\353\265\265\276\274t\203\275G\352\030\276\351\205\363>\200\227M>\372\253v\275\204\033\263\275\246-\262\275\353\005)\276\217_3\276\206\347\356=\256\\\261=\001\351E\277\274\030\315\275C|\303\275W\255\201\276\314?\233>~`V\276\205\"\266>\200x6\277\230\342\226<\334\023n\275\312D\026\277Vx0>vb\360\275\004P\350=\360n%\277\211\017i>\307\317T>\'\\\313\275\301KF\276\251Q\230\275\364\005G\274\300Z-<\253\211\031\277o\202\211\274\331\327\026\277\337\261\001\277\210\1773\276\032\307\242<\034\034\212\275t\225F\275\003\351\372\275\376\356\027>\306\231\267\275$\370\244\274k\257\020=Q\010\020\276p\216\007\276\244\2713=\326\252\260\275\004;\311\276V\356\035\276\342D\032\276_\243\245\276\355\244\211>\250\243\363\276\204\322m= \335\375\276v\315\273\276\337\232\032\276\233\016\"=\252\014\317\275P\343\311<\341m&>\364\364\n\275z#\251=\031\361\024>\210\202\271< \247\217<\017\242\">L\037\030\276\020\243\013\276\240\034-\276\000\352C<]\034\025>\225z\253\275\367{.>\032R\314=\226\241\360=}\221\342=\227Tm=\227,\000\276l\';\275$\r\245<\205\226\201\2753G;\276\2140/\276v\217\020\276J\352\323=\030\314\361\276\344\3638\275}\233\004>Xd\033<\024\030\375=\342r\334=\260\357V=\033u\320\275q\357\">J%\344=9Y\024\276 \333\021\275;.\033>L\276a=\220\300P=\202\010\323=\036\252\230=\264\251\323\275\344N\217=\230^\377<\033\215\023>Uc\221\275J\340\371\275T\376\005=tl\031\275\316\220\024\277\351\276s>\353K,\276\261V\362>\035v\025?K\316\034>}^\253>\236%\217=v\t\344=\352\205\214\275\374Js=d\2747\275\211\311\'>+\266h>2tK\276\226\007\357=:W\306=\324\016i\276*\372W>L:\226>E\232.>D$\202=P-/>\005\315\332\276\344\276== 4\372<R\033\263=\006\364>\276Te\001>\342\320\033\276?\262\273=\232\210)\277pA\'\276\3002/\274]\260\004\276kQ\013\277\253\014\263=L\303\216\276+\303\217>\311\257\006\2778w\014\276\336\263\364>\025.\201>\312\355\225>_1\361\274N\332#\2763\272\245\276}\375(>\316W\261\275fk\367\276=\227\270\275\242\357\302=;\304i=\370l\336\275\350\300.>/\025\245< \322^=\357\256\032\2757i->$^\226>F\362\245\275\323\225\346\275\027f\033=\201\3423\276\353\347\214\276\331\230\023>\362\305k\274\331\300\237\276\350\341\277\275\327G\021>Q\256\002>\371\200=\277e\004\247=\360\253\200=a\263\230>\312\265\033\276\177M\023\276@\364<=\205\007\201\275\010\264\377\275h\004\375<8\230@\275\374\357&\275\"\306\273\2758p\225=\2643*\275\370\205`=P\221\265\274\333\356\001>\304=\237\2756\010\246\275F\363\244=\236Z\322\275\252K\366\274\230J\013=\016\315\206=SWB>\370\352n\275\\!\"=\334V^\276fh\370=\272K\240\275\277\003R=\255\024\022\277:X\230\275+ES>8\337\030\276j\333T\276\361\224\253\275P\241\201\274\316:#\276\256\337\247=\026\343\200=\t:\232\275\265B\r>\370\224\220\274n\016\271=\331\241\274\275\005o\301\275.o\205\275V\235\253=\272\346\372=n,\266\275\314\205\007\276\212S\032\2768Q\216>\227\225\230>\344k\'\276\365^!\277\221\004\023?9R\356\276\267E\020\277hz,\277\251\204)>\023\374 >[\316\212\275\240\342\014\275\304\325<\276\232\270\270=\302\243i\276\300mG\276\247\035\216\276\315\010\010>AOQ>W8B=HS\216=I\332>>\377\241\314\274\276F\002\275\020T)\277\035\241+>\307\r8\277Q3\031\276L\254@\277\354\343_=\222\022\307\276\212\257\n>\003\330\253>\377\247\230=lq\370\273(p\024\277\353\032\216\275\032\314n\276\236S\375\276\226\256\2439 k\205=\321o\343\274\033K\003\277\246N\251\274\211=\351=V\370\202>\257_\200>\013\354\\>\032<\220>\367\205\326\276\331x$\277\216\310\262\275\314\227\'\277\371\024\032\277\273\311<>e\231\255=\002\264z\270o\332=>\206\361\342\275w9\010\276\007\350,>6N\242=\305\200N>\3329A>H\371\356<\214\347\303>\274\245\017\277vT$>p\215\323=\231\375\377\274\211\002Q>\203c\247\276T\210\273=5*C\276\003\352\350\276\321\036\343=[\363\343<\241\305F>\005\212\021=\230\005/=\200v\214=\004C9=x4\315<\035Z$>O\'\224\275\347\366\021>\246\214\036\276\200\272\232\272Cz\360\275P\022k<\334=v=S\322\270\275xO\016\276F\334\274=\300:e;\233\257\276\2755p#=\332k\361<\240\374\\<\247\2445>n\331Q\276\2151\272>l\227\206>2\001\024\276\037\342;\277\003a\353\275}\2220\277\3045)=F\303\236=\025x\205=\233\004\255\276\364\372>\275#\2671>P\354^\274_`\n>]\227 >\330\204\351<.b\250={\363\340\275h\306e=\274S\005\275i\307\300\275\203(\032>\000\340\223;\365\033\010\276|KR\2750aw=oq\001>\334\371\3519d\030h=\273(\242<Mo\004\277;I~\272C5B\277\303\017\354\276\343\250!\277R\231\324=@\2312=\200Y1=\004\3262<\272\332\036\276\3644\256\274\347_\344\275%l\205\2753\370V>:\372\376=\320\024\206\275\255s\342<\346Z\352=A\226\001\276\014\022\374\275\336\274\207=\246\0024\277b\321\002\275\261\326,\277\261\267[\276\233\363\001\277\322\361\246\275\346\302\000\275\342\303\005\276\330\306m\274\222EZ\276\375\303p>\251\365)\277\330F\364\274\nbi=XB4\277e\n\274<\023\262\023>V\331\345=\004\363\014\277\210a@\274\177\316w\276\034\307\004<^\375\200=?\3111\276\257~=>#q\037\277\366V\005\277\260\235|=\315\223\365\276\016-\024\277\345\324\301=&r\331=,\3277\2753\340\023=\363\240\323\275\200\302\366\275\3566(>\367a\r>\362\014\003>\274\"\373\275\374\356\005\275\211\227\303\276h\257;\277<*&>$\363\002>\231\001\220\274\332\373\302=*V\231=N\037\t\276 )V\275\214{6\277h\376\207\275\004&#=,\026\247\275 \314]\275\334eL\275Z\341\305\275\17791>\234\277\202=\000\251\002:\205\246\003\276yk0>\255r\006\276\223\225\t\276\324\034r=$`\030\276T\251\t\276\331#\030>\240#\270<\355\251\240\275\000?\205<\217\357\215\272\006\354\304=\017\3730=*\365\303=\034L\3519\260\347\273=t\202\305\274\212\035X\274>\273\216\275\313[C\277\020\n\"\275\000\0355\277\366d&\274\023\215\260:>\024\240\275\343\327\025>\267m*>\255\002,\276\234^\273\275x\255\327<\240H\356\273\240rY=4y(\276\001\230\207\275\000V\221\271\257\247\024>\000\025\026=\361\370#>\313\327\361\275\250\224\007\276\024\254\201\275zh\000\276\'\200\326=\357\r\307\276}/.>\374\257#\275b\341\005?\261R\201\274\331\235\r\277S\350\336\276B\271\371\276\364\016\256\275;6\254>\260>\243<\307S\010\275\327\036\036=h\266\200\276\302\275L\276\177$9\2761\260\210=x\025\310;\313\220[>_\304{\276[\215\020>@\332\347=\214Z\234=;\'M\276{n\000\277\004|V=\207\361%>~}\265\276\372\322\n\277\262\220\306=Ca_>\224\246i>\276\275\332\275 \320,\274\033\244\033\277\260\3443?\300\275\353\2759\021\204\276#\277\033\2770\235m>\036]\237\276\024\031\252=\3510\t\277\266\370\261\275f\313v\276\251\371\226\274\247\202\340\275\260\213\201\275d0Z<\355s\324\276=)\355\276K\030\225\275\215\235\371\276M\361\010?\271\234\342=\224\030\364=1\251\036\276\322\026\002\276(\231\r\275\372\227L\275\007\334\212\276\237\'*>Sf.\275\234w0\275{\340\302\275\037\261\377<\304\310\200=\313\375{=\350\237U\276g\000G\276v\306X\276\003\315\253>C\353\234\276\366\355\300=\223\312\360\276\305\024C>x\220\337=\202\346\326=\327\325\377<$S\034\276<\007\032=D \006\276\224\315\346\275 \254n\275`#O\274\036\212\314\275f\005\345=\236M\264=o\335*>\036\347\364=7\372\310\275\n\265\207\275\014!\035=(}W=(\250*\275^\210\023>\223L\004\277\326\013c>`\344\202=4d~\275h\314\261<\322\305G\275\\\375\225>\213\261,>\367\205\005>\316\357\n;\217\330\364\276\2344\213=\006>)\275l\212\307=9\346\253=\014\254O\275]}\264\275\2421\260=@\263(;\320K\340\274\276\233\340=|\246\216=\023\332/\276\330N\301\275\264E \276R\221\242=\200\337M;\340A0<,~\213=\304q\r\276\230H\256\274EYY\276z\007\032=\030.\010\275\237\005\t>@\206\026\277\215@\223\276\2727\025\277L\232 \277\311\365\025\277\000C\205=\016\031\253<h\363p\274\252h\217\274\256\022\242\275 \020|\275\264.:\276\300\224\037=9\242\037;,\004\361\275S\262\245\274A0\013>\270\026\025<RS\331=H\235\r\276\347W\357<\236!\r\277q\316\226<0A\r\276 \017O\275?\277;\277-/!\275rD\263<2\'\236=\212\315\251<\022\345\301=Y\202\215=J\224\r?\274\326\r\275\216\302\014\273\036\0274\277]\342\270\274]Go;\3526\367=\267\337\351\276\301\231\202=\204^P<\213\002\330=\272s\346=i\035\016>\224&\253\273*\223\016\277\211\246\010>\356;\327=a\036\006\277bQ\035\277\367Jp>\247&L=\357n\037>:\000_\274\214\366s\275p\313\374<\245Q\034>\272\203\275<\302\252\260=\300\334\322\275Y&3>\257\271\'\276h\356\017\275)\316\013>T\370\304;2\304\376\274\202\337\253\276\375X\210\274(\265\032>\234M\265<$\200\014\277)\312\377<\331\325s>\250\325\357=\354\224\362\275\200*e;\372[\005\276u\215\010\276\214\267\325\275\250}\364\274\320\334;<UZ 