node {
  name: "x"
  op: "Placeholder"
  attr {
    key: "dtype"
    value {
      type: DT_FLOAT
    }
  }
  attr {
    key: "shape"
    value {
      shape {
        dim {
          size: 1
        }
        dim {
          size: 24
        }
      }
    }
  }
}
node {
  name: "decoder/conv2d_transpose_2/Shape"
  op: "Const"
  attr {
    key: "dtype"
    value {
      type: DT_INT32
    }
  }
  attr {
    key: "value"
    value {
      tensor {
        dtype: DT_INT32
        tensor_shape {
          dim {
            size: 4
          }
        }
        tensor_content: "\001\000\000\000\004\000\000\000\004\000\000\000\010\000\000\000"
      }
    }
  }
}
node {
  name: "decoder/conv2d_transpose_2/strided_slice/stack"
  op: "Const"
  attr {
    key: "dtype"
    value {
      type: DT_INT32
    }
  }
  attr {
    key: "value"
    value {
      tensor {
        dtype: DT_INT32
        tensor_shape {
          dim {
            size: 1
          }
        }
      }
    }
  }
}
node {
  name: "decoder/conv2d_transpose_2/strided_slice/stack_1"
  op: "Const"
  attr {
    key: "dtype"
    value {
      type: DT_INT32
    }
  }
  attr {
    key: "value"
    value {
      tensor {
        dtype: DT_INT32
        tensor_shape {
          dim {
            size: 1
          }
        }
        int_val: 1
      }
    }
  }
}
node {
  name: "decoder/conv2d_transpose_2/strided_slice/stack_2"
  op: "Const"
  attr {
    key: "dtype"
    value {
      type: DT_INT32
    }
  }
  attr {
    key: "value"
    value {
      tensor {
        dtype: DT_INT32
        tensor_shape {
          dim {
            size: 1
          }
        }
        int_val: 1
      }
    }
  }
}
node {
  name: "decoder/conv2d_transpose_2/stack/1"
  op: "Const"
  attr {
    key: "dtype"
    value {
      type: DT_INT32
    }
  }
  attr {
    key: "value"
    value {
      tensor {
        dtype: DT_INT32
        tensor_shape {
        }
        int_val: 9
      }
    }
  }
}
node {
  name: "decoder/conv2d_transpose_2/stack/2"
  op: "Const"
  attr {
    key: "dtype"
    value {
      type: DT_INT32
    }
  }
  attr {
    key: "value"
    value {
      tensor {
        dtype: DT_INT32
        tensor_shape {
        }
        int_val: 9
      }
    }
  }
}
node {
  name: "decoder/conv2d_transpose_2/stack/3"
  op: "Const"
  attr {
    key: "dtype"
    value {
      type: DT_INT32
    }
  }
  attr {
    key: "value"
    value {
      tensor {
        dtype: DT_INT32
        tensor_shape {
        }
        int_val: 1
      }
    }
  }
}
node {
  name: "decoder/conv2d_transpose_2/conv2d_transpose/ReadVariableOp/resource"
  op: "Const"
  attr {
    key: "dtype"
    value {
      type: DT_FLOAT
    }
  }
  attr {
    key: "value"
    value {
      tensor {
        dtype: DT_FLOAT
        tensor_shape {
          dim {
            size: 3
          }
          dim {
            size: 3
          }
          dim {
            size: 1
          }
          dim {
            size: 8
          }
        }
        tensor_content: "*s\222\276\035\236\237\276r\006\026\274P>\237\276\363\324\264>\024\245\023\274\240\ry=\202%$>\243\034\242<9\'\217\276\260\270\244<\362\026\231\276{\310\362=\237\032\215>\272\376\232\276\351\031\254=$\335\212\276\350@\301>\241\t\225\275:\367-\276Nl\237\276\320\205\n\276\020\222\342\276\240\014<>|\3378\274\274\036,>H\020\311=lA\330\276\374tm>\315\267\212=\375\265\246\275\345C\247>\330\',=\310\002\213\276\207\030\234\276\222w\267\275G\307\232>|\033\010\276\222\377\314\276\231\311\235>G\r\306\275\254\227\372\275\034e\264\276\257(?\2768\231\210>\363\351\247\27675h\276\331\007\216=\207\326#\276`#\220>X?\243\276 _\245=k\212\031=l@=\276\nv\353<\032\\)=.\254b\276r\240\312<\374_\354=\326\021O\276\337\030b\2760\005g\274\300\rR;/\251\216>\300\022\254\276\350*\353\276\334\227\210\276ps\372\275xS\326\275\3164\241>$\331\370=}\303T\276"
      }
    }
  }
}
node {
  name: "decoder/dense_6/MatMul/ReadVariableOp/resource"
  op: "Const"
  attr {
    key: "dtype"
    value {
      type: DT_FLOAT
    }
  }
  attr {
    key: "value"
    value {
      tensor {
        dtype: DT_FLOAT
        tensor_shape {
          dim {
            size: 24
          }
          dim {
            size: 24
          }
        }
        tensor_content: "\332\330B>\034?l>0n\022\276\240\350\305\275@\003\213\274\221\027\347\275\026s]\276\340w>\275T\204_>\004F\213\2750\312e\275\276EQ>\352!h\276\377z\331\276\246\n\032\276h\373\242=Pu\026=\000\236\236=5\006p>\202\0206>\212\306\364\276\036d0\276\362<8>\316\211\n\276o\243(\276\201\263\353>\204F\205\276\030\342\315>\376$\351>\234\326n\276Zg{>\326\017\216\276\376\\\320=\273\335\017=\301\337\223\275\311\036\341>Q\371\\\276\023\247\313>Od]>\272gU>n\227\211\276yt\213\276\275\354\272>\361`\215>\002\031\215\276\014\261\276\275\305\374\215\276\276\210\005\277\320\355\221\275\202\001\352=\3712\033>\3311\356>h\030\364>k\n\014\276\001l\206>\005\032\325>^\255\242\276\'\003#\276\347\236\205>\256\267\227\275\004\262\354=3N\203\276f\351\206>fv\032>r\037\215>\200>\211\2768d\255\276@\242C=\267\003!=x\364B>0U/=|\243\373<\034\266/>\rw\352>:to\274\352>M>\342\313\344=pb\355\275\000\353\226=-1\246>_o\315>\250D\350\276\346\034\366\275\365\275\375>`\021m=\311\345\330>\035\215\333\276\360\3174\276gr\004>>\t\214\276K\334Y=\307\025\262>\300~\024\276\2168#>\367YD\276\270\347\225>`w\031=\216\312l=\246D8>\027\3100>\026U\013\276\177t\334>c\014\027\276\324\212\344=\221\030\340\275\035\316Z\275j\312$\276?\010\342>\236\036m>\377\037\200\276\"=\014<\007\361\215>f\366X\2766\343\t\276:`d\276/;Q\276\335\2660\276\330a\014>$ \325\275A\006\223>5\367T\276\241\214e\276D\215\333\275\216E\001?; \300\275\244\353(<D\214z\274s*k=\026:\"\276\032\014\020>};\025\276\032\"\n>@\033\303\273\334\004\371\276G\326\314\276\035\021\252>\027\356\322>\276\357\263\276\006\210\243\276\000\2771<\273G\242>\274\325\236\275\310%\t=\307\241\353<\217\n<\276\254\031\310=\312\270\267=\340\326\347\2730\221\342>H\355Z=\324\364\272>\023\206\202>k$\266<\"\210Q\276\362\\D>Rq \276\031\002\211\276RO\n<:\233r\274\002\0342>\214\024\372= \3454\274\351W\343>\310\004\230\276\325?\220>cT9>wTn\276\340m\365\275\344LM\276\327\007\231>4\201\225\275\2171\201\276\262\277\216>k\371y=8S\243=\233V\354>\236\242}>\271/\316==\303\252\276\000Y\237\2758\t\336=\036i\207\276\006\306\017>\205f\036\276\251W\251>p\237\357\274\276\300\202\276&\025\002>\317z\342>d\023\203\276\260\246\212\275l\320\372\276\336\207d>c\205\024=\244\023\237=\233\365\253\276\224\014\244\273\030\320\316\275T\233_\276\366\2458>\226\207\220\276\002t\376\274\224\372\235=(k\031=\024i\177\276Q\234H>\356\035\233=\376y\260\2766\325H\276\337\353\211>\033Tc;\361(\247\276\213\226p>\337\002\203>\351\231\243>:\000\222\275R|\361\276\303I\242>\023\275\307>ev%>\352\363\326=\022\246k>\241\206\032>\311\250\324\276\033;\337>~\255q\276tv\357=:\3032\276\010\2756\275j\375\320\276\261\357\376\275\370^\240=-\216\307=?\222\032\276\350\017\t=\234\214\262\276\274\031\014\275\024\304\303\275\021\351\221>\237\021\244>D.\220=\033|\350\276\205\211n\276d\234\376\275K\007\260\275\243\214\267\276\324\014A\276\217\212\221\274\345\3532>\354\\\370\275\346\242\006\276\336;\211\276\220/$=8J\311=\214\343w\276\207Mr\276\276\207\314\275\nuO>$C\025>Ck\023\276\246\225i>\334f\376\276\201\034\232\276\220\236.>\\\017\210\276$\035\030>\225\301\341>\004\265~>\341\375z>\327k\310\276,J\037>\032\363\013>\374\3239\276@!\227>\220\247\246>\010W\213\276\336\343\227\2760\025\317\275s\026\300\272H\021k\276\001\343\306>\325\214\245>\036\024\020>%\221\233>\250l\231\273\0245\362\275\310\266\361\275\264\207\336=p#\222>.\036\216=\237M\321\276\225w\311\2768\244\020>\230\300\'\275\003\225\364>\256\252D\276\277<\332<\263\201Z>\257m\325\275\352\321\342=\250\345\027=i\335\250>\334\002\331\276DL\264\275|?\225=\347\270X\276Ms\231>\354\264X\276\031S\231>\206\246)\276\243P\264\276\023\'\276\276\340\301\211>\0306\037\275\300\\\234\275\303+\237>\354?Z\276\340\343\231=\27219>H\032\240\276\243\007\240\276\300\303<>Nk9\276\222\277\024\2763\327\024\276\004\037\220\276\030Z~\276\360J\260<\010\261\354=vFr>;\267\'=V\271s\276\336\313}\276H\231\273>\260\376\006\275i\367\225\2755B\246\276\367\230\t\276\234e\307\276O\362\201>\001\271\377\276\027;\334>ybk\276`O\274=8\345\330\276\207\251\205\276\306\347\n\276,u3\276\200\0212\275\273rA\275\370\360\356=-\233U\276\314\"\265<\231\033p\276\r]\277>\\\314\233=\225@\377\275\231\251j>\010+9\275w\310\376>R\272H=\246\311c>Bk\215\276\025h\276\276\253J\270>\004\035\230= \033]\2764\235\033\274\357\321\316\276\030%\222>7C\254>\010*\274=\200`\254=pL\367=\341\237\001\276\027d\231>Ff\013\277\000\242\232=\200\315 \275$\215\271=\303\277=>\344/\343\2756\345p>y\216\233>2\037)>\026\316)>\343%\000=\340\370\251<\310g\206\275rj->\267S\">x\340\214\273\\\264\230=C\232\333<(\261\357=!\226\267>\367{\227>\222\226\024>\350\321U\275\350\375\214=\207\3571>\356\375/>6\345\023>\2008\375=y\210\310=\324D\350\275\356K\034>o\177l>h\214\265\275o\235\024\276\2459h>\243\272\232\276G\362\334\275\361\206\324\275\021w?\276\006q\001>\2772x\276$\276T\276\025\224\304\275\020k\370=@\240\206\276\264\032\300\275\305\272\211\27599\242>\244S\327=5)\222\276\232\355->&\\N>Z !>\324Z\247\275*\206i\2762C4>\260\307\023=\303\004`\276\303\327%\276\301\375\205\276\375\010\004>\215:->\377\213\310>[[9\275A\014\004\276xjI\274\350,o=\203\373\214\274\361X\233>Hv\204\275\362Y\256=\220\237\214=\201\013\345\27487\244\275*\204b>\241\n\261>uD\221>\\o\231=\222\221z>\2300\257\2766\330\020>\304wO>nK[>t\211\214\275\224\325\221\2763\2770\275&\016\243\276\362\001\007\276&\241\020\276t\323\253\276\340\n\025\275\013\211\314\275!\321\212>\321;\261\276DG\234=\336\366h>\374\236\034>\300:#\275_k\263\276\2007\033\275\372\260t\276\272\010\245\275\200\371}\275D\265P\275&#K<\220\001:\276\020\322\016\276\")\255\276v\276r>\200S\000>\372\253\216\276\351\350\207>\220\021p\275\\\304\020\276\334\305\270=%\233\260>\243\2606\276\230 \227\276\022\265\302>|\311\265= \331\006>}\347\225>Dd\236\276\212\214_\276\202\t\210\276\034\310.>\364\030\346\275\314\2174\276\024#\371={\323%\276z\003~>TN\326\275(c\266\276\003u\250\274\337\327\277>T\270\n\276\310\010\374=h\307\177\275\"\333P\276\"DD\276P\353\017\276(\265i>\331\201\307\276\230>\323\275\306\231\017\276p\022\263<\356X\263<\320\021\317=-~\270>\326=\201\275\027N\217\276\362\213/\276\247\307x>\323t\340=\344\027\310=\2462\337\275`\020\327\276\261/f>\376\206x\276\360L\237;&\024n>\274\375=>\210J\204=\272\\\034\276\341\334\253\276.\177\322\275\233\333\266\276\346\333\203\276\265\230\242=\231;\231\276\002]+>\225 \223\276u\0228\276\300\371\035=\010\200\223\276\365\203\247>\361)T>n\301s>l\036\263=\347*C>\315\375\252\276\017\236\265>\035\310\331>\245\207[>\345\344.\276\222<\360\276\005O\205>W\325w\276\314\370\n\276\273\331\261>L\326\203\276\254\373\252\275\\\0020\276P`\251\275\334\022\331\273~h\241\276\317\240\305>\2443\233=\343\322\035\276Xck\276"
      }
    }
  }
}
node {
  name: "decoder/dense_6/BiasAdd/ReadVariableOp/resource"
  op: "Const"
  attr {
    key: "dtype"
    value {
      type: DT_FLOAT
    }
  }
  attr {
    key: "value"
    value {
      tensor {
        dtype: DT_FLOAT
        tensor_shape {
          dim {
            size: 24
          }
        }
        tensor_content: "q\342\307<_\270\257=\277\274\343<CI\235\274\344~L\276\016\177{=\241\\\017>\367\231\231=/P\374\2748`\345\273\256\345P=\201\243\022>\000\000\000\000\215\276\037\275\255dL\276\000\000\000\000\367\320\263=\000\000\000\000\013\037\364<\000\000\000\000sE\330=\310D\330\273\000\000\000\000\006\356\353\272"
      }
    }
  }
}
node {
  name: "decoder/dense_7/MatMul/ReadVariableOp/resource"
  op: "Const"
  attr {
    key: "dtype"
    value {
      type: DT_FLOAT
    }
  }
  attr {
    key: "value"
    value {
      tensor {
        dtype: DT_FLOAT
        tensor_shape {
          dim {
            size: 24
          }
          dim {
            size: 64
          }
        }
        tensor_content: "\362\227m\276\200\3123=\370Lp\276\010\0360>\033#\037=\227?U\276*\352\361\274\014\023\212=\370*\233\276\356\020\362\275Tgv>\2005\200\274]k\025\276\250A\247\275\271l`>@\267k\276\274*\250=\2727N>p\322\355\273\006\255\"\276\306?p>`9\222=\310\031c\276\312\177B\276.\357 >\034p@\276p\263F>\014\306O\276\223\315x\276u-w\276\355\264K\276[\001E>\327\300M> 3\300=\2205\312\276\031\007\207\276\032Q\263=`#\322=\230F\207\273\302I\016\276\201L\226\276\336(\367=X\324f>L4\r\276\322\t\325\275\220\224h=\262\023|\275\360\241\207>\030\324\267\276\237\216c\276\226:\231\274\260Fm<\372\256\331\275\264\332\303;\256\212\364\275b\'\033>\330\026\355=\217X\211\272\002\350\210>\260;L>\2116_>\3462\033\276\214\032i\2764\342[\275\273\315Y>\333\245\210>fYv>\002\265D<d\342\207\275G\001$\276\240\355y\275\246\001\325\275\334\350f\276\021\316}\276\272\220f\275D\3143\276^\220\336\275\324\017\212\276\034\332Y=\261\001_\276C\316\200=\026\245\"\276\250\266\236\275\014<\263=n26>E\326>\276f:\244\275N\000\230>\206<\021>V\261\260\275\355Y\244\276\232\004\326\275\335\\\237>\253b\306\274d\207 >B\256\352\274\324\321\210>-`\222\276\266\256\026\276\346\003\006>\026\205\016\276\240\361\370\275L\331y>\234\340\345=tN.\275\3377\224\276\341i\026\276\016\005\256\276@\201N>\314o\\>-\\\221\276\231\n\352<\235\2128\276\037\256\232>\216\270\363\275\302\3450\2764\361\302\275r\037\017>\343\026%\276(\272\030>\360\355\"=EpN\276\240\327d\276Dr\307=iQ\233>\323\314]\275\260\335Q=\236\230\335\275d\353\210\276x\254\016>g)y\276\\\314\014>\026\305\277\275\340,\322=*\333\352<\320\212\355=d\250/\275H\353\031=\266\336#>\304Q\224=d\253c\275Wo\237>\357Oe\276\261\003\203\276\262\270%\276\322\362N>\005\343\014\276\270\266\027=\030\260\355\275~\357\215\276\2102\017\275|\233\212\2758\"\352\275Z\004\361\275p|\225=<\252[\275\261\227\206\276\2078(>\331\377b\276\320\204%\276\364V\316=\314\335\232=\350#\023=\003\224\301\275\310kM\276\263\212&\276\034W4>d\211\325<\365\032\345\275\354\035g;d\370\361\275\340\346\327\275\224\302\032\276\332:\035>bqy>\266\034=\276\307f\252\276\243\017\016>\302x!>\234\271\213>\245\275\247>\213\212\243>b\360$>Zr\255\276d\261\206>o\332\363\274H\217\317\275RC\002>\004\300\205>\304\312\003\276\322\375\277\275\016V\223>\026Uy\276B\334\213\276\314\247\215=\334\000H>\213\204\242<R\312j>E\201\312=\252\253\211>\200\254&\273\245\177\212>\341\205\235>\240=U\276\356if=}\210\255\274\250\216\276\275\210\222(=eN@>\013\316e=h#5>\246u7\276a|\264\275\356WF>p!\251<\353/\342\274F\177\013\276\320&d\276\336w\216>\374\276\300=z\022|\276H\263|=x\266\302\274|\267.\276\205\005\266\275\326\373\215>\346\314t\276:\263 >kHv>\255<9\273^\365\247\276\274\013\000=\227\212\352\275T\267\323=\024\2232=\304\207\245\275wt\215>\347\337\226\276Z#\263>E/\313\275\375\031\005\276v\346\353\275\256\317\265\276\205\323\351>\246Ko\276\\\357\340\274\202\037|=y\363\254=\300\276A>pw\037\274\250\300\245=0hW=i_\252\276\200p\305\276\270@\377=k\0226>\231W\202>+\007\036\276\000\260\016\273\3101\005> \325\350>@&S<\024\317\002>F\034\336>\334u\177\275z?\251>\252\206\376<\017#>=^\254\020\276o\2648>g\005\275\276\202\371\202\275l\311\034>?\025\241\276\375A\304>@\257q<S\307\247\276\363L\202\275\320eB=\002wp\276\227-\201>\3305p>\334\255\222>\234\314\220=,\027s\275\354\353I\275\372\367\340\275,\304\021>$\201\232>\207\211\230\275\312\204\035>\340\n\t\274\241\370\006\276\014\374\021\275]N\270>\263-\010\276\364\222\274\273\002\2451\2767\200K=zK\205>8\205\016\275s\037\315\275z\312q>\363\236\253\275\326\330\023\276]\220\006\276wm\242=\017\212\267\275x\201\261<\264 \312>\014\\$\276;\270\220\275\260\366\252\276\356\017\356\274\336H\245>,4T>\340C\203>\033\274\353\276m 1\276\314\033\231\274+\352K>\260f\331<b\2168\276\342_\215\275\254\305\274=\000\244U:\334\376\377=c\352\217\275\216\037\260\275G\210\247>\325M\342<\035\230\230>\000\362B>Wu\220>\327wh\276\276\270l\276,@7=\230?\003\276\234\344\004=N\363\025\276\031\201\377:\2038{>\014q\016>\210\256\"\276\250\202\227\274B\354)>Dc\271=\004\210E\275\350\037M=\"x\373\275r\264\026>n\303z=\366H&>L\204\361=\232\260\310\276\034\263\363\275\304S#\276t\036\024>D.\026\274\332\013g>\343_\002\276p?\023\276\247\236\340\274\374\336\217>\270\020\026>\004z\177>4\361;\276\202o\207\275\0068\317=\"\366]\273B\277\021>8Ez>2\334\002>\310\323\000>\252\004f=\224\265\302\275T\251p\276\300\177\'>\324\273v\275$]u\276u8\264\275\001\326{\276\222|\022>RpK>\3642`\276\241\236\301=\334\000@>\323\2034:\223\344+>\240\252I< \200\016\276\014-c>\373\331Q>\364^\325\276\014\220\006>\340\301\341\275~`\206\276 ;p=LCE\275D\301\017>f\221;>\010\231`>\274\220\026>\016\277R>d\017\226>\n\317\214>\000\361E>\274\227\353\275\006\336\'>,Q\244=\272U\304\276\002s\014>\364\3218\276Nf<\276\250\257F\275O\017\n>\013PR>\341\364\264\275\000\004\n>\277\266\213=\036\000K\276\204\331\037\276\362\355\245\276\247\312\227>\034!1>\"\020\327<U\327\214\276\210\212\210\274\n\3058\275V\3444<R\034\005\276\243\242\033\275\214]\037=\036m7>\244\322\212\276G\257\300>DF$>#\332\302=\227\372\207\276vp9\276\304QH>\007\247\263=\304\177\331=<\273}<\026\356\n\276\240S\014>\320\330^>\014m\370=\203\304\203>])\256>\307\250L\276Eq\260\276\361\324\253=\000\2211<\'\364r\275\347F\371<\344\275e\275\205\216Y\276W\364$\276@\037\240=Z\317%\276\327\330\247>Dl\326\275\212\235K>+\001\\>|V\371=\350\\\334;\336%6\276\300\357\353=\220Y\020=\334\370\226=\332\314\211>_Y\\= \267\321<\202\005\">H9\275=\274\220\323=\342Qo\2763(C\276l\234\314;\267\270\n>\374\340\021>us\206\274jG\222\275.\306\320\275\330YR>\311\337\246>\034\317\202>\360\266\321\275)\211Q>6+\311=\376\242\203\276x\004F>\2102\213>\315\376\204>\337\320\353\274\004\274\000>s\364~>Z\354\022>\342\006\007>\212l{\275dz\317\272-\225\215\275\002\371A\276\224\313\241>\360\360V=X\303C=JY\021>\321\263\256=Q\276}\276\270UW\276\302\237\200\275\025\324\236<\336\252\320\275@\'\017=\204\024\305=\302_C\276\".%\276\016\365\202>\030\224\325\275\244\244\227\276\240\366G>\366P\200><\022\201\276B\336\242>@3j\276Y\225\244\276\034F\254=\027\361\013=\211\323#;$\202~>\340\010\205\276FCv<\250\332\350=\034az\276`\277\355=\024\317\373\275\264St\275@\t\375=\332\352\023>\320\320\333=\356\004|\276\377O\000\276l\023\207\275\010\027\246=H\356\304=\376\267F\276\305\276\320\276H&V>\301\307W\276<\270\322=h\313I<D\010w\276cm\241\276\177\206Y=JIP>\"&\257\275\310\375\241=\370\233\033>\314Sr<\215>\370\275\343#B=\334#\211\276\212\367\035>\246\3613\276(_?=\311\324\250>\250\261<\275\254\217\336=\010\300\r\276\"\226\017< \271\322=\026@Q\276\276\352\274\276\275\303}\276y>n\275\225y&\276!\252\204>\006\234\021\276t\0131\276G\203Q=\200F*\274+`\236\2762bv>\351\0007>+\233\223\276\000>\256\273H\331\003>\030\350\203\276]iW\276Hz/>\t\026\200>\3405(=\341A\212>\312\271<\276\274zg>\340FH>\321\262\300\276\027\1772\276\037?\254>\3105\206=\342\373l\276\326>\004>p\026\314\275\364E?\274\344`\342\275\231r\\\276\227\327 \276\334&\005\276\345\256\340<\306\245\270\276i|\202\276EK\005;\350\004\274\275\340\207Q\276z\343\273\275\322/\357=X\302:\276\226DJ>M\203\004\276=s4\276\034\263=\276\304E\033\276\204/\370=z\010G\276\334\017\245\275\000)r>\204K-\276p\235F>o\223\036=\367+\r\276\022\345\035\276\330[r>\305\334\223<\334\304\207\276\000`\033\276\367?\244>\246\307\256\276 \237K=\0308\377=\2568\255\2753g\230=\007\257\006\276\322]h=(\"\235\276\376AJ\276\260\275\333\275L\316@\275G\252\266\274`\275\005\276\364a\371=y\340 \2766O\203\275\250%\327\274fo\037> T\222\275\264\033\330\273I\034\203\274T\305\034\276\247\016\'\276:\3035>\344z#>\220E\352=\020R\351\275{\2302\275\326\245>>|M\226\275\200\301\227=\374\265x\274u\232J>X\222S\276.Q\227=\303\317L\276\303\300\007=;\'2\275(\315L<4\200*>\332\263V\276\032B\037\276\370\352\377=\266tr\274\357^\026>\276\300\320\275i\r\007\276\254\310p>\376t\240\276\374\231\236;x\325v\276\363\353o\276\231d\006>\370(5>jP\215>\343`\372<?o\321<\342D\257>\332\022`\276fi6>\374\211\022>\034\3732>d\351\352=B\334w>\245g\373\275\246EJ\276\362\212\003<\\>\373\275\366\344u\273@\257\'\274\024\372\337\273]\357e>\240B\260<\212\350g=Qx\252=hnE>\343\020\036>D\351\202>\007\230\200>\300}\344\275H\3020>\006cX\276H\223s>o[C>IgS>n\324\202>J\0022>x\231\"\275h\033\021\276\264$)>\245\014\017>\236o\036>\000\0224\274nX\264\276\347\022\001\276V<n>x<|\275\336\237\200\275\237\357m\275\2759@>\314\017\">\010\214\003>\260\346\337\275{\t\016>\272\007\212>\325\220/\276\234\232\246=u\022\026>\316\016\304=\304\235\211\275\230v\215=h\325\364=:\304\207\276\245\354\206=\0105g>\000\307\024\274\364\265Q>\240\320\240\276@\232\020\276\302\315\013>\014WQ\276\377m\014\276\201\262\212\276\032\302\205=fE\351\275\227\343\251=\026\374\257\276\021\371 \276\343\324\202\275\250k\037\276!\216\243>\010tR\275H5\244\274\300m\243<\2602\312=\220\032\377<\250\264\326=\374\355\025\276\220\376\244=\206\266I>ri\030>H\254\033>qT\"\276n\304{>\000p\026=\3111B\2760\243\212<\270\026\315\275B\234\335\275\202\320(>@%\037<\334t\213=o\273\201>g\233p\276\020\243\252=\230^p>\20051\273\254\344\357\275\274\025/\276\006C\314\275\225\351\200\276\010\003\255=\312\325%>\240(i<r8B>8\367\002\275\250\374\306\275J\264E\276\270\001\r\276\n\304[>t\343\232= \371\272<tk\260\275h\247\357\274r\275\007\276\356\373\022\276{\267P\2760=\364\275F\341@\276\336\261\237\275\332\363\210\275P\206?>p(\231<\2046Q\276\016\357\024>(\005!\275|qk>h,\206=\322YD>\270\305\261\274(\245?>J\312\036\276\202\261N>\200k\205=<\026\217=\232T\334\2758\206;=$\020\026>4\332a>yx\242=8\2707>\377T\264=p>\334\275V\354\013\276\346\347\313\275\340\256\227\275\277\3303\276\n\345\037>\2264\350=\314\246\223=\346`[\276]\010\323\274\367\322\247>i\324\007=:>F> |f=\200\024\225\275nO\350\275\246S\210\275\031z\233\2764\2722\275%&\014>PM\205=\344\322\310=\266\363\205\275\373\212Z\276\341\313\312\274\373\232\236\276\303\266\327=m\364v\276M\031\354=\374Y}\275H\036\316\273S\275\202\276\344\032\'\276\302^\326\275$\226\321\275\264q\263<Y\321\207>,z\367=\006C`\276d\021\312=P\373%=N,x>Zc\233\275\367\335O\275\310\362\234>b\304\256\276\374\272p\276{Ok>|\245\302=\320\216\027>\200\275(\275\256\201\261>\264\325\014\276\"f4\274Ax\312=\214\327!\275|P\001>\204\336\000\276X\226\032=\206\200\"\276j\021^>+\t;>\270M\026=\263\001\342=\000HN\276P\2567=\354<s\275\367\205\255\276\035\030\334>+\237\231<+\322B=ri$\276\232f\016>\200k$<\036\016\277\274^r\201>p\344h\274h\311\212\276 \365I=\250aH>lS)\276\377C!=\246\236\001\276\325\226\223\274\222\347\262\275\300^\223<\300\237\317;|s >Pd\033>\024%o>\023\301.\275\230\005&=\250\017\327\275XP=\276jF)\273n\024\270<\300]\003\276a\256\240\276\352\250C\276\373o\221>\335\225\325>T\331\264\274\374J\210\276m#\205>\354\350\240\276D\274d\276\250!\235\274\223\n\032=\221\340\202\275M\321\224\275\312\316\327\276@T\234;\324\344\265\276\260m\032=\375\232\231>X9-=\240\3765\275\337f`>/\274\320\275 \3202<\235\320\330\276-C\001\276L\336\023>\270\350!>\330s\t\276 \244\004\276\"o/>\376\220|\2768\220\344=\212\004X>\032\352\002>T\262M>X\350)>@|\357=\360\213\250<\345\010\022\276@}\236=\342~g>V\026v>\000\205\031\273\216\247;\276h\201\263=$}c\275Mx\r\276\260\245\205<\2602\337=\260P\032>\\\236\023>\315\013\205>e7p\276\313{4\276\000\200\020\273\200DR\273<\217\n>pU\313\274j\354j>\250\341u\275\207\353{\276nS;\276\244v\035\275\000\017\306:cV0\276\220Vs=\000\353\027=\240o\330<\370\277\031=6iZ>P\034D\274\220\326!\275\000\033\343:`[|<z\217\317\275\000\260\217<Z\256]\276\266\211t\276|&\342\275\003\002G\276\327\'h\276\332\024F\276\207\237?\276\204\240\374=\346\367$>H\201:>8\304\344= \245\347=vS\356\275u/\310\272M\023\200\276a\205\367\275d\250f>\226\021|\276\"\362\021>\274N_=\014\335Z=\344\374\032>d\032\317=\377\265X\276\350\335\322\274\340\022\037=cF\236\275Oc\200\276\332\265\332>$\262r>\214\242\326\275H\332\323\275\330$\033>\030\336\340=\201\365p\276\3707\035\276h\002~\275\336\205c>\000\317L=\200vM\273\021\201\342=\250\336d\275\000 N>\034\2615\2767\251/=T\261\246=\010\241)=h\346!<\373u\213>\010\n\273;\004\344s\275jU\233>\374\024_\2769\347[\275\211>\020>p\022\232=\324\242\306\275\'\235\203>\336\327M>8\204!\276(\266b\275\231\345\217\275K\350e>\351,*>\321<\214>k\220\360\274}Og>\330\300\223\275\334\016V\274\311\2511=\350\333m\276\030yp<\342\"a\276\362\033\317\274\332&\006>\034{\246=&\242s\276&y>>m\301\001\276l?\240=\354\233\372= \261l\275\331\203\203>\010D4\2750\256\323=\372Un\276u\252N\2762z\323\275\364\327\355=\020X\241<\312\273\233\275\370\326\005\276\276\2662\276\366\004\024>\210sM=\310\354\361\274g\312h\276\223]\202\276P\033\266<\034\263\226\275\354\316\354\275\220\355\340<\320\247\243\2758\353\360\275\030+\021\2766{L\276$\0307>\254>\336=\356MK\276r0@\276\022PC>\272\271\331\275\024\\b>r\375P\276\225\'\202>@\337o<0`+>\374\203\031\275\360`\\>\n\036\376\275)\247m\276\352\017{>\326\036\337\275>J\030>\264@\037\275\240\335(\274\330e\207=\375\215|\276\010\000\261\275\202\313s>P\005\r>\374\373\005\276\031\033,\276H\276~\276\354\336.\275\314/\243\275\337\223\000\276\324\365\266=\2125\033>\254>~\275\215Di>.4\\>PY\252\274\302\372\014\276D| >}\327;\276#\371\214\276\250\214\016>\0262\276=R3\211<~\234\001>S\350.\275\234\\\317<\262\037k<&g\r>\200\315\275\273\311\230\257\276\224%j;\320\371z>-\231+\276l4k\276\237\376\262<\000\021\241\2750\002\277\275L\036:>\010\366\322=\364\203\231\276`fW\275\030\240\024\276\353\t\223\274\357\260a\2768}\243\275\274Kl\275\330\325!\274!\263T\276<\351\265\273(`\312=\230(\002=\n\010\232>\214:\323=\313\322\245>\242H\351=Vx\330:C5q>S\321\234\275\016\\\222\275\344\002\005\276>\244I>\265\300\t\276\246c|>\236Uq\272\313P\206\276[\213\221>\000\371K>\024\337Y\276\\+A>\300z\370=\2218\223>\264\373\000>N\020\212\275\022\014T>\211\367B\276\370\005\342\274.\236,>)\203\204>\276\230W>PRf\275\204\010D>\000\236M;\020\251\">h\322\037>\351\025[\276\205&\202>\300G^\275\n\021\352\275\200\272%\276\301\005\203>\032\232\274\275\2125\325\275h\260\252\275B\3019\276\3367\364\275\020\332!>\340\377\204\276\356\303z>8#%\275Thk\276\302\365X\276m\200,\276&\320p>\304\265\235=\230 2=>\233S>\253V<\276\270,\204=\300\020t\2768&)\276\340\267v<\000uM;RXR>\024E:>}\370n\276\010\311j=\237s\203\276\210\215T=0\004U>\000yr=?\235p\276\204 I\276e:A\276Hr\016\275H\0259\276\2746\010>(\377\206\275\n\311)\276F&;>;F\203\276K\357\202\276\322\035\360\275\364\\\261=\334[\212\275\333-o\276\004\371\301=<\007\203\276\337\265 \276`u$<\310\372F\276B\353c>T\014&\275\010\372\340=t\242\325\275\344\233L>\032\323\225=B\3273>3i\246\276\243>\270\276\314\244N=.\244\272>V!a>\022U\253>\224.\031\276\242\341\245>\260i\014=\320Q\212\275y\033\000\276\300\334W\276\004\325!\275\371.p\276\257\366\270\276\332\030\007<8\356X\276J7\313\275\276\200y>\240TM\276z7T>\224\241+>\256~m>*\020\223\275\224\000\343=\3032T>\227u+>@\'I>@\303\220\275\352V\301=\204Si\275\351\335\266=\271\022\212>4+\313=d;\231\274WC\221>\016l\302=\007e\n\276\355\213\022>JT\250>\357\376:\276\357h\275>4\314\223=E\302\217>sE\023\275T\203\367=\250\303\250\275\350\313\023\276\016!{\276\371*n\276\021G\000\276n\224)\2769\216B\276;\0131\275\t\261\244\275\263\200\357\275(E\017>\340H\023\275\016\253\220\2768\036\331=\320\250\213=r\030v\274\362\003\355\275\266\016\327\275J\260\361<\350\343$<\035\325\032>R\245~\276{\353-\276l\031~\2753\262\222>\241\031\270>\"\244N>\354\267\343=eK\200\276\346:=>\010\200j=\206f\"\276=\311\236<@\216\320=8\316\372=\027+j\276\031\ra\276#\326\007\276\353\261\233\276\314W\037>\250\325n>(m\300\275\320\002\340<8\300\r\276\232\000W>\270\330v\275\210\216?\276\332\314X\274)\304s\276p\213>\275nIc>oa\007\276O\210\274=;\202]\276\335%D\276\026\013C>\234\343\315=Q\352\001=\352<\333\275\014\244\225=\232G\225=\272\275\030\276\310\325\037=^wg\2760\036:>\213\337 =\371\242M\276\353\363\241>\030\230\017>\323\036\200<\274[\264=,\000\320\275\304=\312\273\301#\304\276\304\006\206=\225\332\202\276\245\357x\276T.+>\340\311H<\000\242g\276\020\272\325<\310\267\366\274`\025\377=\310\305\360=X\207W=\310#Q>\014j\035\275 m\203=8\373:\276\200\346A>\335\020\205>>,u>\334\277*>\026/\236\275,\3779\275\344\020+\275\243C[\276P\002\375<\256\203\257\275\336\"\372\275d\354\364=`;\312=\023\326\007\276\330\266f\275\246&K>\234\351\274=\240\033\215<\230\201->\300\342\016<\230\"\363=\016\251s>\220\237\232=\316\303C>\322p\">\014\264\270=P\0239\2744\360S>g\033\030\276\\)4>OET\276@\361\320\275\2162>\276\010;\024>\326_2\276\300K2= \330E\276j3[\276\300\220\347=\324\250T>\230\215\014=^\371 \276@\202 \276L\343\343\275do\032\275F\242?>0\243\374\275\204T->\nOt>\314\312]>\020\025a>s=\024\276]^M\276\372\340p>q\013\201>\274Q\031>`h;=\212[\200>0\342f>\031\300M\276\230\263\014>\260\304\250\275\354}\250=\263\002\273<Zj\372\275|\230\033>\244\351\361=\232a\200\276\352\024\212\276\264\t\343\274\326^\030\276\230-\037=\200\206b>\244\315\223\275\362$w><\336+>\226\366J\276\274\225\026>T\025\201\276(\323\233=\352\021\340=\371.\204\276t\271-\276\317\225\277<\016\t0\276g2r\276`\206\211\276Pc\020\275\3162&>p\335c\275\352{N>\361\244\'\276q\353(>\320\270@\276\312v\220>\026W}>\020\333\210\273F\253u>6\227\270<Mc\313\276c\325+\276\266s\013>\202\344\000>(\254\212\276\270<<=\016YO=\2443\370=\303bZ\276@\251\376\275\307w\220>bv\217\274\240\250\214=\t4\237\275&\375\201\276\330\353\202\275"
      }
    }
  }
}
node {
  name: "decoder/dense_7/BiasAdd/ReadVariableOp/resource"
  op: "Const"
  attr {
    key: "dtype"
    value {
      type: DT_FLOAT
    }
  }
  attr {
    key: "value"
    value {
      tensor {
        dtype: DT_FLOAT
        tensor_shape {
          dim {
            size: 64
          }
        }
        tensor_content: "\271_\207=.\\\017\275\000\000\000\000PI\035;\017\316\252=\000\000\000\000GM\204=\000\307\272<\242\024.\275\034\240\211<\365\245\033\275;\033/>n\252q=\005\267\321<\010\327\243;\000\000\000\000\177\250\306=\244\233\304;\326\221m=\000\000\000\000\010\327\243\273f\356k\275\000\000\000\000\016\243\022=\013\271\215=\000\000\000\000\243\010\254=\000\000\000\000\337\205\311\274\274t\223\273\000\000\000\000b\2424=@Y\206<\373\256\266\275\227\237<\276\226\225\024\276\366\245\033=\356\351\025=\\)\313;\213\235\200\275gn4\276\336\2252<\216\351\267\275\270T\301<\016\243\022=P\031\342\274\344\355\353\274\036\267Q9\344\020\030\276:\233f=\203\030\225=\276\274\343\274\2774\357<\030\267Q\273{\312\303=n<=\275wJ\352<~\"}=T)\313;\242{r<;\352\225=\227h\"\276\000\000\000\000\2663\"="
      }
    }
  }
}
node {
  name: "decoder/dense_8/MatMul/ReadVariableOp/resource"
  op: "Const"
  attr {
    key: "dtype"
    value {
      type: DT_FLOAT
    }
  }
  attr {
    key: "value"
    value {
      tensor {
        dtype: DT_FLOAT
        tensor_shape {
          dim {
            size: 64
          }
          dim {
            size: 128
          }
        }
        tensor_content: "C\270\307\275\201\330\251\275\225f\304\275!#\037>\260$y\274N/\234=\032\003;>\024\357\356=\330$\301\275\220`\372=EH\203\275\322\321)\275\000\013\213=\024\301\354\275\240M\002\276i0\334\275\355U\231\275\024\030\241=X(\361\274NV\346=\014\253S=\014\277\355=\306\363\001>\017\331}\275@\313\361=\0308\024\275\366\323\333\275\264I\222=}\320J\276\212\033m\275\001\331\302\275\005\262V\276\255g2\276\034]7=#\'.> \1774<> K>\026\236\311\275\264\243\225\275(\035c>x\234\265\275\366e\020=\364\016{=z\314U\275\271r\024\276\342\353\r>\010\276\005\276\307G\363\275\004~N=\224\3369=\251\007,>\232\2330\276\356a\307=\000\216\347=\240\007N<&\t\301=}H\336\275\340\331\247\274\340\034K\275L\033\005\275T\347\221=\216P\305=\344\274J=&\227\004>\273\1773\276D+\234\275\271K\350\275\324\261\324=\346\207\031\275\302x\034\275\2629\343=\222\3674=6\211\007\276\235\3719;\024\216g=\302\n\007=pDx=\211\242y=\342\352Q<\250i\003>\301\346\035\276\377O\270\275\006n\302=~M\322=\325\321\036>\342\n\241=H%I=\010*(\275`\023^\274X\226:=8\374\003=\0023\343=,:\007\275\276x\004\276\320\021\013\275@\271v<\374\311\232=\300\332\n=%\014\034\276Po\377=\016}\030>t\307\223=\227\205\006\276\252\305\201=\020!4>\323\337\016>\016BV>\275\324\324\274X.`\275\247fY=\300\010\366\275z\'z=\202\023`\275@\321\"=dnO\275{\254 >Cw\010\276\030\377\265<6\'\353=t\213[==_\032>\270\303$=@\'o<\016g\343=G\373\246\275\367L(\276\332\301\261=Z\026\350=s\223\365\275h\033q\274\326sX\274O\\<\275s\351\237\276%+j\276\350\256\210\275~\031C\276\010\202\263=\227\025\211\275&\233\302=7\261\243\274\275j\372\275\327\214c>\206\026\217\275\352\244\006\276\376\277\272\276\237\373V>\330WJ\276\367\274 \275\346\006\030\276\376.\020\276%\372\022\276\271\037k>\366+\301=t\222\220=L\234;\276\270\010\006\276*\036\334=6\312\366=:\372\233=k\027\334=<\255\177=\373\321G=\2573\230\275ZT\246=\376\227\227=\217\261\341\275\314\273(\275\265\260\303=\226\036\031\276E\010\024>v}\370\274\326wD=u\024\014>\367J\025\276/\nJ\276\333\022O\276\213\002\213=\371A\237\276\252\305\306\275p\262r\2760\256S<E\205)>\330\261U=\254U\351\273\325\271Y>\226\254\354=\261\207\314\275K\335\203\275\t\017\034>g\226\324\275:\r=\276xYD\275\"\306\311=\031\221\216\2769\017\021\276Vr;\276\334\252\037\274\345\263\231\275C{\224\276&\360,\276\275\201\013\276\013\310q\276X\325\237\274Vo\000\275\217\376r\275\023>\022\276\347\237=>\341\334\244\274\016;\350=\2124\362=\220s\272\274$;\274\275B\232-\276\271\372\211\275\376\363\203\275h\260\332\275\024\0002\275\355\307\031>\352\205\353\275\303B)>\226q\020\276@\251<=\305\001 >B\225\261=B\235\010\276\264\260*\2764b\000;W\274\017=\010js<.Lm\276/3\306\275\004-\027\276teB\2759\300\224\276\347(\024\276\3178\003>\234iI\275\032\037e\274t\007\360\274\"\313\371=\341\357\324\275\264%g=\360\036\033\275\376\300\317\275\250e\236\274\020K\336\274m\017\260\275\006\307\301=\000\335f\275\2208\363<\354\264\004\276 !u=\033A\243\275@\274(<\256G\323\275\220\232\014\274\334\362\036=T\236\343\275\330\215\375<\217\\%>J\317m\275\022~\024\276\360\312-=/\341\002\276\211\2143>\360$p<Ri\024\276\2206\220<\315/\026>\366(\314=-+\354\275#o\310\275\250D\277<\275\220\002>b\177\037\276]\006\036\276\207\034\021\276V~\275=\254o5\275]\254\016>\310\320\233<D\tn\275zQ\237=dK(\275\3001\340;%h\010>%\\\t\276h\014\030\276\357\003\343\275N\350\233=,~1\276\000\310a9b)\306=[G\035\276\252\"\325=<f\214=\000\262f=\312\232\217\275D\377t=X\3568\275+e1>\027\207\013>(\210\245\275\000V-\275\320[\n=\271\223\002>\213\375(\276\205\270+>\202^\271= \353\341\275\242\275l\275\007\004\247\275\360\026\355\274=\354\203\275\300Y\216;8=K=\202D\270=b\033\332\275\301\214#>\365\177\033>6\207\250=\200X\370\275\0372\315\275\247\227\032>\270\000\322\274\273#)>\322>\312=\3404\032\276\020\216E\274 ~\236\273\303\353\026>\322\214\351=\300D\274;\301W\226\275\025[$>\000\357\213=\244\332S=\223}\'>\246\302\345={\323\341\275\020;e=\372%\245=CP\025>\240\266m\275=\340\333\275\352/\301=H\261\332\274\343\206\247\275Q\230\275\275N\263\361=\r\365#\276\230\363\310<\307\233\027\2767\261\375\275xk\020\275\304G=\275\325P\r\276\327s\024>T2<=\336\363\336\275`_\270\275\0331\363\275.u\343=3\340\031\276\202\n\013\276\372\213\321=BS\316=\263\370\371\275&=\247=\233N\030>\002\214\203=T\241\364\275\034?\030=\357E\026>`\222M=@Bx\274\266\337\226=\005\300)>\300\201\225\274\240\010\274\273K\2543>\310a\031\276\276\315\271=\212\244\237={#\027\276\037\245\035\275\2775f\276\017\247O\276T\036\025\276\252\203\217\276X\252;\276\353ds>*\230\234<\354\2372\275\377\205.>\272\220\010\276C,~\276t,\336\275\352\371\031<\001M\202\276\214pk\276\004+\273\275\233-\360\275\026F\310=\357d\357\275\237\351q=DtW=\\\355\034\276\361\251\006>y\200$> \3307\276\353\030\256\275\327\270M\276\301\006\343\275\210\267}>W\2744\275\214\333C\275\230\316.\276 \237L=\340?\263<\031M\010>\366\t\260\2763\305\007\276\366}\002=\365\206\256\2761[]>\275\377\000=\351\002\"\276\306\217\301=\352x\212\275\312\275\265\276\214E\n\276\327R;\272j\003\214\276^\3073\276( 2\276\320\201==,r:=\300\347N\274T\250\033=`\257V\276\2241\217;\031u-\276P\357\217\276\335jE\276\000W\032\276@\315\214\276^\024\233<\372\225\332=\244\207\021\276Nr \276\357\215\023>\223\277\266=\264~O<\262\014\217<6-\261=p\333\327\274]\325\020>bo\312=\332\\\375=\307\277h\275\247\376 >\037\215 >\017\322\312\274t\3213\275\270\234\004\275 \267\230< `7\274V\006\257=\244\260G=\373\001\033\276wy\306\275\262\277\264=\226\352\000\276\240\273\357;\005\210\013>\0045\201=ZO\347\275F\201b\275dp0=\255\024\001>\r\357\200\275\345t\020>\355A\301<\370\213\304\275\007\204\177\275\323\227\243\275h\331\354<\371CC>\215\323\324\275\366F\253<&X\257=\202b\215=\271\347\023>\365\370\305\272\014\022W=:\322\010\276X\212\204<s\324\222\275\026\000\220=H\r\244<Yf4\276\370mH\275\360\354}=\022/\010\2761e\003\276$\273\037\275\250\265\344\275pr\005\274z\246+\276Nz\266=\221\327\005\276|\030:\275\354\352K\276o\n\336\275,\013\263<8\037\310<K\024l\276\342\032\n\274(\324n\276\\\"*=:\257\230\275/B\204\276\210\322i>sV\214\275\237\374\030>\036\233\274=~1\263\276?!\213\276\273QT>\255\260\247\276\006g\241=\237\352\304\275:\311\335=b\331p\275\253\300/=\027\303\267<i\354\010\276\034\300\033\275\202:\007\276a\370\227<\021\245\252\274j\365\206\274 \006\314<p\023\253<\330d\304=\037\021->\014~J=\214\024h\276{\033D>c\321\210>\367\306\243\274\362\035\310=\357w\222>\310\272\222\273\tq\024>\023\365\032>\017\004\332\275\274\255_=\356\006\373\275-y >\013R\233\275\331\252\352\275\271\013\013>\250\221\034\2762\306#\274\020\240\017\276\346\200\224=\364|\367\275%\346$\276\244\354\034\275\300\203;\276\3460\224\275\206=\242\276\010.\253\276 \205\207\275\230\245\234\2747\260\303=_\2135\276Nn*<\177\357\357\275\250\245\220\275\213\212a\275Oum>k\375]>\267\013m\276\371KK>\330#z\276\023V\207\276k=O>\350\225\014\276\302t:>\200\224\220\273\220n\331\275\342R\224=y_\320\275\214\260\n\276\300\361\236\273\202s\240=\3301\254<\300\314\211\274\344*\271\275\3603\260\274\315\325\246\275\366p\230=\255\277->\206{\260=Y\271\213\275\247\216\221>8\360\271<Z\214K\276d\240t\274\320-g\275\017\2230>\333\302\300\275\r\335\214<s\310R>@:);e\331\200>\341\226\367\274\364E)=1\304\n\276\200\017\262\275gr;>l\251s\275\336\264\347=\240\303\360;\364\277\224\275\3701\022=\217\337\227\275\335(\315\275WU\002\276)f\022\276\310\231\n\275\240w~\274\010\274N=H\317\213\274pP\305\274\332\215\304\275o!\006>\\r\222\275\334\337\220\2753\371\310\275\300\217\001<fG\353\275\325\3631>;J!>\221\010\000>\376\316\355=\206\263\364=\304\030\207=\200\375\014;\036\373\367=\342\342\242\275\353\000 >@\223\202<\212u\202=\327X\341\275\224~\'\2766\372\300=\336o(\276\247!\002>\314L\257\275\020\345\374\275|\366j=\002\242\226=\220\350\325\274\014\354o=\024=\026\275\240\005r=d\214\001\276?\206\034>\200\177\255;>H\325=\256{\306=\003\314\023\276\220\252\"\274\222\234\303\275\247\'\027>\256\236\261=\321s\005>-`/\276@\3309;\257>\007>\200\303L=\334\275g=0\267\200\274t`\032\276_\367\220\275P{u=0eF<]\335\001>Pg\250<\260\346\254\274\236U\252=\241n\263\275\007o >\240\031\240\273\307\303\030>\235\376\257\275~\306\313=\335=*\276\370z\256<\323\271\211\275\340F\244\273H\020\216<\016\247\217\275\340\002\377\273\365\265\030\276<\360\022\276\224\034\030\276\000\200b9\376\321\006\276\355K,>\360\215\317\274\341\333!>\360\234W<\0066\340\275T\024\003\275\330\234%=&\334\374=_\366\025>\366k\275=p\244\235<\340\354\237<\370@d=,\203.\276\374\272\036\276\036\322\275=^\016\311\275(H\223<\017\033\351\275\202\3553\276\020o\367<p+Q<\310\357\242<!]\023\276\240C\256<\220F\256\274\226\254\246=\010\237\014=0\027\220<,\033#\276a\376\224\275\237\263\361\275\025\360\001\276\260\340\022\276\2276\257\275x4\243\274\267h\032\276\370\254\221=2]\375=\352\255\314=\250E&\275\233\276%>\274\317!=W\243\000>\030\007\365<\200\242\272\273X\2630\276\363\306\020>`k\205<\252\332\324=\230\366\355\275x\217H=w\377$\276\312\334\307\275\340\200\260\273p\177}<{\264\266\276)\257\270\275c8o\276.s(\276u\036\340\274\336D!=\224\033S\275\267\263I;\004\251!>\305N\003>_}!\275\270\367\206>\026!b\276Or\331\275)\377:\276\344\2426\276T\272j=X\327\276\276\202\350\022\275<\343\262\276\277\265\217>\353\274*=\r,\000\276\345\025\004>\200\335\024;\023\3323\276|\310\245\276\006\334Y\276>GT\276>%\025\276\324lm=v\273\311=6\272\376\275q\216\004\276\215|\267\275\355EZ>\027V\377\275\232A\325\275\254\315\217\273\023\026\215\275\332Z\366\275\252FQ=h\217\312\275\330>\334\274m|\025>0\355r<;\331P\276\222k\252=\016\204\214\276\336\365.\275\273\316\313\275-\315\323\274\237\200\010\275\301\025\022>\315\374\207\275m\017F\276\216\213u\274V\036\216\276\004\262\216\276S\226y\275\354\320\201\276S\350\365\275<\367\357\275l\3746=\231\257n\276\322\216\031\276\030\303\214\275\n\274\251\275?\300 >\352X\327<#\2605>\035*P=\006\0015=Q\r2>\242\214\256=8Q\215\276\364\335\353\275\330\346\300;\213\365\255\275Z%\233=\235\270\004\276\002(\340=\261\323\013>\016;\341\275h\t\264\274\336D\273=\0047v= \263\004\275p\026\277\274G\303\025>\010s\020=\371\".\276fA\325=\010\241\375<\270\227\\=P\251\217:Y\321\240\276\"\031\215\275\247\373W\276\210w\365\273\345\225k\276\276\207b\276\372\221\332\275\205k=>\3247\271\276)MV\273]\343\026>\025Q\260>\347[\252\275\020\324\326;\300\301\224;\2134\375\275`\342\n<\027\251\035>\000\000\206=\315U!>M\013\022>\360J\001\274\357\351\027\276\030J\304\274 F7=?h\006\276\332\2364\276.\2754\276\030=%\276\302\227\265=\266\004k\275P&e\2743o\254\276q\345\355\275f\341$\276\370z\240\276\367!\354\275\226L\000<r\215\317=\364O\212\2752\303\337=(E\240\273\004\241\356<\320\245\203\2762y\257=\364P\215\275\226t\030\276\374\337>\2760<\236\275X\223\254\276J\271\262=;\330\276\275\314.\374\275\223m\262\275\265\251c>\307\261\204\274\312\222\340=\302\344\312\275\207\233h\275\367\310P>X \016>\026\314\005\275\344K\273:\024\230`=\241\204c\276\360\372\310\274\340\267,\275\205\376\013>;\314\251\27605\'=Ocg\276U\374\254\276S\024n>\300n\210\272J\375\202=\247S\031\276\002O\'\276;\325\227\275$k\331\275\024\2108\275\\gP\276 \350*>_\006z\275+eE\276\0346J\275\213\0331\276\'\267u=e\354F>\330e\007\274\302\346<\276u\327l\276\016N\372=\244\312\025\276f\342\'\276\326\303\243=\030\311\345\275:\330\351\274\303\304z\276\210U\207\273\335M#\276\005\340\236\275\201\317\003\276\332\207\330\275\313;D\276\014\'N\276 \301+\276.%\374=@\265u\276\334\0042<J\016\303=\006V\003>\360Oa\274\212%\007\2760S\010\276x\215\223\274\347e!>\354\377\014\276\366\352,\276\370\355\316<RD\272=\200\315[\273(\320\365<5\023\033\276\020\000&<\3401I=D\3452=s9+>\337h\">\255\302\201\276|\365C\275\334\367:\275\032\251\264=\227\327\250\276\007\3441\276\006\267#\276\254@\031=\321\265\226\275]0\034=\262\234\321=\265}\212\276\250\r\003\275\270\336\177=\tl2\276\300_X\274\032\333\263=s\264\243\275\037e(>n\325\371=\330\213\253\274a\326\313\275|\251/\276\353\307\014>\014\243\376\275\026\342\313=\311L->\230\211\021\275~E1\276\352y\301\275\320\376S<P\021Q\275\024$S=\314l\221=\373\253\021>,\240\031\275\026V\230=\000F\007>|g,=\014\337\033\2750\241\027\274\312s\023\274\024\334\027\276 8\354<.\310\227=6\350\034>vk\227=\214\016\205\275.,Z<\367\213*\276\335\316c\275@5N\274\032w\231=\030\205\375\274\334\006\237=\\\310\022=\320\214%<\272\".=(\221\310\27400\001=\0320@=\004zT=\340G\220\275\274\255\370=\363+\021>\262\270\352\275\001N\036>@0}\274\000\233\251\274\325Z*\276\222j\324=N\023\200\275Y\303\221=(\357\343=Wa*\276d\213R=\210\366F=\320U\266<\310\020\314<4\213\361=L\002l=\356\223\362\275@\322\016\276c\353\034>\364\236\226\275\002\262\220=4\003\312\275R\324\351\275`\307\211\275\354\204I\275\333\300.\276z\352R>\210\200K\275\272\032\233=\260\223\003>\231\353U\276\350\240O\275\202\263i\275Wl-\276H\177\001\275\tq\021>\320\363H<h\226\273\275\236C1>\006\341\346=\302CI\276\200E\272<J\365\007\276\354\222:\276]\204I=AF\003>\006=\006\276;F\030>\020\223V\275\277\362\341\275\310I\274\274\336y\321=\267$\027>\376\000\332=\022\350\325\275@\336J\273L\3329=\211\n\031>\343G\216\275\260EY=R\016\373=Q\303\"\276|\026\021>\243\241/>l\327\327=\206\025\030>\034\346\375=.-\210==\310\317\275\270\200\373\274s\3053\276\334\351\336\275#\371\025\276\354\234\034>X:%\276p`o=\335Z\364\275\224\237\004\276\336j\010\276d\306Z=\300\r\253;\250\t\207<\200f]\274 \274y=\016%\227=\300\037\234\275\220\252>=@@\004<LW\351\275}?\353\275\324\312X=\033E\346\275(\177\t=\307\242\026>\0106I=%\357\255\276\225\241\004\276\375\002\254\276\250r7\276\014\244\023\276H\355\276\274\026!\256=@\220n>\362\275\221=\207\034\035>\202\250u<\367D\237\276\t\374\342\275\242D`\276\266Vd>\337G\347\275[\373\035\276\203\245h\2768MN;\201\333\205\276\250\017\264\273\025\210W>BK\206\275\302\034\345\275D\267\031\276t\205\215<2\327k\276\022\225\260\275\255\221\376\275\3521\032\276O!\033\276\305\253\025\276\366\247\331=*\353\274=H\276n=k\240\272=\317%\035\275\254\333\351\274X\314i\275d\320\007=\233\225\206\275&\247`>C{\023>\276\263\342=J\356j>\375\342\254=\266\315K\274-\254\020\276#\314\364\275\n\241\367\275W\313\210\276\000ou=\355\330!\276\221\273\001\276\303\346\007\275\257\354\220\276\000\300\221\275\342w^\275\212-\351\274p\017=\276E\000\230\276\373\342\203\275\230\032z\276\257\203\022\272\217\237\337\275\221V\236\276\240\013\221>\035\001N=\372\"\266=\250\244\010\274rS\265\275N\034H\274\263N\263=\014E\240\275\363\267_;H)\271\276\347<4>M=\031\276\030\266Q>+\324\345\275K\0262>\376\036\335\275\204\252\036=\350f\024\275!,\033>\227O\034>\346\264\304= \002\232;\314R\213=4{\000\275\256=\257=\260_\206<\226w\272\2754:%=\230\213\346\275\000\231]<}\234\n\276\376\315\r\273\336\214\035\276-~\020>\004\272\252\276\247Z\264\276\003[%\276&_\227=\311\201\355\275\310S=\275\310pa=\312a\341=\032\207\373=J\325\202=\350\260\212\275\270\\|\2757~\255\275\030o\020\275\363\027\255\275\344\372t\275P\213\021\275F\235\205\275C\245\255\275\312%\352=\367\356\201\275D\3254=X\3235\275w\322,\276\200b?\275B\237\254\275\276-\223\275\340\202\265\273\374G\240\276\217\230\223\276\360\202\236\276\357\310\031\275\320\005\270\276|\262v\275_\3600>\306\003\357\275;*\t>\010:5\275Q\322\200>]~;\276~\t\010\276\363\370T>yu\247\276oi\343\275\031\010\000>.\230\262\276eD\357<\307\255\353\275\211|\224\275lA2\275,\205\016\276Y\026B>\023\'\222\275$>\035=\255v?\276\204\267w=Z\2337\276\264\315\261=\325u,\276\245:3>\270\317\264<\211\332\016\276\344\313\017\276\013\2161>\357\277\365\275l\365p=k\262E=W\306\245\275\002\342\220\274O\316$\276\004\270r<1\031\000\276\330\207\250=\317\013\203\276\330X\274\275\373\216\305=\021WZ\276\206K\016>p!\277\276\274\324(\276\347+\035>\330\366\271<\234j\361\275\334\372&={\022+>\215\210\243\276\026\210\224\276\321h\016\272\026\224\243\276\337\340\273\276\370\224\260\275p\021S<\2140\251\276jU\263\276dr\231<\262\030W>U#!>3\004\224\275(\242\025\276b6\334\275\253\3636>\346Mg\275\026=\235=\253\227r\276\374\271F\275m\372\003>&\n\246\274U\307\037\276\226\325\255=x\rv=\000\010\315<\324C\215=\225\031\026>\n\313\276=\220$\014\276`?\t\276\240\212\327<\350[\320<\000R\211\274|\0162\275\342\252\335=>}\022\276\346(\360=\214\206~\275\340*n\276\004\035\274\272\260\"2=\342\337\323=J$u\276\373\256\177\276\3538u\276\246\026\330=+lF\276\022\022\262\275F\004@;\226\335\264=\362\367\356\275\016X\347\275D\322\267\275\200\031\377:\033\245\036>\226\327\222=(\360J\275<\000P=\010\330&\275f\002\266=l\332\303\275\000[\364\272;\275&>\301\314\033\276\n\357\302=<\356\n=\307C#>8)\272<\314\306\014\275TF1=\327\262x\275\224\224\207=\246s\265\276p5\263\276\363\312\241\276\351\027j>\232m\204\276C\007\177\276d\225\230\275\036!\351=\220{C\274G\337\202\275\250O\333\275ZC\373=\341\353<\276\026\037\271\276\226\232\021\276VY\\\276\030\313\201>\245[$\276\244w\352\273Mxc>(\220r\276Sd`\273K\020\'\276\206\376\363=\272\000\216\276\217\037{\275P-d\275\246\225\330\275r\311\334\275\327\224!>z\355\204\276\024\214k=TJ5\275p\355\253\273X\0223\276\322M\201\276\342<J\276\037\335 >J\213\216\275\013\311\214=\245\324\003\275\017n\361\275\310of\275\224w2\276\3229\273=\326\327\270\271OAN\276@L\276=\342\251W\276@\371\330<DQ\231\276J\366\366=Xd\233\2733d0>c\340\200\275\260\036\027\275\177P\'\275\362W\323=}\341\252\276\240]\243\276*D\007>r\270\254\274\010\0239\2767\302\326\275m\0373\276v\223|>\334\213\353\275\314\\\252\273\252\260\242<\007\007\222\2756P\347\275\t\014\033\276\005A \276\373\236\245\276j^\353=\236\254\256<h(\007\2760.\327\274?:\026\276\321\222)>0\372:<\350\206\374\275K*\013\276+|\301\275\320\214+=\362/\302=\351\212\352\275+u\263\275\033\340\375\275\352:\264\275\252\300\021\276\010\370\307\275\202\362!\276\336\212\357=/\351\243\276I-K>\322\371v\275qX\255\275\243Z\305=\205V\\\276\300\004\275\275X\214\317;\236\177\260\276\355yO=\324%\314\275\312r\342=\177:z=\306\273\336=\204\274/=P\260\211<\210\360p=#\\\303\275\200\316\267\274\374B\331\275`^-\2765\307\260\275\263L\023\276\022\265\352=\372o\246=Z\233\304\275\001=\022>\371\340\037>\2748\263\275.\031\251=OU\r>\224e\002=\200\204\320<\023\315^\275&\326\026\276\201P\224\275Y\261G\276\36026\275\323\354C=6\324_>\205OJ>[\213\022>k]{\275\023\366\373<f\\\244\276@\356\373\275\205T5>\2413\244>7\335\n\275\324\307\266\276\270\250\031\275A2\242\276\267`\252=E$\016>\202\356\367<\320\320\334\275\024\355\234\275.\345\271<\035\224e>\304\362\r=wv\262\276\034\241\">\237Q\267\274\262\212\207\275\007\322K>e\251\001>\325\335\234\275\021\353j>\365\343\262\276\016}v<$\210\n>\264\2741\276&\217\370\275\330\273R>\023\332^\275\252G\260\2750!\253\274\323\377\216\275\326`\020\276#\315\277\274\026\234\262>\310\312X\275\342\233\377=lA\366<\336\013B\2767j\020>A\325\225\275\013\'Q\276\372!\301=\300W\214;\034:\271\276#\337\231\275*\316\206\276\361?^\276[\002\247\276\n`\350\275\241G\027>\002X\202\276\231L\356=\017\336\377\274x\321\\<{\376\254\275\3475#>\022\022\210=\254\273\205<\250\006\010\275\240\323c\275\344/\220\276S\377\307\274\000\354\271\273\243\032\r\276*=\240\275\246\r\364=n\343\177\275\373\031.>0\357\337<_\3073>d\024\361\275\236\232\357\275q\246/>\361\337\r>\020\357m\275S\333\021\276v\210\342=\245^\301\275\322\316\375=e\240&>\026\374\363=\004\225L\274v\263\247=\362B\333\275x\245\273\273\2015r\276\367c\254\276\000\220L\274roL=\372>\221\276\275\"\270\275n\326\304=\t\227->\204\373 =\013l\271\274\201\224;>rH\314=*9\361=\244\311f\275\322\245\263=0##=\000 `\270h\2625\275x5\030=\374z*=\260\332u= \340\371\275k\250\016>\240Vo=\222\001s\275n\326\361=Q\265\'>)\222\236\275\211\014\004\276\374lZ\275\367?\207\275\370\342\036\276\245\034\223\276\265Nf=o\305|\275\340\007\306=\354A]=\202\343\342\275\2640\311\275\316\353\265\276\232\005\327\275n\227\327\275\'\2662\275\264|&\276dP\030<\257\344\n\275\263E=>\241\320\227\276\234\300\341=\334~\245=\317\373,\276L\227\037=\224\'D=$u\336=\351\377)\276\203\340\032\276ds\014=,\000\254\275>K\334=8]t<\372U\300=\237\217\034>\010\373\362<\360\"\243\274G\270\205\275w\255H\276\213\340X\275\252\264\323\275l\006X=6y6\276W\322S>\250\363\031\276\354pB=\202\345\037>\3330S\276\321\307!>d\304;\276\314)\260=\225|\017\276\244\302\234\275\344\016n\276\227)\035>\307\240\233\274A\205T;0\005E=\237\217\351\275_=\263\275`\021\362\274fl\250\2764\n\232\276,\354\207=\302$\321=\306\230\205>\315)w>V\273\321=\204\234\320=\377\277\302\275\316\3048\276\2004\302\275\350\220\255;VE\224\276\316\222\217> G\231\276\231&W\2767\222\231><\321\267\273\240\347\000\274B.\205\275\273C\025>\030\262\225=,\005t=\360\304I<\312w\t\276\270`\273<@\237~\274\322l\214\275H\321\346<*W\303=G\347\r>\337\200\005>G\031\034>P\204\220=\374Uv=\307T\'>\313w|\275\323n>\276\004\024\355\275W\310+>\026\020\361=\362\261X\276\307\354^\276\272\220\006>\037.\251\276\000Dp=\270\275%\276\316\223\212>5nD\276\005<\240\276\373\364}=\230\024\273\274\232\260\227\275\356\226]\275\026+\252=\312:\242\275Bh\250=\000\256\2079\342\016\323=\300\033\237\274\352,\242\2757\275\023>\177\014+>\023L%\276\340\2355<\321R-\276\260\331,=\0160\240=-\357\371\275\244@\212=`jg\276\316\317\022\276\277YQ\276\325N\264\274\242p\216\275|\200\316=H[\035\276\023\260\255\275\211\t\013\276w\261\362\275\211\022X>`\3675<\364\305\r\276o\205[\2750\232\214=o\265N\275\233\344\341\275\316X\236\276?k\301\275\004\243$=\013\t8>\334s/<Py\232\2744J\260\275\177\004\025\276\214Z\227\275\035\332\212>Sb\316<#\245\025>\222\022\305=\037`\321\275\210\321\026=0\227z\274\035Q\037\276\201\347\271=7\250v=g\000\016\276\364\337K\275mc\230>h\272\024=\027m\021>\237\230\323\275$:\021\275\231AO\276\214\262\010\276\331n\205\276u\351\233\276\014R\376\275Zwf\275\310\037\003\276!\007\254\274R0\214\275`\227\221=\246\341!>\0077\263\276\215C->\037\353.\275\037\202\341=\025\200;\276\017\360k\275\300$\177>z^\202\2757\333D\276\253\013\010\276\3038\210\275p\270\033\2762-\300=\204\306\025\276\322\023\336<\210\264\035\276\364=\231\275\"\375\225=\023i]>\267\024\222\275\224n`=\036\342\300=\020\026E>\211\262\007>^\255\236=(Q\236<\3623)\276&\301\330=\000\376~\273\032\257\014\276\300\240\263\274\232&\255=9S#\276\204Z!\2762\036\352=!& \276\236\373}\275u\r\025>\226\037\304\275w\300\233\274\3711\216\275_\013\031\276&o\216>u\301\037>\201B\250>\212\t\224\276\213\231N\276fx\030\276pt\240<\332\010\221>\240<6=\307\266\324\275\373\234\273\275\006t\304=C\256H>\307P3>@yN\275\246\3554\276\223\246\243\275t\213\360\275\022\215\357=\306\225\241=R\322&\2766U\377=\010\302\370\274\010\242P\275B8\364=f*\335=`\006\325\274\200f\340\274\270\017\251\274\"\347\366=,\361\222=\220\236\250\274\352\006+\276T\262\206\275J8\374=`\345\026\275\3503\036\276\245\345\r>\330r\345\274\225o\210\275A\245\005>\022\333\330=\314?\022\275\216F\213=\2623\243=.s\257=\230\226\271<\000\352O=0|\357\275\036J\232=\214\023\204\275N\001\023\276{\237\033>\020\005Q=\002\352\005\276\000\206\247\272\005l#>@\367\212\273J\217\235=\240K)\276\260\306\326<\317\017\026>\270\204\315\274\340\364N<\260\270b=\020\037\203=\335\267\241\275\263B3\276\004\371x\275\222\017\274=\243\263+\276\020\371\357\275J*\214=y\235\036\276\372Rk\275\230\332\021=\362\021\261=\240\377H<\006\374{\275\000\325\275\273\203\3014>\271\257/>*J\345=\335\304\017>o\3302>)N\025>\334w\205=\240D3<\2361\003\276\263^(\276\252>\230=&H\373=\3025\262=(\036\220\275Xe\220<\344gy=VQ#\276\177\276\261\275#\333\027>\276U\270\275,\3514\276\210\017\234\275\200{S=\374.j\275\200n\220:\243p\035>\034\313f=\010\017\236\274\004\325W\275\266\247\317=~t\301=~\312\272\275w\370\037>\213\330\036>\003s\030>\302\343\374\275\360@\021=\026\253\377\275\330+\374<\340r\225=\3169\272=\205\263\275\275\235\007\242\275\252\313\314=\3544\217=\364UO=\212\350\205=\320\006\256\274\334\263\221=H\333\354<\305\272\032>\324\346\027\276\202\346,\276x\025\277<\346\307\222\275*\337\357\275\213y\003>0\023\245<p\020\213=\354\205@=0\302\004\274\002*\347\275\336\023\255=\207\2062>\360\035\314\274\231v\016>|G\265\275l\223O=h\320\321\275.=\262\275\346n\242=\260/d\274\363\373\003\276\256\"\201\27568\203=PA%\274\006\330\035\276\236\340\327=\377\310\277\276@\322\303\274\250E2>\263S\276=\022\335\204=\303\003\222>\234r\224\276T\345\227=u\256\t\276 q\271;\026\205#>y\264$>H+\352=\313\252\036>\026\231\374=F`\244=\340\327\231=6\335\361=\307\253\032\276\276\2729\276\004-p\276<\301\315\274h\035\277>N\334\242>B\275\313\275N\273\014\273b\367\312=+\\<=_\361?>D\371\270\275=|\303=*\010=\275\032g\356<\262\r\231=\240P\376\2758\350\234\276\344O\210>\373\273\013=Wgc\276P\214\033\276\226+~>\275d\316<i\261\016=i\246\026>>\030\026\276FX\267=(\376\025=<\370\004>#\"m\275\323\352\277\272\272\325\274==\252\">\326\337\341=\373\001\334\275Nw\235=\010\307?\274\023:\232>\336\215C\276\246)H\276\352\010\211>\334\003e\276\017#\n>\002S\230\275P\336$\275b2\311=\020Q\213>r\242\201=\312\361\016\276(UZ\275A\224O>\307\361\026=\301\023\303\274\236\344\212\276\023\320\377\275\274-$\275_\257\377<H\373\372\275-r\223<\3754\215\275@\316\006\275\252\351\353=4\236\263\275@\275\364;W\372*>\356L\257=\320 s=\264\246\357\275dq\020=\320z\272\274\263\336->f\r\326=\340\252\345; \221\037\276\334\250\030\275@_C=,@Y\276\010\227\225\274\336\307\257\275\377\222\321<\2322\345=~W\236\275\250\224<\275H\3779\275\244\014i=\000\237%=@\204\331\275`\027\257\275>\010\270=\207\306w\275\322\017\003\276|Kw\275=^4>>u\375=4K{\275\372\306\355=\274\200\276\2754X\324\275\344O\010\275\020\365\307\274^\302Z\275\251\306\017>NT\016\276\316\376\343=\020\207p\274\340\036k<s\271\"\276X\302\234\275\267\274\315\275\'\325A\276A\214\207\276\024\317>\276KM\333\274Ce\230\2765\020#\276;\260\t>\204\225\347\274 \362\010\275\257\204\033>:\327_>OA\206\275\301\227\003\276\344BZ<\216\260\243\276\220\356\216\274\336\026\311=\374l\275\276.\216s\276\017\"!\275}\023?\275\020(X\276CuS>\347\251\240=\030Y\322\274\240I\373;\327\206\'\276\266\342\241=\267\3757>\362N\315\275WC\020=_.\034>XS\330\275DW\031\276\266\372\365=\0047\270\273\035\335E\276\"\340\265\275\220M\177=\362\320\212\276@\003\207:\260\331\334=\374\0009<\316\211\237=\211\036\215\274\337\245_\275d\314\213=\356\311\354=/Y*\275DF2\273^\216m\276\276\317*\276\2128s>p\271\002\274dM7>\353\313\034=3\362\002=\223\347\334\275\337\3621\276AS\203\274\177:\000\275\001\013{\276N\302\303=\325]\002\276\243Oq\276\020\211\234\276\256\361Z\275\003\227(\276\371\343\026=\262T\\\2766\230\300=\003\305\272\274c\303O\275\321l\235<\367\357x>\245\312\330=\002\240\343=2\177T\276\260*\233=`0\353\273\001\214\030>\361\242\013>A\250\036>\023\275\n>zg\365=\032\315\307=\350\234]=`\310\216<\203\"\003>\321/\255\275gd\330\275\225+\367\275\340\367M\274\273\002&>\356\222\212=\374wc\276\013\021X\275\315Vc>\337\341\245>\345jm;\227\364\360\275A\251\005\276\233$\242\275S\333a\276\220\336(\274\262!\227=_\311\312=\235X\003>\362\276\325\274\227KP>\366y\344\275\327\341\013>\220\335\355<0\352\020=\306\031+\276Ut\034>r\323\365=\214#\200=|\301y=\356\013\233=\347l+>\351\363\016>\000\354r;\355S\r\276\315\242\263\275\032\'\366\275\350\340\343\275\307m\360\2755\377\246=\200\375i\276\244\235\225\276\352\345\241\276t\252\201\276\335\nZ>P\\\367;R|V>\252]\226=\234\372\274;:\3356<\013~\027=o\252\'\275\026\303\220=z\023\006>\247\017\031\276j+!\274\257n\014\275\024ve\275\260T\014\2765\207\030>:b\262=bT\310\275\311\244=\276@\360\007\276|\272_=\217\003i\2750W\312\274\274\360\204\276d\274H\275\253\177i\276\205\303/>\013\245\233\274\322\3300\276\\\347d=\220\202q\275\270\354B\276\205\313W>O*Q>-\317\234\276\274\216\033<\223J\341\275\014\323\n<Z\370\347=\244\331\335=2\007\273>\004\024\306=)\244\214=~\032\201\276R\277#\274R\261k\276\022L\243\275g\325y\273\272\276#\276\210\023\270\275\206\017d\275\316\277\362=\370Z\251\276\276\327\254\2765\014\207\276\213fA\276\247a\256\275\337\006.\276&\272D\276\354\315\262>\213P\357\275[\213\037=\305\202\200\276\322\207\226=u\352\211\275S<}>;\020\006>\305\316\200>\272\362\304=\215\240\032>G\377\240\275e\376\300<~\r+<\014\332\323=\334\231\207\275@\013\353;K@\013>\334\256\034=\332\211\023\276\034V9=s\335\022>\\P\004=\204E\265\275\363\3720>\332\232\333=C\267/\276\203J\343\275\365\300\321\275d\322Q=\\.\265\275b\033\231=\255\021c\276\276e\242=\216\2633\276 \376\266=\306\277o\276\204\313\262\276\226*\324<\223\233\023>\341}\277\275\213\311_\276D7.\276\370\313V\276t\310\246\275\023\315\004\276$.\367\275\324\366\n\276\000|\341;\300\247\223\273h9\203=\324\010\000=l\001@=\010H*\275Y\020%>\244\3214\276\243\\\n\276\274`\006\276\250\305\353\274\210s\354\274\322\337\262=\364kG\275\324\017==\222\036n\275x\310\362<\254\267\207=\222\245\341=\026\003a\275\253\257\007>\000\235@<%1\312\275\340\232\004\275\340\240\204\274\n\253\242=\351\252\">z\220\212\275:C\352=\357\352\003\276\324\003\000\275~\357\263=\237-\252\275\232T\225\275\212\251\177\275@]\275\275w\2042>\377\325\257\275r/\004\276s\215\016\276 \365f=\275d\007\276F\357\267= \014\371\275\337Z\226\275=\257\232\275\263\274\021\276,\317\242\275f\207\032\276\310\375\321\274\370\203\016\275\014B\n=?\'\021> \005u<xm_\275\346\370\316=:\314\037\276XeH\275D\022.=\226\314\231=*\025\207=P\255\031\276\360\2343=a\336\266\275\200\253\037=H\177-\275\330\307E\275\246\241\250=x\016\027=5+\n>\337\232$>Qc\025>`\\m=\340\350l<\240\326\351\273^3\333=\020\376\316<\343\277\371\275\240\361~<\nj\330=\013T\352\275\260\r\023<\314\375B\275\317`\223\275\002R\206=\310\324\036\276\374#$\276\252\023\327=\251\014*>w\347\354\275\263\037 \276\215 \021\276\220N,<Z\367\254= K\201<\001\241+>\360\250)\276\246\360\304=\206\362\300\275Z\311\254=\010g\260\274$\n\013\276\216\257X\275\366\376\352=0G\036\274@\242\232;tOl=(\"\\\275\340\272\'\274@\3677=\310c\010\275\366n\363=2\276\341=\303\354.>\247\275%>\307-%>\020\241O<:\014\274=p\310/\274\000\026~\275@\347z<S\340\035\276\274\334\017\275,i\003\275X\251\202<|6O=\020j-\276{H\025\276\374\250\032\275\357\251\022\2768 \232<\347$\271\275vf\302=\376\231\361=\206E\363=\3767\334=T\305\360\275\016\200\375=H\224@\275\244h\221=bi\321=\252\233\336=\242\326\254\275\200\034\020=Z\312\301\274\023;\250\276\254\337\270\2768\314\300\276\034\353\013\276\314\216_=X?\021\276\245C\025=d\3373\273x\306$>\261\331\272\275\355\371\334\275s\247\306<\261\222\217\275W\360\266\276\014\031\205\276\032\261\310=\347% \276T\344w<\313\354\221\276\000\337\227\274\204\016\227<\025bk>|\254$\275\000i>;2\\.\275<\275\251\276%v\301\274#3\004=\310\303w=\004!\320<\177g&>U!\030\276\020\373\211<(\215\\=F^\271\275\307?J\275,,\212\275\210\3035\274\373\376\260\275\372\365W\272\264\302\363\275\225\203\036>\320\245)\2765\3150>\212Cj\276\362\3073\274\214Av\275&\310\267\276\356wL>x;\265\276\010g\241=cxB>\212Y\300=\274\336\261=B\224\334=6u\376=\177\3350\276`\252\030\276\324sx=\202\316\374\274k\260\316\274\335\342\035>\3130\032>\361\237\261\276\177w\351\275T\303x=\2679\005\276\274\303\302\275\377\245\233\275~\253\002\274\003\001\261\275\305\350!\276\253\013\037>\205\237\'> z\036\276\301\2657\276&g\351\2740\372\330=\031\225/>\207I->\326\210 \276\356\201\333=nr\002\276\311\301->\231\350\227\275\002k\344=\3005\'\274@r\240<\023\216*>\030\312W\275\000\245\336;\302\322\337=\010C\227\274 o\263;\376\005\317\275oq\251\276d\224u\275\007\352\023>J\201\276\275\357\375\260\276\021\246y\276\353i~\275U\307\037\276\304\255T\275n\262\177\274\214\033e\275\000\253\274\275\2653\225=ElM>X\224\364;P)T=Z\252\226=\326\365\206=\255\256\036\276 \323\356\275\013\230\024>m\253\007\276h\274\307\274\026\245\"\276\353\005\350\275\020<\030=\014\r\006\275\2409\033<\234n\303\275\033o\316\275\232\215\244=\003p\244\275\225r\200\276p\033\352\274\267Ps\275{\244\242\276g\341\265\275#Ca\273\026\307\352=)$\"=\2664\202>@_&\275\254k\273=;Wo\276<\367\030=4wt==\315E\276\233\030\344\275\224m\271\275\\\r\266\276\024\334%<$\276b\276U\216R>:\333\255\275R\026\352\275\336\213\255=\304u/\275#\234?>\020};\276\037\374\253<\314A\n=\036\256\">\344\\n\276-Y\263\274\314<`<\237\267\016\276\021\025/\276\240\203\375=\220\256\034\276\333\035!>\031`$\276d\250\242\275-^=>\363\251\010\2762\331\032\275\347\367\016>\030\023F\2758\304\212>G\265\014\275\342\227\320<@\276\257\276H?\025>3\275t\276\336\026\335\275\274\270\370\273\016\374\241=\302\213g\276\024\205\r=\201(\215\276#\372\256\2768Z\032\276\365\014;\276+\200\241\276\232\341\210\276\321-\027\276\021\257#\276,|\202\276\226\331\212\276\355?\254=\32756\276Gi\000>d\2370=TG\226\274\245+\273\274\263$\031=UF.>v\367\243\275Dy\250\276Oe\306<@\350\235<\202\350\315\2758\"\354\274\3006D\274\320\3617=\366\037\232\275aS\311\275y1\207\275\010T\340\275x=\323\275@3,;\345\256\007>p\014\036\276\270_\033\276\276\004(\276C\352\">T\177\t=\225\2404>\337z\320\274\252^\204\276\312\037\260\275\216w\213=WB\024>\263.\350\275\207\200R\276\302\215V\276\353g\330<n\317g\276\362\021\360=\203\245\265<\260\023V\276\027\177%\276\3526\377=\014\272A\2758\212\024=\004x\237\275|\006\"\275\300\201\233<u\210/\276\320w\240\2742\311.\276ik#\276\200\222\r=\002f\205=\311\213\360\275\345\267\031>\210\r\313<`\212\311\275\000\305\022\274Q\014\007\276\020{F\275\203\375\025\276\033\316\026>\026{\304=\255?\002\276\220 %=\324\357x=f\022\303=\215\215+>\223\0054\276\3675!>\270\034\256\275|\337\276\275\212\347\020\276q\037\007>@\200I\2730h\014=\026\231d\2755\374\010>\242\027\242\275H\2021\276\316*\010\276q.\031\276\206#\025\2760\324\006<>\244\010\276o\017\025>C\367)\276D\374_=\030i\257<\360@\214<\230\2564=\341\t\337\275\256\247\267=\000\271,\276L=%\275\235\206\003>`\341i=\005\214\023\276\254^\022\276Xz\225\275\262\343\265=\320\333\r\276\274q\034\275\366\016\260=\340\231\344;f\260c\275\230,b=\000~|=D\202F\275\360\002E\274`\211G<\363\241\024>\226p\237=`\346\322\273\256\323\331=9\031\205\275y\354*>o\307\037>5\366\254\2755\021&>[\260\333\275\326\314\020\276\360\336\010<)|\"> \353H<H\3653=\010\302\321\2741\376\304\275t\262\022\276\316\023\326=T[\r\276!\237\r>\372\222\336=\265\027\t>\242\2011\276\232\016\277=\314i\\\275\232\373\206\275?\230\255\275\230\007\217\274\300\303?<i\313%\276C\034,>\364\347\213=\272\336\237=\227\005\240\275\210t\207<\265l\033>\214\211\220=\362&\303=\367T/>\006\\\372\275\324\0057\275^3\204\275\240\367\234<&\016\254=\260\200i\274\351\331\006>X\221i\275\3103$=0$\312<V\357\271=\357\222\034\276\200\202h\274~\371\244=p\177\r=\336\320\274=\021\227->\"\261\371=\"\001\324=\202\361\300\275\210\250\363<F3\227=4\315\014=\312x\367\275\300\372$\274\361}\022>j3\330=\364\2319=\014[\222\275i\353\017>\240\330\256;@\322\276\275yX\024\276\002X\234=\013Y\004>\"\001\325=0\201$\274k\320\003\276\332\332o\275\332\354\223\276\367r\004\275\222\013\222\276\373o\214>\276B-\276\010\345\203=E`\003\276\350\341\260\275\2047\255=\237l\300\275\n\337\207>\'\270 >\366X\235=\021\302J\276\200x\037\274q]`\276CvI\275Z\220l\276\250\3060\2754\363%=V\343>\273\306~\207\275@\221[\273Q\261\206\276\257w\314\275\245\313\227=\353l%>\272!U:\367\017B>\330o\250\275$\221\245=e\330\312\275\206\245\240=r\255U\276\357\t\252\275\014d\304\275\024\217\004=\275\260\222\276\306,\034>\376\025\364\275Tp\371;(\201c\275<\013\032=\217\303\207\275\340\214\243\275\234\372g\275I\321\240\276\230\336\203=\036S\230\276\257\334\372\275<\020\255\275\350,\351<\224\005O\275\260X\245=\027\216\277=I]\326\274\366\254\231\276\344\310\r>{\261\333\2757\247x=C\350S>]\3600>5E\205\276\300\355g>\226\252\223=X\345R\2756,#\276\220P\255\273\nZ\234=\317u)\276\370\231\334;\250\003m\275H\360/\276\346R\255>\321\373\272\274zV\335\275|g5\275\244\030\021\276H\347\303\275{!,>T4J=P2\027<\024P\000\275P\343p\275\200\372B\274h6\372<\342l\200=\330\273\232<\344/$=/\253/\276\356\034\301\275 (\033\2740f|\274\256\355\203\275\024o\007\275\034\267e\275;i\000>%\257,>e\272\250\276\263\r\016>\007-\241\275\347\333\032>\262P\225\276c\362\271\272\320\363\003\275<\313B\275\333\235\006=\231]\003>\n\"\212=\355\211\034><}y=W1\344\275\254\006\016=\320\364&\276\236c\275\275vo\206=\000\303\322<Q\323.>\210\210\214\2758\245\353\274\346\370\350=\345`1>\265\233\013>\233j\r>\362\360\334=\370e3\2754l\267\276\334\\\020\276\033\233\237\275jZN\276\355:b\276f\262I\275\236CO\276\355\355\035\276\334(\022\276\216^\315<\236p\324\274\375\017\010\276\237\013\203<\350~\376<g5\257\275\242<\232\276\233\217\004>\326\365\251\276\235\305\030>\233\217\316\275Ba\266=\323\264\216<\263!\t>\262\031\347\275\200\376a=\032q[=\017\036e\275X\024\354\275\330\225\003>\201\0000=[\351@>&\234\206\275\252_\335=Z7\364\275{\377#>|+\356\274\223\356\354\275H\226\361<\366\261\250\275_\212\237\275\341\273\261=\222\364X\276C\"H>\\\r\221\275\336le\275\206\002\212\2767\304;\276\314J9\274\202TJ\276\026Y}\276\314\353\217\276\223\002\374\275\202^\200\275\224b\311\275\355H<>\323D\r>\356\325\030\276\321\036\261\276\263\264\230\276\357\007(>SM\314\275s$\255\275\310n\220>\306\222!\276/\276s\275\230\352X\276\362\247\003\276$\233\227\275za\327=\233\021\247\276\272\332\241=b\r\261=\004Y\317=\3528\267= K\347\275\220I\246\276\213T\020>@\366\262=%\001O=zd\323=l7B\2751H\364\275\000;\350\273\002\372\370\275K\376\036\2766\216\333=\356\301\277=\330\3134=\247\323\315\275y\006\230\275`m~\274\260\257&=pR\203=\004\3532=\370\t\331\274n\023\253\275E\254\266\276\"\265\332=\234\022\271\275B}\322=\241\231\222\276C\304\343\275\226\037\363\275F&\320=E\366\214\276\352\301\024>\311g\022>\307\272W\275^\3206=\032\375\007\2760Xl\275`T\352<\264\032@=6\300\357=t\326s=\253L\210\275\375c/>\224\342W\275\260\216^\275j\346\227=\200\355J= \336-\275\204A\031\275H\311\310<\032\266\361=\"\256\254=\276A\254\275\340\227\240;38\016>m\326\024\276\212j\307=\351;.>\352\025\304=+1\316\275\232t\372=\010\277\000\276\000\275\225;1W\207\275\260q\010<\220\264\234<\306k\211=\"\360\326=vA\003\276?v*>{[\t>)\372\017>X\357\035=\301\361\004>\006\254\207=@e3;n\372\344=\000\006\003=\374\367>=rz\304=\022\034\016\276\254\217\030=\300\267\005\275b\351\221=\310\020\354<rZ\027\276o\013\356\275\340\312\302\273\240F\014\274\204\025\\\275\245~\342\275\3326\345=0\013@<>\231\230\275\225\305\215\275T\\8=\2706\253\274\300\177\326;0\0176<F\337g\275\026 \255=\327\0042>\306\025\233=H\320\364\274\000\010};\360\033]\275\231\354.>S,\034\276\304aU=\322\333\277=zn\232=\244\343E\275`\034\230\274\204B|\275.N\322=\325m\027>\217\354 >\364\004]=\271\246\034>\306.z\275\257\262\006>\0054\">\016\037\377=\334\2411=\230\302\253\275\273Z\005>\210\225\271<f-\021\276@\214\341;\320\374\256\274\360R\022=\320\257==&s\023\276\027\310\271\275\032)\r\276\326\244\253=\000\331\036\275\365g&>\264\224I\275\330\245\272<\3109\027=s\200\004>\240\036\271;N\236\370\275\357\210\337\275\036\317\333=<\272q=_\037\006>f\362\231\275K\201\022>\326*\025\276\300\006z<\250\034u\275\246\303\262=\322\324\264\275Pf@=q\345!>rZ\257=HO\371\275\266r\243=\360\211\246\274\317\3670>$Y\000\276%\220\010\276\036\332\217=8\271\000\276\205\003\020>u\332\024>\\\255\304\275\271\327\004>_\003\225\275\300\345U;\000\231\236<\235\3730\276`\347\214\274|(0\275\005\000!>`\017|<l\026\371\275\370+\255\274\242\220\'\276\315\303\007>\314Zf\276ny8\276;\362\267\275\003X\342\274\233g\224\275\3449/=\3734\000>3\225\250\275\333\r >\001&L>r\205`=$\237G\276U\251\034>M\3011>\002i\200\276\"\336\206\276\320J\243\275V\305\300\276\211\216\324=\377\005\236\275 \245\234<\024\356\222>\026\t\257=\366\'\236=\016\t\313\275L\nR\275c\032\360\275\037\302\231\275\200u\t\275y\347\216\276Jfk\276\014\"q\274\216\333\355=\304k\005\276x\027\231<-\376\214=\243\304\200\276\344\3522=/M)\276\317ve\276\372\023\333<\010MY\275\212[\200\275\311\346\332\275o\374\025>qZ\261\276\010\376\275\275\020B\207\275#D\210\275\370\271\350\273\010\\\300\276|\367.\2768\204\275<\320\223a=m\203\023>\246\307q\274\026\333C\276\023\tX\276\237Z}\275\355o<\276\332v\263\276W6\232\276jc\337=Q\273\226\275\026\377e\2762H9\276\211\222$>\223~$=da\004\276\332\255!\276\315\211&\276\202\203\246=\227\020A:\005\255J>\354p\004\274T\311Y\2764\037\201=\203\301E\276LD\314\274\002;\226\275V#\347\275P\324\230<\312\330\255=\000\302~:\326w\373=\0227\332=\326w\322\275\2226T\275`Q\247;\340\265\360\273\226\376\372=P\324}<\026o\327=\272\231\330=X\227\004\276\353\200h>7\033\246\276\243\037U>\206c(\276\230\313X\276\033\251K\276i\224M\276P-\344\275\274\247]\276\321\304\010\276\204m\337=\345%\013>\214lC\275e8w>@ \332=+\256\257\275\270s\245\275\231\364#>\351\323\024>\300\204\327;\025\266(>\214-\032\275.\202\342=_\037\n\276h\370\361\274\320\177\206=0&2\276Y\376\215\275\256\275\r\276\030\341\217<\324\200\023={d\000>\364.\203=\200\215\277\275\035y$\2765\024*>\242\364\317=\306\275\301=jz\365=\202\026.\276\027:\016> \026\"=J\310\240\2756\277\363=\200\250\300\275\244ha\275\020\306i=\336)\330=\267c\200\275B\017\267\275\234C\025=(\331\331<\000\3642;\344\2110\276{+\n\276v\320\245\275\272\327*\276\240y\377\274-\220\016>`\003\220=\247\0160>\206=\222\275\205e\016\276\000~1\273\226\306\317=\212\035\014\276\335\257#>\321\303\035\276\021\253\000>\304}Y\275\222\245\036\276Q-\001\276\236F\323\275\020|+\276\270c\201\274\376\211\001\276\310\227\030\276\214\220n\275\000g\376\274\204\200\023\276\220\026\341\274\320\304\245\275(E/\275x\325\017\276\240\036\376\274\300*\217\273\331\014 >\213\331\261\2754\307\207=\220\037\005<\300v1\276\203<\007\276\200\261\036;\030M\244\274\304\273{\275\300j\366\274\304D\203=\366\033\233=0\236\003\274\227/(>\336\241\253\275hH\365\275\346\265\333=\220>\231\274v\r\250=(\204\305<2\370\301\275 \347\355;\330\303\371\275u\321\032>T\347u=\"\177+\276\2246T=\344\024\n\275J\361\270=THI\275|#\010\275\230\321\241\274\004Z4\276U\032%>K\307$\276\031\330\">\3060\363=\223\t\001\276\320\205(<A\024\002\276\177\204&>\323\035\014>\316;j\275\300-}<\034/\350\275\264\356\211\275\222\274\361=\016[\341=@\002\020<\320\333m<\3504\235\274\202;\340=\312\252V\275p\2156=H\362\r\276\337U\t>\000q\241:\317\306/>\356?\327=\272\262\206=b\275\314\275r0\325=\036t\264=\315(\017>\013\301\017>L\346$\276\273z\035\2765\036\035>\r\257\230\275Q\'\005>\340\230\360;\204\242>\275\300f\254;`\237\307\273@\232\345\274(\215\207\276\036b\312=c\205\323\275\2574\354<~\014m\2763\270?\276\027C3\275B\312\212\275\250\327e\275\372\023\262= 7\032=\034\307\217>b\3144\274\2247y\276<\243>=!\245\030><\341>\276\007kG\276\213B\300\275y\353\237\275Y<=\276s-\000>H\211\031=\277\335\030>w\337\272\275\273\215\214<\265$\262\276\232\000\225\275_0X\275TV\024>\263!\026>X\371\343\275\220\227\220:\226\022\245=\270\325\010\275\220\266\306;\363\327\226=\314R\202;\344\206l\275\331\324\317\275>\223\357=\214\251\345\275\241\237\231=*\013\336\275\340\316b\276Z\324\240=\230Q\236\275B\372\316=\005:\020>*\346\223>\3515\204\275\220\241\217\274\376\351\356\275\320\036\240\274T\014\221;\223\317\317<\005\037\222>\346 \301=\312\337D\276\2255M\276\347:\334\275\026dl\276\027\2132\275\r?\001>\251\345\n\276u\021\204>F(\320\275\333\235\206\276\301{&>\014\205~=\253u\265<\" \347\275\244w\217\275KX\030>ab\031>\301iQ\276=\r\023>u\357\224=\354\315\237=3\001\237\275\230\t\200\274\232\306\323=;\375\327\275\340aX\274\\\232 \276Q1\033>*\376.\276\'\320\003\276\306\032\242=\254#8=0\325\237\274\345%\003>gC\027>+\027\032>P:\003<G\360\013>\250\331|\275H`\031\275l\204g\2766\t\216=\016\360\334=WHv\276&3\316=\007\367\315=[\364\033>\354\215f\276\312\334\204=\026\272\277\275\026\346\235\2746\203\225\276\344\275\344;\3705\223\274Q\251+\276\274\340#=\234\331\013\276\215\017\004>\242Z\251=\270\330\215=8\036\245<\200\237\232\273\001\032\276\275\353\236#>\030M\207=%g\010>\342Q\333=\220E\242\274\375\016\n>BM\372=\300SE\275\362)\327=lW\016\276(\355\265\274\2133\341\275\004\023\n\276\035\325\260<\002bs\275l)\334<\333\217\016\275\362\256\357=\350\023x=P\373\222=\227\273\204\275~<\304=\362\026\307=*>\246=\353\313\036>\366\354\230=\265\"\'>\002\020\274=I\3321>}\325\024>8i\241\275\320\317r\274`^\204\275\200\275\031\273Qm\033\2762K\344=\340\306B<\261\206\016\276\177@*>\370\027\235\275\345\221*>\036\355\331=\004pj\275l\212 \275 \217\353;\225\264\010>\260\217\243<\2001a=\322\\%>q\375\335\275\334\331\"\275\330\013\372=$\276\027\275\010xM\275\260\321\007\276\256\320\242=\"\273\246=\334\227o=\304N\225=\375\270,>L\263\016\275@\226O=\274\025\027\2764Rk=\355:\210\275\261\022\036\276\347\207\247\275\300\024\352\274\320o\317<\311\223$\276\371\377\036>\004\013>\275\220\204\266\274v\r\377\275\352\254\375\275W\310\330\275\nD\234=\312P+>\320\365\371\274\035\371\205\274\370\2361\276\007w&\2760\207\020=\026$\330\275\024\261\316\273\3448)\276\342\346m\275\000\004\2169\372\024\321\275O\344/>r\024f\275\235R\256\275\222\372\235=\030\037S\275\030\203\256\274,i\032\275\240\245\017=\366v\342=\242\262\223\275\000r\341:\300v\r\276\227\236\024>\260\330\267\275\316N\314=t6\"\2758\370\341\274\n\001`<Vn\300=\000]\031=(\261\212\274\034y \275h\352\245<\344\1771\275\313\014\347<\304\001\375\275\245\317\323<,-~=t\n\204;H\205\003\275\330\211\240\274\272\227\351=\035\216-\276\266\224\223=\253/.>\304\214M=\240O\214\274\232\210/\276j\217\275=\002\235\232\275\220\\\017=\250u\256<\270\336\370\275Z\305\377=>j\"\276\300\210\022;\204\361?\275\211\351\314\275\200\375\001\275/\272!>\260\035\245<\364vY=\027\271\006\276\303\325\007>\320@N=\020B\247<\000\034\r\271@\314%\276\254\007\254\275>?\313=V@\315=$Dq=\340b\260\2742o\336=\372\010\274=\327-1\276N\333\345=\260[\364\274\220j@\275k\324\360\275\013\313!>`\216\214\274`\211\216<\341\326\032>\340\311\370;h7\254<\370\313)=5j\017>\020\205\004\274\272\322\211\275\264\324a=\331\002\032>\030\r\021\276\n\035\275=\377\323\026>\230\320\023=h\242\221=\306\303\261=\215\234#>\332\2570\276I\351\030>\0024\274=\000\316\321\273n\373j\275\370I\036\276\210\t\271<\026@\264=\000*\355\273\200\360\n<sH0>\377\3650> \264\000\276\372\256\310\275\312\004\242=\000\277\n\276\204\014\t=\333\277%> \036^=\233\\\007>L-|=\262\241\351=\314\222A\275\356\256\346=\300\351\213\273pu.\275\010%\t\276\222\276\033\276\206\035\254=\204\"\275\275\310\213\\\275\206\334\303=\274\354\"=\r\265)><\324\031\275r.\322=\330y\220\274\016G\340=\240\335\301<\266\227d\275\374\001q=\252\361\222=\332\'\342=\364D8=:\022\252=\n\014\312=\376\363\316=\021\303)>\020&\341\275\006M\361\275\250y\223<\322\277\022\276T\216\025\276m\2241>\206\246\370=\000\210!\272$\013\026\275\274:y=\275F*>EW1>\202\177\020\276\nr\320=\024\315\007=\'\334\022>\002\237\345=\033\004\036>\257\315\027>F>\333=\361\270\036\276fg\212\275\200\326$=\2666\261=\211\377!\276\336\257\353=Q\006\032\276\022x\235\275\354\204\253\275 9.\274*W\334=b\206Y\275\300\252D\275\341R\355\275<\333\362\275\004KS=\036\331\324\275\240\214\210<\230\2300\276\207\304\035>\270d\207=\306\\\243=Z\023\261\275,\275\003={\304\277\275\024\263\331\274z<]\272\202\276d>\332z\366\275\30772\276\312\273H>\375\327&>\325\027\004>\201\340K\276f\223\300=\222\033:>\320X\257<J\t]\275\350d\330=c\231\224\275\247\2136=H/\"=\350>\227=\340\203\016\275|\210\272\275j7\245=\206\311?;1\013@\276k\254\214\274\032\370\200<9#\031>o\3114>db\272=q\356\027\276\256\315\201=` \213<\200T\350\273`\350y\274\0362\003>XF\n\276 \333\235;\304\330\262\275@\370\362\275\026\324\302=\324I\337\275(G\332\275h[\366\2752q\376=0\035U\274\004\224\222<\310\277\246\274o\222\026\276\314%\340=\375\246\333\2740\303^=\236^\374=XQL\275\205\2570>\360\310k=\014\332\320=\026o\005\276`9\327;\"\351\372=\262/M\276Yc>=\030\237\014\275\343\004\031\276\026\334_=c\352\326<\221r\301\275@\367\363=\322\021\n=\200\221\210\273\010Cd<hVM\273x\213N>\006\201\371=\370\336\343\2745F\336\275\371}\034\276\251\237\'>\274K\000=\007\312%\276\264|Q=\312(\333\275\237\017\">&\021\360=A.\222\275\227D\007>\364\177>\275d\2623\2766\317\346=\320.\251=\204I\007\2754\214\240=\301\013Q\276\322\331\035\274f\177\342=%\007\253\275\236\257\252\275\226\246H\274u\021\"\276x\322\r=\371\207\203\275\206\3655=j\'W\275\222\331\335\274\334\245\034>Z\177\373=\237)&>\233\320\016> \252\210<\262\220\216\275\264\232Q=\372\340\312=.\'\357\275D\274\025\275h\257\206\274@2u\274>$\233\275\356$\243\275WG\036>*\t\230=\320\226^=X\277A=\347\030X\275\215cA\276\252\363\n\276\001v\245\276\201\375O\276\242\264\235=\200C\350\275J\355\270=\324V\344\274\2624\024\275\250ns\276\302\331A\274\0163\244=\022\025\216=\210\275%\276\313+]\2768\253\032;\353\364\345\275\244j\361\275\340Z\263\276l(\262;\230\2412=\030\021j<\354\311\017\276\344Ce=~\321\222<T:\215\276.\206\357=aR\207\275\356N\217\275\237\014\313\275\236Y\202\275\005\360:>\264[\001\275\257j\017\276\010\206Q\276\003\252\361\275-|$>\304-6\274\333tw\276N+\303\275\002k\025>\233\026\264=\010\030\246\275L\2340=\\\023\266\276`\013\322=H\256\242\275\177q\253\276\224A\032>\310\334\021\276\317\020\037\275\363\322Y>\264\3554\276\372\022O>^\224\356=\354\240V=\343d\346\275_e?\275\311\320\030\275\224\377E\276\233\352\000\276\004\227+\276\241\256\017\2753\226\235\275\357Y\002\275\031\231&\276\036?\005\276\024G\001\276\253\232\216\275\214\253i\275\033e7\276O\374;\275\260\247\255\275l\343\261\275w\304\004\276\367w\030>6\344\207=\350 f\275r\221\031\276\367\343\277\275\310\207\037\276\247)\316\275\327b\261\275\034\013p=\251\265\025>\300\230\t\275\260\212\226\275\320q;=\016\374.\276\272\267\260=\255\370\006>h\272\233\274B\312\332\275Ka\261\275Wa\t>f\026\346\274\316~*\276\275$\r\276\026\304\236=\265\312f\276\037\211o\276\245)a\276~d\265\275\206\353\243\276\365\340#\276=\320\230\275SkH=\256\232\273=\305\344\226<\263e\035>0;\021\275v;\252=C\030\000>n\224\316=\232\353\305=\025v\024>\020g\r\276\311\264\013\276\376\316\'\276\005{\024>\r1\220\275\2249:\275i\236\016>\310\215\226\275\260o)<\350\257\313<$\306.\275Cc|\276\243\326 \276\217\221\"\275\375\217\236\276\2573\255\275\344\311\367\275\305\315;>\004G\013\2768_\266=\022\265\357=T>\'>\330\t\'>L\023\224<LA\266\275\0266\372\274\341\207\265\276\253Y[\276f\342g\276g\303\367=\343\0074\276\010x\237=\324\007\223>!\353\257\275\237\255\200>\344\025)=z\013\233=\312DQ\276\267\220v\275\231A\235\275`[\203=\244\267\010\275\201\304R>\301#\026>\207\323*>\330C\274\275\245\"\276<0#F\276\341\001\222\276\326.\202>6\317\034\276\n\325\250=\364\216\221\275\270,3\276 A\013<\030#g\275`\017-\276D\376\354;\356\264\330<\205\002<\2762]\016\276\244\327\256\276=F\322\274^\037\353=\"\030\353\275\322\303\214\275ao\331\275\214\002T<\233\2444\275\232/Z\276\277n\367\274\2206\257\276\327~M\276^\0370\275.\334\017\276]\344\267\276\307\350D\275\210o\230=\t\334\212>\370/J\274\367\313\025\275\230\350\310\275\324\226\356\275~\300 \274\242\033\353=\326\341\357=\2134\000\276\200\204l=\\G\022=2\251\016>{\3142\276\240%\360<\006\237\276=L\260P=D\250N=\307\355\221\275\313\301(>\300Y\206\274\360 \246\275e\354\005>\364\213\200\275\222\240\232=*\017\373=\220UZ\275 \346\212\275\276d\266=\202-\376\275K\336\204\276\237X\207>\372\320\363=\207\033\255\275sL\302\275\257a\016\275\260\346\035=\212\274\327<\202\355\205\276\000\2763\275/\200\255=N\256l=\017T[>\252\247\241=\031o\211<\200%\232;K\222$\276\244\006\362\275\335\200%>\2348\020\275\034\'\240\275\272\311\035\276\2207A\274\225;\036>\362\025\227=\264C\333\275@8,\276\343\367\343\275\201\017,>\344Sw=\200m\210\272\342?\321=W\222\204\275\010oh=\331\350\\\276D\035}>m\2029>)\265\243>-\2145\276+\320\037>\002\205\016>g\214i\275w\277&>Z\003^\276#k\231>\221c\240>s\0221\276\020\250X<\212\210\014>]/\232\276\267\200\271\275uY\236>SK\211>\321\211\311\274w\367,\275\323\241\234>\"\332\336=\267H\260>\3337\026>\255\325I>\n\306\242>\337\226\252\275\357R\234>j\240\246\276h\263\245=I\231/\276`g\206<WG\256\275c7/>\261\222#>\350\345\313<|\026G=\310M\203>R\013/\276\342C\306=\002J#\276\0057U\276\225\363\010>\332\000\335=\017\220?=#\312\231\276\207\030\023>5\305\252\276\316dy\275\271\243\020>3\227\000>z\314\256\2754\327\253>+\245\017=\225\026\244\275\310\021)\275\267\302\216>\010n\302\274\003\276%>\002e8\2767\251\236\275\326Y\267\275\370G\313\274\323\036,>\274E\204\276T\234\341\274\0003\212>\205\205@>\274,H\276\323\n\227\276s\332\037\276\361\305\326<B`\237=\335\025\226\276\375OU>\031\016->T\366\023\276\273-,>\307\022\220\275X.\336\274\351W\">\352\211\320=\003\353\242\275<Wl=_\376\246\275\200\'\\=\322E\355=\000\332\247<\002\\+\2767e\257\275\370\006i=\024\346w=Csu>\276\303\320=\027i\260=k_\356\275wD\226>\246?\250>\203\225\271>\244>\024\275\205a\205>H\224\035\2760<\027\274\n\351\252\276=\300\262<xO\234\276\320\211\200=\306L\231=\2308\n=\300\014^=\217U\022>\300\271\r\273\366\346\017\276\3477\344\275\364A\177=\177\352!>\311|%>\3507\006=\324\377\232\275\302q&\276b\374\243=\240\225f\275\251\255\027>\235\"\026>\232\365\n\276\037\200\004>\234kG=?\025+>\025\317\r\276\230\376%=\215\343\310\275\274\377\n\276\370\220\"\276]\021\237\276\030\303\305<\311v3>\324\351?\275\230LT\276\232q\244>1N*\276\3311\234\275\334Wn>\231\236\024\276\311\001\'\276\225c\330\275\261\275\226\275d\345\001\276\267\251Q>_4\346=\'%3>u\217\210\275\354\026\367\275\270\252\234>jRg\276\241\366\n>\030\036\303=iS\211\275]z\312\275\017\315\255\275\241\330.>\267x\226\274)\357\014>9NX;\316K\365=7$1>V2i<\2312\361\275\275\025\357=\240\004\312\274\375\335\'\276\036\026\354=\300\257\032<#<7\275(A\233<\270\034\010\275P!\021<V\205,\276\200k\216\273h\374;=\270H\243<\232\357Q>M\371==%\217\217\275\244\315\222=\005\027\364=\312=\271=\020\245\372<[g\010>\"\371\210\274du\314\275\364\267}\275\376\206\300=\300\262(\276\236\304\213>\014X\231<\252\242\247\276;\257-\275\306u\216=\300\2105\274@4{>\314\277l\275\313P\347\275\264\033\312=S\001\031\275\310\0266=<\201)=@\205\303<br\372=\010\027\355\274j\342\300\275\310\3321=`\263K\274\027\274\t>A\0371>\200\213\254:\300\331\376\274\360B#\274\313z\034\276\330\351\360\274\261R\020>C\371P\275\266\333\323=\326\0238>\003\272\250>9\363\335\275\274\234\022\275\030\205\331\274\207\007\376\275\244\rt\276;\034\035>\2208\377\274d\365^>\347\317R\276\342gK\276\200\024\363\274\354\252\010\276\220\270o\274@\324\242;\201\311\223\275\333(\021>\263\255+>ZW\270=\256\310\277=\274\370\t\276\204P\\\275\320 \026\276b\324\246=\000\310\264:\356\301\315\275\177t\322\275\030\335\025\275.\271\257=\020\227\334<B\212\001\276\36217<\2373f\276\217\333(\275\314\233\013\276\000\370t\275\'\355\226>*\006\220=j\304\200=\257B<>\277\201\221>\365XV\276\354%\357\275x\r\033<P%-\274\376\023\344\275\033\204\021\275\301:\207\276\244\345\300\275\362\240\204\276\217\273~\273\t\\\204>\326\330\326=\351y\205>R\201\377\275l\\K\275\217\204w>\2124\220\275\237\336\023;\344\314(\274m\345;\276e\336\362\275E\210 \276\200\353\364\274\332+&\276\220~\001<-Lb\276\334~\267\275i\362]>zxH\274\313#w>\004J\307=\244hB=\216\3400\276\2661r\275.\346\200=\352zT\274l_\257\273&-Q\276\022\240\207\276s\270+>|\177\215< \323B>\000\006\221\275\240\353\244\275w\3436\276\224\236\341\275\212V\251\276\327\206\223\2766`\224=\341\303,>\2274\271\275g\355\345\275q\365\314\275\270\304_>\211,\213>\376C\214>=\261j\276\344\221~=\247\330\336\2740\365\364;\234(\212<p\224\007>SvS>\230\311\277\273\023\013\233\276a%\005>\254W\242\276@a\340=\004\220\022=fc\312=\230\316\n=pL:\274\234\271\220\275\n\357\350=d\315\207\275Z\027\355=\177\217 >\200\273\314\273\014\304\003=\304\336k\275\304\361\005\275\374\255\372\275\200\004(\276p\261t=r\374\r\276\324#a=\263(s=\260_O\276\344\374\216\275-[\305=VP\236=Er2\276g\317\016>\017\373\010>\227k\311\275;\272\017>\2471\215\275\266;\210=!\250(=\334\267K\276`\210\336\273\227\243%>L\230l=\363\220\031>O~\025\276\000uF;\367\315\337\275>V\256=\340\333~\274\264\324\026\2760:\261<u>/>\016Q\006\276\264\234?\275\350\320\001=\300m\203=\370\350\372<\277\211#\276Z0\377=\335K9\276\204gP\276_\364I\276\260|\266=+7\013\276\003\213\301=\240\022\030\275\315w\201\274\257Wq\276\037xQ\275\244\273U=;%\361<\303j\221\276\375\224\357=\024\002\027=\205\023U\276C\272@>y\272^\276b\nh<\02710>\273T\234\275\333\246K\275.\272\310=\330\302\340\275k\214\240\276Sz\2769\376\332\270=\014\305A>`\205h\276N\210\345=\364\323\223\275v\322\352\275r\212\222=}\203\223\275\rp\223\276\373CS>\376%\305\274\024-\026\275\364\337u=\377\016_\275:\212\224>Bm\325=t\201T\276\027\275\375=l\321\010=\rK\021\276+\265\250\2754\n\335\275\330\224\276\275\323\305\023>\231\262\371\271\276\200\250=N\320\313=\200L\377\275tS\244\275\373\376(>\017\007\255\275\362\177\205=z\027C\276G\237\010\2766\211\341\275\347\334%>\273\367]\276\216\"\262<Ga\321\275\315\317\221\274\274\250\000\276\267[+\275\231\331\005>\240\213<<m\232\037\276@\347*\276\226b\375\275\023\266\277\2758\037\231\275\024\253R=\200\276\227=\n\010\333=\260\315\377\275\007\002!>\254\320q=\200\267\302;\272HV\275x>\360<O(,\276\253\214\032\276\217\254\305\275,\324\344\275\373\035%\276t\337\215=\332\230\260=`\343\307<\324\377%=;\017J>*\022\266=\n\350\002\276\3337\202\276\302,\314<y\230\336=\322\255\310\274\373\036(\276\010\205\244=\260\006\223\274\017\021\347\274\'s$>T\013C=e\003\033\276z\220V\2769\2743>\320\202\'\2747\334\036>\252\244\307=t\030X=`S\271;b\037\335=Y\363\252\275\030\357\010\276V\226\024\276(\232\273\274d\233]=rJ\202=\260\237+\275n}b\275 O\344\275`\235\206=\\#\002\276\323\267\236\275\376\367\231\276\002\332I\276\334\363$\276\377\313{\275$+\314<\254\231\342<\244\351?>\333_E\276\220\005\363\274\032)m\27627c\276\006\265\340=wd\227\275\327\265n\275\207\001z\276o8v>\030d\003\276I\202\250\274\257}\231\276\200n\325;V>y\276\225\325C>p\345;\276dK%\276\377\014M\275\267w\271\275\341(\325=\016\035\231=\274\337\225>\214Hj\275\272\252\266=wd(>x\317\201\274\037O\031\276\216J\305\274\337Sb\276=\r!>\027\001H>{\341e\276\327iD\276x$\321\275b\301\262=Y{$\276\344\252\035=\2441;\276\303\267$\276+\365k>Oo\322\275h\225\330\275{&\021\276\205\330\207\275\326K\370=\303\0023\2765\270\006\276\004\352\276\275\202\206\306=\313\363\266\276\234\025\215\276\016\031\200:\250\230\255\276\036\264\242\276\230\373\324\275\364X-\275\272\263\300\276\002E\276\2768p\001\276\326\202\271\274\003\233o\276\006D\241=\300\026\034\275\364\307\034=i\\\371<9W;>\240\256Y=\001\2657\276\346\244\305\275PD\242\275\010\330\266\275\272o\020\276\320D\226\274\227\301\'>#\200%>I\227%>\"o\253=w\206\037\276\214\315|= \253\304\273\367\3020\276\360\332\312\275d\241%=\272B\256=0\317\256\274\000\302C\272\300\242y<\200\301\010\276\375Hq\276\263y\032\276D6\303\275z_\002>\332\216\267\276\364`3\276\205\330$\276\3011\020>4\214\256\276\253I{\2768\3574\276\006*M=8\224\210\276\314\350\260;\361\037I>\204VF\275\340\032o\274\3015\021>_x\020>Z\212s\275r\350\261=A7\267\275\234G\010\276\342\223\366=op\035>&\312w\275\276{\350=\316\257\321=\003%\005>\311>\274\275\220 \035=\311\306\r\276e\026\237\274<b/\275\363\033\220\276\264\372\355\274$;\224\276\226\247\347=\257\232,\275\377\034\037=/\2400>\334\376,=\010zK=\277\335?\276\2745\204\273\206\275C\273\204w\274\276\237`U\275\274\222\324<\210\247R\276\337@%>x\226\250\276:\003\234\275X\027f\275\314e\205=*ZZ\276\223y\327\275\264\222O\274\375\\\232\276\372\272\235=`\245\351\273\311\332\016\276W^D:#Tp\275%\227O=B\376\022\276\257u\032>\267\376\217\275\016\322\204\276K\364\000>\346H\204\274I\350\033>\000\024\265\274\021\347\217=\244m\202\275:\333\226=\206\241\020\276\"\337\026>d\001p\275\252T\036\276\023\245\271\275j\022\345\275n\035.\276\032\327\344<\330\375\r=\256T.\276nu\347\274O\035\244\274\252d\371=&\233x\275#)\206\276L\n?\275\367k\271\276>\361M\276\314\020\205\275\036r\226=4\203\274\276\213aO=\273\213\031>\304{0=\364d\260\273l\234\021\2769\323\017>}R\035>\203\233?>\332Y\007\275\304>!=\262\350\210\276\t\225F>\006\303\253=Gu>=\020J\213<rF\023\276\306\303\244=\344#R\275`g\367\274l\356\365\275\241\326$\276\026\024\007\276w\306\267\275\361[\214\275\352M\357=\300\245\261<\2202\245<\276$\364=\226\206\323=\201\265\000>j0G\275\265\336\205\275\217C6\276\202\t\335=d4{<\355\315\255\276F\314\"\276K\270\233<0\024\216\275\311\242\206\275\262\351\327=Ou\n>\320\3559\276n]\315=\253\260A\276xD\253\275+o\251\275\010\313==A\230%>\nJ\241=\242\020\241\275\336\217\241=\313\233%>\347#\224\275\022\373\027\276\340\377\320\275\016\273\237\275\264\021\035\276\037\022\033>(E\272<;T0>\250nJ\275d\036\n\2755\005\224\276\354\331\354\275\003\214L\276\032F\244\276\333K\207\275h\355\246=/\355B=O\332\304<\\\360\017\276\013\224\333<\310\020\035\275\217\206\324\275,\3760\276\tC\261>M\336\277\274Q\017\020\276\274Sz\274\262^\277\276\313`\262\276\246\205\277\276_\367\014\275\341\344\377\274\'i\037>x^\275>FV\014\276\303\002\244\275}\230\232\276\275\332\220>\207yM\276Z\212\320<\203\2246=\352\221j\276\330 \363\274`\233\003\276\233\244\336\275\006\273\001\276\206\302\201\276\027\355l>\327\257\325\275\361\254\020>]GB\276\'\000[\275\246\321\312=\313\241/\276\257J\216\272\375G\217>\230\313\312\274\246C\215=F\206\232\276Gv\323\275\034\332\211=\340\213\341\273i\030\313\274:\366\336=\200U\207:S<B>\221\304v\276\322\231V\275\006V\240\276\2057\224=\311\322\n\276\233\376\232\276\340\325\344<\366\347\247>\017\2515=\274\272$>cV9\275%\203\212=\306\313?\276\036\274\233\276\264Q\035\276\016\352a\276\334t\021>Nc\222\275h\314}\276\327\347I\275QP6\276\035nY>\222[\270=\250\355\217\275\236\267\300=Q\343\206\275\224\325\026\2764+/\2758\357\313\275\300\362\224;\336\005\230=(N\023\276\257\034\017\276\031\016\021>z\273\357\275\026\271\326=q\262\274\275\270>\315\275\253\r->p\350\'\275Pl?=W\335\347=\243y\023\275\006<\361=K\276\211\276\002\263\243\276\340c\310\273\351\277r>\003./>\317\212\202=L\207n=\323\3032\276\312c\232>\\\2129=uyK\272\214\221!\275BC\016\276d\216o=F4\266=v\355\300=P\367\365<\205R\'>\260)\355\275\221\334\313\275,\371\016=\020\366\037\275\227~\'>t\372B=t\376#\276`\rF\275\360\240\031\274\355\350\322\275\334\022\\=\016\325\355\275\036\371\372=8\217\316\2741G->\233:\251>\034\313\267\273-7\362\274\252e\351\275\020W\304=\304\227f\274\345h\036\276\242\273p>\370\rP>\236\032\310=\361\237\033\276\360\214f<tS\031\276\270\'8=\340\362\377\275nID\276\364mS\276>`F>c\003Y>(z\353\275\234\352;>\346\"\315\275\375\213\001>8\3304\275\270\323\276\274\3655\025>\234\333/\274\305\313\271\275\346\352\360=\304\240\r\275\360\t,\274Y\227\016\276rKL\275\355B(\276\364\366-\276\02462>M\035\n\276U\371C>(\032\354\274\3277\212\276+M\357\275\236V\207\275kR\035\276/\037!\276rs\301=\007X2>\236\204\375=\332n\r> x\221\274\203\226\313\275\332%z=\r\2512>\314\031\005=\314Q\210=\306\376!\275YD&>\212\317\344=zl\013>\301\030\230=\336\317\265\275\365m\347\2753\335G\276\256\241k\276U\365\206>\261\276x=U\240\003\276,\264\330\275\254I\222\274\310\323H\274\010\013b=\014N\003\275\0305J\276\363\306\013>fS7\276\315\252\366\275\000\324\240\275pd\'\276\376\344\244=@\333L\273\300_4\276\204\305\t=\322\021e\275\263\030\220\275\024P%\275\203\0261>\324UR=\340$\243;@;\356;\200\307\276<n\322\361=j\026\"\276\240_6<5>\222>z\274\244=\344\220\033\276\335\324\004>\200\331\\;\232\322\365\275o\201\262\276\200\033\004<\224\202C\274\n\311\234>\025\232\357\275\032qX\276\332\321\374\275F\016\211\276\2044\366\275\t\0202>\244\006&\275\363\232\021>\200\311\355<o\354\334\275\304\002\027\276\000\026:\275|\231\"\276pn\255\275v\235\233=i\315#\276xl4\276l\265&\275T(\223=\340\377\262\274P\370\024\276\304\321s\276\320\301\017=\365m\323\274,w\227\276>\327\341=3\312\007\276`\221\020>\013\230\026\276Z\'\251>}-\027=\024~=>\371B\037\276\017\033+>\254n\360<cz\267>\301\365\256\275\372\332\242<\007\3315=\225\351;=\212\010\001\276\000t\246=h\025\017>\244\t-=F\377\347\274~\301\200=oo\037>\343h\222>_\325\000\276\004\300\244\275\354\313W>;\370z\272\244\000\335\275\235W?\276h\212?=\360K\213\274\213\312i>p\313\223\276\202\030\327\274rsr\275)\232\023\276\013\360!>\334>->\314x\202\276\320\213\230<\321\212z>d\036\352\275\010\304\230\274 \014|=/C8\276\262\326\341\275\274H\020\275\240\301\254\273:^t>\277\221\256\2758\230S\275\244\333<=\374s@=\231\351\007\276d\"\004\276\341\203\326\274\0202 <{\222\204>r~\251=\360[\251=\265Xn>\347}\234>\307\213\235<\322B\342=\016$\223\275!\365\216\275]Y.>\351n\025>x\323\253=z\361\371=\224\355\322=s?\213\276\261\222\221=\330g\201\276BX\373=\r&\017>\373Q\316\275\276\0060\276P\036q\275\326\252\337=\\\233\026\276@a\020\2731\3362>\014\304g\275\004=*=`m\321<\350X*\275 \025\321\273\245`\004\276\344e,\275f\223\332=\322\325\216\275\000JZ\2739\333!\276`Ye\276\230#\236<\2769\276=,\314^\276n1>\2763n\033>g\236->\366\215.\276\234\273\237\2756\356 \276qPY>\230\336Q=\357\322\314\274\340\230\335<\226@\375\275\024\215E=\366y\007\2760\307\341\274\303\377\025>S\234\007\276^\305\302\275\265f\036>\3740h\275\200\377\202<\221\365\031\276 \313\313<\260\350\235\274NU\365=@\315@=\275@\033\276\226\027\271\276\365t\212\276\365\233\220\276\212\244Q\276l\307\005\276\325\251\330:\361\2668>\352\264\251=\303_\000>\235aO>\351\337\327\274\020\302\253\276\t\"J\276\\\305\033\275\2635\\\276\351\233\026\276\220\333:\276\366\311~\276\350\215N=[\304\300\276e@\002>Q\356\250<+\247J\276\022\2244\276\300l\254\273\334\032\350\2747#/\275L\016=\276\332\304\250\275\2757\302\274d\033\000=\371\030h\276\241\376\005>o\250\253\275\300\001v\274\224r\270\275\370\276\013\276\255\255I=\322\210\253=\225V\212\2758Z\207\275j^\213=\030\365G\276\201\0372>q}4>3\260c\276E\364B\276\001\372\217\270Y\275\247\276\267\321\224\275\221\025\262\276\252D\207\275\2061E\276\220Q\374\275\343|\322\275\002yx\276\262\252\027\276\250k\250<? \223\276\227J0\276\257\017+\2753{m\276j\326X\276\350\320\317;K\375\213\275!\343\000\276\340\036A\275\254\247\303=\305>w>R1\211=}:-=\312\031\263=}b\240\274)\277$>$:O=\227\002W\275\225H\017>i\025\033>\014\261\'\275k<\033\276@\334\340\274\252A\303\275\026]\351\275\000\3370\275\200\277\031\275^y\340=\230\261[=pI2\274\243\000\t>6\355\315=F1\345=\246\037\346\275l\033\"\276\016\273\374\275m\3002>\376\026\026\275\271&\301\275\322\n\341\275\201\207I\275_`\020>&\257\031\276\023\3269\276l\2705\276\273\0162>O\263,\276)\021\030>\022+\243\274\"\330\177\275\334\377w=\246\245\347==\033[>vH\353=1\363\204\275\037.\016>(\322\007=S\2323\276\210k#=\330\233\253<)\310\010\276|\324\035=\334rt\275\301\260\001>\211i\327\275\200\257x\274\375\335$>\356\027\017\276\252\334|\275\267\200\000>\251\376\005\276^\020\340\275\357S\357\275\213\372\343\275~\002+\276s\'-\276\312f\017\275\n\240\005<!\2630>\027\347\235=\312{\262\275\247\247\235\274\221\036\022>z\224\240=\n\374\231\276\241\217\223><\036\022\275sy\263\275\341\341J>\r\311\270\276L\224Z=N\231\001\275\314\243[=\232=k\276\230c\032=;\372`>\031\204\010\276yb\226\275i\206\214\275E\234\230<\004j#=N{C;\200A\010\275\324`:\275\330\224O=I\316\211\274\367\247)\276\317\t\367<b\017\225\276\346\331\316\275\222\200\347\274\245\271\034>p\362\036\276AB\024>\247iA>-\025/>\2450!>\231O\215\276\247\272\274\275\250\006\310=\211\313\032\276V\2403<D\353:=\257\035\032\276\232\363\355=^\2453\275\244Q`=e\347\262\275{\200\254\275L\243w=R{\206\276=\\~\276\032\022\017>\266|\230=\347\203\205\275=\257\267>m\353\032\276@[s\276\330\233@\275\2124\035>\267\r\364\275\375\256,\276Z$\203\275,\020\311\275>\213)\276\267-\200\275\240rW=We\024>\350,\325\275\353\213(>\273J%>H\266/=_\363\214\275\177\256.>\"S\370\275\227n\003>}\256\362\275\nS\013\276&.\303=\000@@= *\243<\247\037/>\220\232\037\276\200\202u;a\256\t\276\022rQ\275\356\235\232=\3244I=\276B\016\276`d.=\277J0\276;%\323\275?\337\337\275^\334W\275&M\366=\314h\263\275J\323\245\275\357\364\r\276@O\027\276\026\005\234\275 \214\242=hF\344\274\\\r\026=h{\256<}\021*>\340cu\274t_:\275$a =X\314y=\315\355\214\275 =\352;x\235\347<\350=\356\275D+\224=\020\270\373\2740\363^<\232/\014\276\264=\013\276Ji\t\276\363\244!\275\322}\213\276}W`\276\r\354]\2764\316\326\275\303\222\022\276\367\231\226>\010<\242\275\366\324\253=\316\022U<\203\2562>\021*\202\276_l\034\275\325O_\276\241\216e\276\304\031\t\276o\"\330\274\351\261\334\275r\266R\276\3635I>\350\201+\275O\311\r>\366\014#=\270\2734\276\347s\013\275\361\232\267\276\005\037\247\274\253\307M\276L\022\004>\241J\213\275T\032\006\276\003\234\303=\255\2062>\360\234\t\275\250U3\276\306D~\276\222\317\020\275\024T\001=\256\335\257\276\024\016w=\034&\244\275T\346\221>\234\223q=[;\310\274\245\201\034\276(\250\000\275\035\365_>m$\272\276o\316\201\274\241\305z\276\220Yc\275\3021\350\275\203\316\'>\251\226\326\275K\230\365\274\255n\\=\253\261\353\275\000\375\230\276\353$\242\275&Yq\276\207\376.\276\026\022\306\275f\343\201=}\022L\276\363\322\262\276b\330\300=\322\0219>\033\303\013>$<\r\276\236\221\306=\207[p>\347\216\221\276\234V\243\273\376\325\236=\236=\262\276\201Q\017>\353w\206\274m\'\371\275\245\245\n>\310\223!\276j\345\250\275\310\002d=\000\236y\273XN\037\275\333\3721>\200\272(=\022^\202\275p\227+\276I\306\026\276 \340\245\275\276\224)\276\t\322\326\275d\327/\275\032\360\313=G\221!\2762\321\031\276\0013<\276F9\000< 6\207=&@|\276*\326\002\276`\261S=\251\375\021>\213Z\r\275Sg0\276\320\267\r\276\033\024\004=V\221\212=\262\314\216\275\217\225\007=I\221/>R\321\267=\210\327\026\276\355\243+\276x\374\356\274\260h\014\276\244\2231\276\350\342\225\275}\3140\276\247\210\357\275\202\225\230=\373\000\352\275\302|\334=\020\333O\275\310\333\027\276\200\006\344<tAl\275LD\204>\214\336\023\276\343{\274\275\204f\204\276Q\357\022\276\177>\217\2758jn\275>:\036\276\tq*>\034\200\344=\306Xv\274\025\335\340\274\261\263/>A\260\377\274#\005$>\337\252\345\274*<\236\275\347\311\201\276B0\354=o[\323\275h\300\262\273\252\027\007>\266Vx\273]c\010>\365E\014>\337)\025>T\253\224\276\230\305\034\275\005\332*>m\272\323\275\026\324\300<~\310J\274\257\304\211<nQ\375=/\017\250\275\263\261/>\177\'\014\275\'R\"\275\014\252a=\255\317\030\276B\275\213>\340\377\t\275\212\177[\276\000@\300\273F}\311=\2044\010\276\320 S=\002\272\232=\200Tc\276\266\021\010\276S\032\235\275\320y\337=\263N\006\275\370;\207\275 \006\254=s\231\326<\265\355\302=\251\315\017>\016\230<\276mY\316<G\0227\275\347\373\226>\312PS>\016\016\212\276\366\246\354=HF\232>m\220 >\306G-\275\311\250g>t\363A\276j\370\030\276\345\340m\273H\017N\275\210\221\370\275i/:>$\223`\276f\334\337=\362\2044\274~\005\333=\210o\025=P\377t\274 \017\021\276\262W\355= \304n=S\006\033\276p\240&= \205\340;\277\234\026>$\223\365\275\206\203\360\275&\264\273\275\2203\356\275\344\250p=\026\222\243=$3C=\207\3231\276\310\3103\275~X\251\275G\3548\276v\324\303<\257\235\317\275\367\377t\276\366\356\374=u\2753>\241\353\216\274\274\261,\276\214Bp=T\020F=\264\351\352\275\366I\017=d\366\220\275F\275\263\275\010\022\245\274@\310\256;\312\327\315=\331r1\276\300x\005\2731{\002>\300\226k\274\210\222V\275\361|\305\275\236\353\245\275\004\322\037\276X\"\026=Zb\203\2750\212*\275n\252\220\275P\022C\275j\204P>\371\246\001>\376f\222\276|\264\222\276\265C\241\276\017\337R\276v\3000<\000\310\017=\213\352\302\275\\\314\311\275\'\221\017\276\331\230\303\275J\371\334=\314.\231=\364v\256>\230\212\262\276\272O\032\276\267\024\023\276]\024H>\356\r\021\276\005\361)>\220iR\276}\036\201\275\360\360 \275\231\020\374\275\272\022V:\\\241\210\276\0009\037\275\353o+>#\215\217>\261|\003\276\300\267\352=\002\250\234\274\\\242G\275\344\231.=\310\t^\276\334\030\004\276\020\371\221\273Q\177Z>\354\330E\276\006]\r<:a\310\274\230\316\030=|\242\367\275z1\260\275\3373\266\275\302\362t\275R\245\340=\002\201z\276+>4\276\364D\023\276\240A\205;\227\331;=\216\321a\275\277\"7=\214\3334\271x\204Y<&\370\253\276Y\231\246\276\024\375\340=k\204\201\276\345\3045\276I\2377>\3142)\275*\014\257>?\310$\276\3631\245\275N\213\001>9 